<unk>	0
<s>	0
</s>	0
<pad>	0
<0x00>	0
<0x01>	0
<0x02>	0
<0x03>	0
<0x04>	0
<0x05>	0
<0x06>	0
<0x07>	0
<0x08>	0
<0x09>	0
<0x0A>	0
<0x0B>	0
<0x0C>	0
<0x0D>	0
<0x0E>	0
<0x0F>	0
<0x10>	0
<0x11>	0
<0x12>	0
<0x13>	0
<0x14>	0
<0x15>	0
<0x16>	0
<0x17>	0
<0x18>	0
<0x19>	0
<0x1A>	0
<0x1B>	0
<0x1C>	0
<0x1D>	0
<0x1E>	0
<0x1F>	0
<0x20>	0
<0x21>	0
<0x22>	0
<0x23>	0
<0x24>	0
<0x25>	0
<0x26>	0
<0x27>	0
<0x28>	0
<0x29>	0
<0x2A>	0
<0x2B>	0
<0x2C>	0
<0x2D>	0
<0x2E>	0
<0x2F>	0
<0x30>	0
<0x31>	0
<0x32>	0
<0x33>	0
<0x34>	0
<0x35>	0
<0x36>	0
<0x37>	0
<0x38>	0
<0x39>	0
<0x3A>	0
<0x3B>	0
<0x3C>	0
<0x3D>	0
<0x3E>	0
<0x3F>	0
<0x40>	0
<0x41>	0
<0x42>	0
<0x43>	0
<0x44>	0
<0x45>	0
<0x46>	0
<0x47>	0
<0x48>	0
<0x49>	0
<0x4A>	0
<0x4B>	0
<0x4C>	0
<0x4D>	0
<0x4E>	0
<0x4F>	0
<0x50>	0
<0x51>	0
<0x52>	0
<0x53>	0
<0x54>	0
<0x55>	0
<0x56>	0
<0x57>	0
<0x58>	0
<0x59>	0
<0x5A>	0
<0x5B>	0
<0x5C>	0
<0x5D>	0
<0x5E>	0
<0x5F>	0
<0x60>	0
<0x61>	0
<0x62>	0
<0x63>	0
<0x64>	0
<0x65>	0
<0x66>	0
<0x67>	0
<0x68>	0
<0x69>	0
<0x6A>	0
<0x6B>	0
<0x6C>	0
<0x6D>	0
<0x6E>	0
<0x6F>	0
<0x70>	0
<0x71>	0
<0x72>	0
<0x73>	0
<0x74>	0
<0x75>	0
<0x76>	0
<0x77>	0
<0x78>	0
<0x79>	0
<0x7A>	0
<0x7B>	0
<0x7C>	0
<0x7D>	0
<0x7E>	0
<0x7F>	0
<0x80>	0
<0x81>	0
<0x82>	0
<0x83>	0
<0x84>	0
<0x85>	0
<0x86>	0
<0x87>	0
<0x88>	0
<0x89>	0
<0x8A>	0
<0x8B>	0
<0x8C>	0
<0x8D>	0
<0x8E>	0
<0x8F>	0
<0x90>	0
<0x91>	0
<0x92>	0
<0x93>	0
<0x94>	0
<0x95>	0
<0x96>	0
<0x97>	0
<0x98>	0
<0x99>	0
<0x9A>	0
<0x9B>	0
<0x9C>	0
<0x9D>	0
<0x9E>	0
<0x9F>	0
<0xA0>	0
<0xA1>	0
<0xA2>	0
<0xA3>	0
<0xA4>	0
<0xA5>	0
<0xA6>	0
<0xA7>	0
<0xA8>	0
<0xA9>	0
<0xAA>	0
<0xAB>	0
<0xAC>	0
<0xAD>	0
<0xAE>	0
<0xAF>	0
<0xB0>	0
<0xB1>	0
<0xB2>	0
<0xB3>	0
<0xB4>	0
<0xB5>	0
<0xB6>	0
<0xB7>	0
<0xB8>	0
<0xB9>	0
<0xBA>	0
<0xBB>	0
<0xBC>	0
<0xBD>	0
<0xBE>	0
<0xBF>	0
<0xC0>	0
<0xC1>	0
<0xC2>	0
<0xC3>	0
<0xC4>	0
<0xC5>	0
<0xC6>	0
<0xC7>	0
<0xC8>	0
<0xC9>	0
<0xCA>	0
<0xCB>	0
<0xCC>	0
<0xCD>	0
<0xCE>	0
<0xCF>	0
<0xD0>	0
<0xD1>	0
<0xD2>	0
<0xD3>	0
<0xD4>	0
<0xD5>	0
<0xD6>	0
<0xD7>	0
<0xD8>	0
<0xD9>	0
<0xDA>	0
<0xDB>	0
<0xDC>	0
<0xDD>	0
<0xDE>	0
<0xDF>	0
<0xE0>	0
<0xE1>	0
<0xE2>	0
<0xE3>	0
<0xE4>	0
<0xE5>	0
<0xE6>	0
<0xE7>	0
<0xE8>	0
<0xE9>	0
<0xEA>	0
<0xEB>	0
<0xEC>	0
<0xED>	0
<0xEE>	0
<0xEF>	0
<0xF0>	0
<0xF1>	0
<0xF2>	0
<0xF3>	0
<0xF4>	0
<0xF5>	0
<0xF6>	0
<0xF7>	0
<0xF8>	0
<0xF9>	0
<0xFA>	0
<0xFB>	0
<0xFC>	0
<0xFD>	0
<0xFE>	0
<0xFF>	0
▁	-3.66799
?	-4.03207
།	-4.41109
འདི་	-4.43752
▁ང་གིས་	-4.58432
ལུ་	-4.87245
ཨིན།	-5.00189
▁ཁྱོད་ཀྱིས་	-5.05999
▁ང་	-5.11276
་ནུག།	-5.24197
དང་	-5.33895
གནམ་མེད་ས་མེད་	-5.33931
་	-5.35825
གི་	-5.51807
▁ཁྱོད་	-5.56909
གིས་	-5.65246
་ཡི།	-5.68318
ལས་	-5.71919
▁ཀརྨ་གིས་	-5.72358
ནང་	-5.72616
ཚུ་	-5.75816
ཡོད།	-5.78454
དེ་	-5.79538
་ཟེར་སླབ་ཅི།	-5.88062
འདུག།	-5.89953
▁ཁོ་	-5.92847
ར་	-5.93396
▁ང་བཅས་ཀྱིས་	-5.97792
ཅིག་	-5.9799
▁འདི་	-6.01753
ང་	-6.04323
སྦེ་	-6.05073
▁ཁོ་གིས་	-6.05491
མི་	-6.10637
མ་	-6.14032
དཔལ་སྒྲོན་གྱིས་	-6.20089
ཁྱོད་ཀྱིས་	-6.20905
▁ང་བཅས་	-6.26982
ང་གིས་	-6.28702
གྱི་	-6.34138
ཅིག་ཨིན།	-6.38103
ཨིན་མས།	-6.3987
དང་གཅིག་ཁར་	-6.41885
▁དེ་	-6.42994
▁ང་ལུ་	-6.43102
ཡང་	-6.45688
▁མོ་	-6.55928
ཁོ་	-6.57765
ཁོ་གིས་	-6.58726
ཁྱོད་	-6.59937
▁རྡོ་རྗེ་གིས་	-6.59998
སྡོད་ཅི།	-6.60432
མོ་	-6.63155
ལེགས་ཤོམ་	-6.63982
ག་ཅི་སྦེ་	-6.6448
ནང་ལུ་	-6.65459
ག་ར་	-6.66474
▁ཀརྨ་	-6.67186
ཨིན་པས།	-6.67556
མིན་འདུག།	-6.68478
▁ཉི་མ་གིས་	-6.70773
ཀྱི་	-6.71985
ང་ལུ་	-6.71991
▁ཁྱོད་ཀྱི་	-6.75133
▁མོ་གིས་	-6.75764
་འོང་།	-6.76709
ག་དེ་སྦེ་	-6.77495
མེད།	-6.78459
ཨིན་ན	-6.8262
མེན།	-6.8303
ས་	-6.83274
གི་དོན་ལུ་	-6.83501
ག་	-6.90099
འཛིན་དཔལ་སྒྲོན་	-6.90252
ན་	-6.91475
▁ཨ་ནཱི་	-6.91504
▁ང་གིས་ཁྱོད་	-6.94614
པ་	-6.9542
མོ་གིས་	-6.96002
▁ཀརྨ་འདི་	-6.97203
འི་	-6.99871
ང་བཅས་ཀྱིས་	-7.00783
འོང་།	-7.01192
ད་	-7.01213
ད་ལྟོ་ཡང་	-7.02145
ང་བཅས་	-7.06589
གྱིས་	-7.06821
རྐྱངམ་གཅིག་	-7.07937
་དེས།	-7.0824
་ཟེར་མནོཝ་མས།	-7.10697
་དགོ།	-7.1199
འབད་ཡི།	-7.12121
ཁྱོད་ལུ་	-7.13933
སྡོད་ཡི།	-7.15354
▁ཁྱོད་ལུ་	-7.15805
▁ང་གིས་ཁྱོད་ལུ་	-7.1614
ལོག་	-7.16851
ཁྱོད་ཀྱི་	-7.18474
སྡོད་ནུག།	-7.18646
ཀྱིས་	-7.19054
ཨ་རྟག་ར་	-7.20452
དུས་ཚོད་	-7.20471
མས།	-7.2115
གཅིག་	-7.21284
་ཅི།	-7.22229
ལཱ་	-7.23254
སྨོ	-7.23258
་པས།	-7.24619
་ཟེར་སླབ་དེས།	-7.24966
་ག	-7.26324
ག་ཅི་	-7.26379
ཁྱོད་རའི་	-7.27202
ཡོད་པའི་	-7.27522
▁ཁོང་གིས་	-7.29245
ལེགས་ཤོམ་སྦེ་	-7.29708
འདི་གིས་	-7.30318
ཁོ་རའི་	-7.3081
ནཱ་ལུ་	-7.31479
ཁོང་	-7.33263
ག	-7.33949
▁ཉི་མ་འདི་	-7.34913
བ་	-7.35703
ལེགས་ཤོམ་ཅིག་	-7.37697
ག་དེམ་ཅིག་	-7.38297
གཅིག་ཁར་	-7.39161
ཁོ་གི་	-7.40164
▁ཁོང་	-7.408
▁ང་བཅས་ཀྱི་	-7.41571
འགྱོ་ཡི།	-7.41913
་ཡི་ཟེར་སླབ་ཅི།	-7.42006
ང་བཅས་ཀྱི་	-7.42258
ལེ་ཤ་	-7.42261
▁ང་གིས་དེ་	-7.42287
བ	-7.43237
་གེ།	-7.43986
དོན་ལུ་	-7.44024
ཁ་	-7.44527
ང་བཅས་ལུ་	-7.4495
འབད་བ་ཅིན་	-7.45317
ད་ལྟོ་	-7.4594
▁འ་ནཱི་	-7.46064
་ཟེར་	-7.46411
ལ་	-7.47018
་ཟེར་མི་མནོ་བས།	-7.47383
ཡོད་ག	-7.47715
ཨ་ཕི་དེ་	-7.47766
་དོ།	-7.47767
འབད་ནུག།	-7.47958
གུར་	-7.47984
འབད་	-7.48444
ཁོང་གིས་	-7.50016
▁ང་བཅས་ལུ་	-7.50297
གི་སྐོར་ལས་	-7.504
ཁྱིམ་ནང་	-7.51134
སླབ་ཅི།	-7.51405
ཡང་ན་	-7.5241
་ནིའི་དོན་ལུ་	-7.53352
ངེ་གི་	-7.54017
་མི་	-7.54389
▁རྡོ་རྗེ་	-7.548
གཉིས་	-7.55384
▁བཟང་པོ་གིས་	-7.55523
ཆ་རོགས་	-7.56166
དག་པ་ཅིག་	-7.56238
▁རིག་འཛིན་	-7.56574
རིག་འཛིན་	-7.56609
ཨ་ནཱི་	-7.56754
▁ང་གིས་འདི་	-7.57443
▁ངེ་གི་	-7.58592
དེ་འབད་ནི་ལུ་	-7.59227
རང་	-7.598
▁ཁྱོད་རའི་	-7.60267
▁ངེའི་	-7.60454
ཁོ་ལུ་	-7.60642
ལོག་སྟེ་	-7.60859
ཡང་ཅིན་	-7.62829
་མི་ཚུགས།	-7.63214
ཨ་ཙི་ཅིག་	-7.63224
ཡོདཔ་ཨིན།	-7.63322
ག་ཅི་ཅིག་	-7.63564
་ནི་	-7.63891
འབད་མི་	-7.64085
སྦོམ་	-7.64594
པའི་	-7.65309
ཚུ་གིས་	-7.66016
▁ཁྱོད་ཀྱིས་ང་ལུ་	-7.66046
▁རྡོ་རྗེ་འདི་	-7.68434
རྩ་ལས་	-7.69237
▁ཊོམ་གྱིས་	-7.6956
དོན་ལས་ར་	-7.69674
ཀརྨ་	-7.71017
ཡོད་མི་	-7.71341
ཀརྨ་དང་རིག་འཛིན་	-7.71364
འབད་ནི་	-7.71515
ད་རིས་	-7.72063
འ	-7.72102
རིན་འཛིན་	-7.72327
དགའ།	-7.72715
་སྟེ་	-7.72798
་ནི་ལུ་	-7.72833
ཐད་རི་བ་རི་	-7.73265
འབདཝ་ཨིན།	-7.7391
ལོ་	-7.75375
ག་ཅི་ཡང་	-7.76376
དཔལ་སྒྲོན་	-7.76701
སྣུམ་འཁོར་	-7.78022
ངེའི་	-7.78151
▁ང་བཅས་ཚུ་	-7.78175
▁རིན་འཛིན་	-7.7882
པར་	-7.79122
འ་ནཱི་	-7.79975
མ	-7.79982
ཤེས།	-7.80169
ལམ་	-7.80705
མངམ་	-7.80727
དགོ་པས།	-7.81077
གྱི་དོན་ལུ་	-7.8132
བཟུམ་སྦེ་	-7.8165
ཨ་ཕི་	-7.81686
ནུག།	-7.82058
བཞེས་སྒོ་	-7.82271
ཆུ་	-7.82917
་དགོ་པས།	-7.82939
ཀ་	-7.833
ཀརྨ་དང་རིན་འཛིན་	-7.84053
གཉིས་ཆ་ར་	-7.84131
▁ཨ་ཕི་	-7.84335
ཨིན་ཟེར་	-7.84637
ཝ་ཨིན།	-7.85261
ཅིག་ཡོད།	-7.85406
པ་ཨིན།	-7.8542
་མི་འདི་	-7.85457
ཧ་ལམ་	-7.85478
སྐོར་ལས་	-7.85848
ཧེ་མ་	-7.86069
ཏི་རུ་	-7.86377
ཀརྨ་གིས་	-7.86433
ཧེ་མ་ལས་	-7.86471
མ་སྡོད།	-7.87106
▁བཟང་པོ་	-7.87262
▁ཊོམ་	-7.87411
▁ཁོ་གི་	-7.88958
སི་	-7.89052
▁ཁོ་ལུ་	-7.89118
ཕྱི་ཁར་	-7.89169
དཔལ་འབྱོར་གྱིས་	-7.8938
བཟུམ་	-7.89963
▁ཀརྨ་དང་	-7.90327
ནམ་	-7.90697
་མས།	-7.90736
སེམས་	-7.91219
ཝ་མས།	-7.91572
རྡོ་རྗེ་	-7.91638
བརྒྱུད་འཕྲིན་	-7.91749
་ཞིནམ་ལས་	-7.93952
དགོ།	-7.94537
ངོ་མ་ར་	-7.94715
▁ཨ་ནཱི་འདི་	-7.94928
ན	-7.95082
་གནང་།	-7.95254
འཆར་གཞི་	-7.96236
་ཡི་ག	-7.96377
ཨ་ལུ་	-7.9682
▁ཀརྨ་གིས་ཁོ་གིས་	-7.97184
▁དངོས་གྲུབ་ཀྱིས་	-7.97692
མོ་ལུ་	-7.97853
▁བཟང་པོ་འདི་	-7.98104
འབད་ནི་ལུ་	-7.9831
ནི་	-7.98397
ག་ནི་ཡང་	-7.98643
▁ང་གིས་ཁོ་	-7.98867
ནམ་ཡང་	-7.99328
ས	-7.99333
གྲོགས་རམ་	-7.99754
ཁྱིམ་	-7.99825
གུ་	-7.99992
▁ང་འདི་	-8.00079
མེན་པས།	-8.00368
ཝ་	-8.00609
ཨིན་རུང་	-8.01262
འབད་དགོཔ་	-8.01686
ར	-8.01787
་ནིའི་	-8.0192
▁གལ་སྲིད་	-8.0229
རེ་	-8.02418
ཨཱསི་ཊེ་ལི་ཡ་ལུ་	-8.02435
དཀའ་ངལ་	-8.02948
ཅིག་ཨིན་པས།	-8.03172
འཛོལ་བ་	-8.03525
བཱོསི་ཊོན་ལུ་	-8.03868
འབད་ནི་གི་	-8.04046
འགྱོ་ནུག།	-8.04392
་ཟེར་སླབ་ནུག།	-8.04718
▁ང་གིས་ཀརྨ་གིས་	-8.04908
ག་གིས་	-8.05552
▁ཀརྨ་གིས་ང་ལུ་	-8.06208
མོ་རའི་	-8.06953
གསརཔ་	-8.06981
ཊ་	-8.08286
ད་རུང་	-8.08426
མི་མནོ་བས།	-8.0906
▁འ་ནཱི་འདི་	-8.0976
་ནི།	-8.10018
རྡོ་རྗེ་སྒྲོལ་མ་	-8.10264
མོ་གི་	-8.10832
བྱིན་ཡི།	-8.1115
ནངས་པ་	-8.11745
་ནི་འདི་	-8.11872
▁ཀརྨ་ལུ་	-8.11955
▁ཁོང་ཚུ་	-8.11971
ཅན་གྱི་	-8.11997
་པ་ཅིན་	-8.12126
འབད་འོང་།	-8.12173
་ནི་མེད།	-8.12258
▁ཟླ་བ་གིས་	-8.12792
▁འདི་གིས་	-8.12941
དེ་ལས་	-8.136
ཉིནམ་	-8.13702
ཟ	-8.13769
་ཚུགས།	-8.14622
ཅིག་ཨིན་མས།	-8.15184
འོང་ཟེར་མནོཝ་མས།	-8.16063
ནང་ལས་	-8.16129
▁ཁྱོད་ར་	-8.16428
པ་མས།	-8.16541
་ནི་གི་བློ་འདོད་	-8.17234
▁ཁྱོད་ཀྱིས་ང་	-8.17334
་འོང་ཟེར་	-8.17659
ཨིན་	-8.17799
▁ང་གིས་ཁྱོད་ཀྱི་	-8.18012
ཚུ་ལུ་	-8.1805
ཚུན་	-8.18379
མ་འབད།	-8.18505
རི་	-8.18995
་ཏེ་	-8.19041
▁ཀརྨ་གིས་ཁོ་	-8.19045
གཅིག་གིས་གཅིག་	-8.1907
འགྱོ་ནི་	-8.19073
སྡོདཔ་ཨིན།	-8.19086
མི་ཤེས།	-8.19238
འབད་དགོ།	-8.19277
▁ཉི་མ་	-8.19421
▁དབང་ཕྱུག་གིས་	-8.19589
▁ཁོ་གིས་ཁོ་རའི་	-8.19678
་འོང།	-8.20159
མི་དགའ།	-8.20276
ཚུ་ག་ར་	-8.20537
ནཱ་	-8.20615
ཀྱི་དོན་ལུ་	-8.2107
བློ་	-8.21294
ཅན་	-8.21549
འབད་དེ་	-8.21738
འཕྲལ་འཕྲལ་ར་	-8.22113
སློབ་གྲྭ་ནང་	-8.22311
མེད་པར་	-8.2233
་མ་ཚུགས།	-8.22777
མེད་པའི་	-8.22853
འོང	-8.22885
གནས་སྟངས་	-8.22953
སྤྲོ་བ་	-8.23502
ཨ་ཙི་	-8.24073
ཁོང་ལུ་	-8.24221
མར་	-8.24236
ཁྱོད་ར་	-8.2432
་ཟེར་སླབ་མས།	-8.24768
་བས།	-8.24902
གསུམ་	-8.25105
ཅིག་འདུག།	-8.25171
འདི་ལུ་	-8.25217
གཞན་	-8.25218
་མི་ཚུགས་པས།	-8.25256
▁དར་རྒྱས་ཀྱིས་	-8.2533
ཁོང་རའི་	-8.25423
ཕེརེནཆི་	-8.25449
མེ་	-8.25674
མཐོང་ཡི།	-8.26158
ཁ་ཙ་	-8.26202
ད	-8.26444
མེདཔ་	-8.26481
ཡོདཔ་	-8.26484
དེ་ཁར་	-8.27001
▁ཚེ་རིང་	-8.27213
་པའི་	-8.27333
༤	-8.27985
དཔེ་དེབ་	-8.28729
ངེས་པར་དུ་	-8.28772
ཚད་	-8.28915
▁ང་གིས་ཀརྨ་	-8.29661
▁ཁྱོད་ཀྱིས་དེ་	-8.29806
ཆ་	-8.29902
ཐོབ་ཅི།	-8.30068
བཟོ་ཡི།	-8.30125
་ཟེར་མནོ་ཡི།	-8.30333
ག་གིས་ཡང་	-8.30364
་རུང་	-8.30469
▁ནཱ་ལུ་	-8.30529
འདི་གི་སྐོར་ལས་	-8.30926
ཨིན	-8.31232
མཐོངམ་མས།	-8.31562
འོང་ཟེར་	-8.31638
ཤ་	-8.31951
ཕོ་སྐྱེས་	-8.32033
་ཚུགས་ག	-8.32619
.	-8.33024
་ནི་གི་དོན་ལུ་	-8.33461
བཏང་ཡི།	-8.33755
རྡོ་རྗེ་གིས་	-8.34376
སྒོ་	-8.34998
བཟོ་ནུག།	-8.35258
▁ང་གིས་མོ་	-8.3552
▁མོ་ལུ་	-8.3557
འགོ་དང་པ་	-8.37232
མི་དགའ་བས།	-8.37433
རྐྱངམ་གཅིག་ཨིན།	-8.37594
དེ་ཅིག་	-8.376
ཡོད་པ་ཅིན་	-8.37784
དཔལ་སྒྲོན་འདི་	-8.38444
དེ་གི་སྐོར་ལས་	-8.38565
དེ་ཚུ་	-8.386
འགྱོཝ་ཨིན།	-8.38609
དགའ་བས།	-8.38714
ཤིང་	-8.38752
ཁྱོད་དང་གཅིག་ཁར་	-8.38796
ཨམ་སྲུ་	-8.39104
ཕུན་ཚོགས་	-8.39209
་འོང་ག	-8.39356
ཟེར་	-8.39418
ཊི་	-8.39523
འོང།	-8.3971
སླབ་	-8.39827
གྲ་སྒྲིག་	-8.39832
ཁར་	-8.39918
འབདཝ་མས།	-8.40355
ག་ཅི་སྨོ	-8.40356
་ཡ	-8.40503
སྲུང་	-8.40544
བརྒྱུད་འཕྲིན་གཏང	-8.41144
བདུན་ཕྲག་	-8.41386
▁ང་གིས་ཀརྨ་འདི་	-8.41585
ཡར་སོ་ཡི།	-8.41623
ཌ་	-8.41674
ཁོང་གི་	-8.4193
བདེན་པ་	-8.42205
སླབ་དེས།	-8.42231
བཀོ་བཞག	-8.42424
སྡེ་ཚན་	-8.42449
མ་སླབ།	-8.42675
ལྟོ་	-8.4276
འདུག་ག	-8.43154
གཅིག་འབདན་	-8.43309
མེད་	-8.43578
▁ཀརྨ་དང་རིག་	-8.4388
ལས་ལྷག་སྟེ་	-8.43947
ཉེན་སྲུང་	-8.44086
སྨིན་དྲུག་	-8.44395
བཏང་ནུག།	-8.44653
དགོཔ་	-8.45041
དུས་	-8.4506
ཐོག་ལས་	-8.45114
དཔལ་སྒྲོན་ལུ་	-8.45151
གཡོག་	-8.45588
▁ཁོང་ཆ་ཁྱབ་	-8.45725
སྒྲོལ་མ་གིས་	-8.46373
འབད།	-8.4655
གནས་ཚུལ་	-8.467
མིང་	-8.46728
འགྱོ་འོང་།	-8.46755
མནོ་བསམ་གཏང	-8.46841
མི་ཚུ་	-8.46878
ཤུལ་ལས་	-8.46913
▁ག་ར་	-8.47075
ང་བཅས་རའི་	-8.47259
སླབ་མི་འདི་	-8.4727
བཟོ་	-8.47483
ག་ཏེ་	-8.47666
ཕར་	-8.47669
ཅི་	-8.47825
མཐོང་མས།	-8.47855
▁མི་	-8.47957
ཡར་	-8.47986
འདི་ཚུ་	-8.48342
འབག	-8.48726
རོ་ཁྱི་	-8.48922
ལྷོད་ཅི།	-8.49146
གནས་	-8.49154
་སྦེ་	-8.49248
ཚིག་	-8.49286
▁ད་རིས་	-8.49644
གོ་	-8.49675
ནང་ན་	-8.4995
ཆུང་ཀུ་	-8.50172
ངོ་མ་	-8.50276
་ནི་ཨིན།	-8.51068
བདུན་ཕྲག་ནང་	-8.51079
༣	-8.51186
འགྱོ་ནི་གི་	-8.51398
བུམོ་	-8.51476
དེ་འབདཝ་ད་	-8.51808
ཀཱར་	-8.51813
དེ་གིས་	-8.51885
མ་ཤེས།	-8.52084
གོ་སྐབས་	-8.5225
ངལ་གསོ་	-8.52424
༧	-8.52451
འབད་མི་འདི་	-8.5271
རེ་བ་བསྐྱེད་དོ།	-8.52848
▁ང་གིས་ཨ་ནཱི་	-8.53134
ཞབས་ཏོག་	-8.53193
འདི་ནང་	-8.53333
▁ད་	-8.53407
སོ་	-8.53411
ཡོད་མི་འདི་	-8.53455
ཨིན་ན་	-8.5352
མགྱོགས་པར་	-8.53666
ལན་	-8.53823
▁ང་གིས་ང་	-8.53875
▁ང་གིས་ཁོ་ལུ་	-8.53941
ཡོད་ཟེར་	-8.54033
འགྱོ	-8.54051
ག་ཅི་འབད་ཡི་ག་	-8.54567
▁ཁོ་འདི་	-8.54626
ལཱ་གཡོག་	-8.54642
ཐོག་	-8.54698
བའི་	-8.54937
ཌི་	-8.54945
འགོ་བཙུགས་ནུག།	-8.54976
ས་གནས་	-8.55385
སློབ་ཕྲུག་	-8.55494
རྒྱབ་སྐྱོར་	-8.55836
༦	-8.55869
མཁའ་འགྲོ་དབང་མོ་	-8.56012
རོ་	-8.56045
ཆང་	-8.56165
▁ཊོམ་གྱི་	-8.56171
འཇམ་ཏོང་ཏོ་	-8.56177
སྐད་	-8.56235
་ནི་གི་	-8.56493
ཁྱོད་ཀྱི་དོན་ལུ་	-8.56773
ལེགས་ཤོམ་འདུག།	-8.56816
▁ང་གིས་ཉི་མ་གིས་	-8.56872
▁རྣམ་རྒྱལ་གྱིས་	-8.56919
བཞག་ནུག།	-8.57136
སྦེ་སྡོད་ཅི།	-8.57165
ཧེ་མ་ལས་ར་	-8.57684
ཁོ་ར་	-8.57749
མགྱོགས་པ་ར་	-8.5812
སེང་གེ་	-8.58241
མ་ཨིན།	-8.58457
མ་མཐོང་།	-8.58589
▁ང་གིས་ངེ་གི་	-8.5863
སྡོད་འོང་།	-8.5865
དེ་ནང་	-8.58687
འདུག	-8.58791
་བའི་	-8.58819
དངུལ་	-8.59025
སློབ་དཔོན་	-8.59037
པ	-8.5924
མཐོང་ནུག།	-8.59386
▁ང་གིས་ཀརྨ་ལུ་	-8.59645
འབད་ནིའི་	-8.59844
ལེན་	-8.59849
དུམ་གྲ་ཅིག་	-8.59853
༥	-8.59927
ཚུན་ཚོད་	-8.59931
་ཡི	-8.59951
ལཱ་ཁག་	-8.60262
སླབ་ནི་	-8.60287
དགའ་	-8.60327
གནས་སྐབས་	-8.60457
སོ་སོ་	-8.60493
འབད་ཚུགས	-8.605
ཁྲིམས་སྲུང་འགག་པ	-8.6076
དབང་མོ་གིས་	-8.60827
ཁོ་གིས་རིན་འཛིན་	-8.6098
་མ་ཚུགས་པས།	-8.61022
བུ་	-8.61334
ཊོམ་	-8.61352
ལེ་ཤ་ཅིག་	-8.61428
མི་འོང་།	-8.61687
ཨིནམ་	-8.61692
▁ཀརྨ་གིས་རིན་	-8.61705
ཐོབ་ནུག།	-8.62005
ཨིན་ཟེར་སླབ་ཅི།	-8.62025
འབད་ཚུགས།	-8.62028
རྩིས་	-8.62245
ཡོད་	-8.62316
དཔལ་འབྱོར་	-8.62468
བོ	-8.62739
གློག་བརྙན་	-8.62863
ཤུལ་མའི་	-8.63253
འབད་འོང་ཟེར་	-8.63391
ཕུན་ཚོགས་ཀྱི་	-8.63404
རིངམོ་	-8.64089
▁རྣམ་རྒྱལ་	-8.64547
རྐྱབ་ཅི།	-8.64601
▁ཁོ་གིས་ང་ལུ་	-8.6467
ཨ་	-8.64752
༢	-8.64896
ཕྱི་རུ་	-8.64965
འོང་	-8.65171
ལག་	-8.65318
གདམ་ཁ་	-8.65362
ག་ཡང་	-8.65368
སྡོད་ནི་	-8.65455
ཅིག་ནང་	-8.65463
སྡོད	-8.65594
ཡིད་ཆེས་བསྐྱེད	-8.65599
ཤེས	-8.65712
རྐྱངམ་ཅིག་	-8.65724
ལ	-8.6577
▁ཀརྨ་དང་རིན་	-8.65824
ཨེ་	-8.65837
ག་ཏེ་ལུ་	-8.65897
༡	-8.65961
འབད་མི་ཚུགས།	-8.66057
ད་ལས་ཕར་	-8.66671
སྤྲོ་བ་ཆེ་ཏོག་ཏོ	-8.66891
ཀརྨ་ལུ་	-8.66972
གལ་སྲིད་	-8.67134
ཐེ་ཚོམ་ཟཝ་མས།	-8.67239
མི་འདི་	-8.67335
རྒྱལ་ཁབ་	-8.67345
ཅིག་མེན།	-8.67366
འདུག་ཟེར་	-8.67442
▁ང་གིས་ང་རའི་	-8.67507
བརྟན་བརྟན་	-8.67533
ཚར་གཅིག་	-8.67542
བལྟ།	-8.67578
ཨ་ཕི་འདི་	-8.6765
ག་དེམ་ཅིག་སྦེ་	-8.67713
བར་	-8.67995
ལི་	-8.68024
▁མོ་གི་	-8.68075
ཝ	-8.68287
དོན་	-8.68419
བྱིན་ནུག།	-8.68439
སོང་ཡི།	-8.68927
འདི་འཕྲོ་ལས་	-8.6909
དེ་འབད་ནི་	-8.6915
▁དངོས་གྲུབ་འདི་	-8.69289
མནོ་བསམ་	-8.69491
སྟོན་	-8.70038
པ་གིས་	-8.70122
ལེ་	-8.70226
སླབ་ནུག།	-8.70327
▁དེ་ལས་	-8.70342
སེམས་དགའ་ཡི།	-8.70639
ཤི	-8.70687
བཞག།	-8.70836
གནད་དོན་	-8.70843
ཏེ་	-8.70846
་པའི་སྐབས་	-8.70982
ལུ་ཆ་རོགས་འབད	-8.70993
་འདི་	-8.71149
ཡོངས་གྲགས་	-8.71153
གི་ཧེ་མ་	-8.71266
▁རྡོ་རྗེ་གིས་མོ་	-8.71419
▁བསོད་ནམས་ཀྱིས་	-8.71496
སློབ་གྲྭ་	-8.71651
ཉི་མ་	-8.71673
ཀྱི་སྐོར་ལས་	-8.71933
ཉམས་མྱོང་	-8.72008
▁ང་ཁྱོད་	-8.72031
ང་གིས་ཁྱོད་ལུ་	-8.72282
▁སངས་རྒྱས་	-8.72544
ཁང་མིག་	-8.72548
གཞི་	-8.72735
ི་	-8.72833
ད་རིས་ཕྱི་རུ་	-8.7296
ཡི་གུ་	-8.73094
▁ཀརྨ་གིས་ཁོ་རའི་	-8.732
ཉ་	-8.73217
དུས་ཡུན་	-8.73745
་དགོཔ་ཨིན།	-8.73765
འུ་	-8.73937
▁སངས་རྒྱས་ཀྱིས་	-8.73938
་དེ་འབདཝ་ད་	-8.74118
་ཟེར་མནོཝ་མས་ག	-8.74149
ཇ་	-8.74242
རེ་བ་	-8.74939
སླབ་མི་	-8.75108
ཚེ་རིང་ཀུན་ལེགས་	-8.75164
་ནི་ཡོད།	-8.75211
དྲག་ཤོས་	-8.75229
▁ང་གིས་ངེའི་	-8.7523
ག་ར་གིས་	-8.75231
བསམ་འཆར་	-8.75374
ག་ཅི་འབད་དགོཔ་	-8.75459
་ནིའི་བློ་འདོད་	-8.75601
▁ཁྱོད་ཀྱིས་འདི་	-8.75637
འབད་ནི་འདི་	-8.75766
ཀུན་ལེགས་ཀྱིས་	-8.75822
ཤུགས་	-8.75842
ཨི་	-8.75953
ཨིན་པ་ཅིན་	-8.76084
བི་	-8.76304
མ་པ་ལས་	-8.76352
ཟླཝ་	-8.76421
ཡོངས་འབྲེལ་	-8.76435
མེན་པར་	-8.7656
འོང་ཡི།	-8.76652
▁ཁྲིམས་སྲུང་འགག་	-8.76888
▁ཚེ་རིང་གིས་	-8.76909
ལེ་ཤ་ཡོད།	-8.76923
མེད་ཟེར་སླབ་ཅི།	-8.76968
▁ད་ལྟོ་	-8.76976
ཡོད	-8.77196
བཟུམ་ཅིག་འདུག།	-8.77375
ཧ་གོ	-8.7743
འགོ་བཙུགས	-8.77579
ཐབས་ལམ་	-8.77785
སྡོད་ཅི	-8.77825
འདི་ག་དེ་སྦེ་	-8.77951
རྒྱལ་	-8.77981
མི་ཚེ་	-8.78035
དྲི་བ་	-8.78298
མི་མཐོང་པས།	-8.78413
མ་ཤེས་པས།	-8.78416
▁ཀརྨ་གིས་དེ་	-8.78505
འགྱོ་	-8.78618
བཟུམ་ཅིག་	-8.78843
▁མོ་གིས་མོ་རའི་	-8.78886
ག་དེ་ཅིག་	-8.78988
ཞབས་ཁྲ་	-8.79036
པད་མ་	-8.79094
སྤྲོད	-8.79247
འཕྲལ་འཕྲལ་	-8.79274
པོ་	-8.79392
དགའ་ཏོག་ཏོ་	-8.79396
ཡོདཔ་ལས་	-8.79405
སྙན་ཞུ་	-8.79586
མཇུག་བསྡུ	-8.79647
ཀོ་	-8.79677
ལས་བརྟེན་	-8.79688
འོངས་ཡི།	-8.80085
ཤོག་	-8.80288
ཁོང་ཚུ་	-8.80347
འབད་ནི་ཨིན་ན་	-8.80377
ཡ་	-8.80387
མི་ཤེས་པས།	-8.804
བཟུམ་མཐོངམ་མས།	-8.80581
▁རྒྱལ་པོ་གིས་	-8.80767
གཟུགས་	-8.80828
་བ་ཅིན་	-8.80946
གོང་ཚད་	-8.8098
▁ཉི་མ་དང་རིག་	-8.80986
▁ཨ་ཕི་དེ་	-8.81005
་ད།	-8.81043
གནང་།	-8.81657
རྒྱུ་མཚན་	-8.81696
བཟོཝ་ཨིན།	-8.81707
བཞི་	-8.81758
བསྟན་འཛིན་	-8.81772
མི	-8.81777
་དོ་འོང་།	-8.818
ཐབས་ཤེས་	-8.81802
ཤེས་	-8.819
བལྟ	-8.81991
མཇུག་	-8.8202
▁ང་གིས་ཨ་ཕི་དེ་	-8.8223
་ལུ་	-8.82292
་མི་ལུ་	-8.82459
བྱིནམ་ཨིན།	-8.82618
ས་ཁོངས་	-8.82656
དེ་ལས་ལྷག་སྟེ་	-8.82854
ཡ	-8.82946
གོ་ལ་	-8.83024
ཉིནམ་ཨ་རྟག་ར་	-8.83181
ཁ་སྐད་	-8.83242
▁དེ་འབདཝ་ད་	-8.83297
ལག་ལེན་འཐབ་ནི་	-8.83453
ཡི།	-8.83537
འགྱོཝ་མས།	-8.83656
སྨན་	-8.83802
▁ང་གིས་ཉི་མ་	-8.83888
གོ	-8.83909
ཨ་ལུ་ཚུ་	-8.84224
དགོད་བྲ་སི་སི་	-8.84459
འཇམ་ཏོང་ཏོ་སྦེ་	-8.84493
▁ག་དེམ་ཅིག་སྦེ་	-8.84756
འབོ	-8.84756
་ནི་ཨིན་མས།	-8.84783
ང་དང་གཅིག་ཁར་	-8.84968
ལུ་དགའ།	-8.85047
ུ་	-8.85053
་འོང་ཟེར་སླབ་ཅི།	-8.8528
ཚ་གྱང་	-8.85499
བསླབ་བྱ་	-8.85531
གིས་ང་ལུ་	-8.85547
▁ཁྱོད་ག་ཅི་སྦེ་	-8.85548
སྒྲོལ་མ་	-8.85565
ཁྲོམ་	-8.85642
ག་ཅི་འབད་རུང་	-8.85656
ཧ་	-8.85712
▁ང་ཁྱོད་ཀྱི་	-8.85753
སྐོར་	-8.85886
་ནི་མི་འོང་།	-8.85947
༨	-8.86
དེམ་ཅིག་	-8.86022
མཐོ་རིམ་སློབ་གྲྭ	-8.86269
▁དེ་ནང་	-8.86272
བསྐྱལ	-8.86377
འདི	-8.86439
ག་ར་ལུ་	-8.86639
ཅི།	-8.86696
འཛམ་གླིང་	-8.8683
སྒྲ་	-8.86952
བལྟ་	-8.87071
ཡུན་རིངམོ་སྦེ་	-8.87099
དཔལ་འབྱོར་ལུ་	-8.87174
དོན་ལས་	-8.87403
ད་རེས་	-8.87405
ཨ	-8.87498
བཟུམ་འདུག།	-8.87561
བྱིན་མི་	-8.87585
མ་འདྲཝ་	-8.87631
ཁོ་དང་གཅིག་ཁར་	-8.8769
ཨིན་ཟེར་མནོཝ་མས།	-8.87709
མཐོང་ཅི།	-8.87759
▁མོ་གིས་ཁོ་ལུ་	-8.8776
ཤེས་ག	-8.87938
ཨོ་	-8.88006
མི་ཚུ་གིས་	-8.88013
ས་གོ་	-8.88135
སོང་ནུག།	-8.88267
འོངམ་ཨིན།	-8.88416
སྡོད་མི་	-8.88417
མནོཝ་མས་ག	-8.88453
སྟེ་	-8.88577
ཡོད་རུང་	-8.88677
་བར་	-8.88915
སྡོད་	-8.89053
ཊོམ་གྱི་	-8.89076
སྦོམ་ཅིག་	-8.89167
ཉམས་	-8.89258
ཟེར་མི་འདི་	-8.89325
ཨའི་	-8.89338
ཁང་	-8.89417
་ནུག་ཟེར་	-8.89453
བྱ་	-8.89572
▁ག་གིས་ཡང་	-8.89573
▁ཡང་ཅིན་	-8.89987
པི་	-8.90155
▁ཀརྨ་དཔལ་འབྱོར་	-8.90165
རྩ་	-8.902
བསྒྱུར་བཅོས་	-8.90225
བལྟ་ཡི།	-8.90252
ཅིག།	-8.90356
ཁྱིམ་ན་	-8.90426
གྲུབ་འབྲས་	-8.90534
དབང་ཕྱུག་གིས་	-8.90543
གཉིས་ཆ་ར་གིས་	-8.90557
ཅིག་སྡོད་ཅི།	-8.90694
ལྷ་མོ་གིས་	-8.90869
▁ང་བཅས་ག་ར་	-8.90895
དབང་	-8.91443
དཔེ་དེབ་འདི་	-8.9159
་ཅི་ཟེར་སླབ་ཅི།	-8.91631
ཟ་	-8.91663
བློ་སླབ	-8.91705
▁པད་མ་གིས་	-8.91722
སླབ།	-8.91861
སི	-8.92024
གཟའ་མིག་དམར་ལུ་	-8.92061
མས་	-8.92175
▁དེ་གིས་	-8.92212
དགོད་བྲ་	-8.92256
རྟགས་	-8.92323
དབྱངས་སྐྱིད་	-8.92345
འདི་ད་ལྟོ་ཡང་	-8.92403
དེ་སྦེ་	-8.92463
འཐོབ	-8.92507
▁མོ་འདི་	-8.92573
ཤི་	-8.92585
དེ་བཟུམ་	-8.92616
༡༠	-8.92922
མཐའ་མཇུག་ལུ་	-8.92954
མེ་ཏོག་	-8.92954
ལག་ལེན་འཐབ	-8.9296
ང་བཅས་ཚུ་	-8.92968
ཁོང་ཆ་ཁྱབ་	-8.93019
▁ང་གིས་མོ་ལུ་	-8.93023
རིགས་	-8.93198
མནོཝ་མས།	-8.93298
བྱུང་ཡི།	-8.9379
ཕ་	-8.93911
དེ་འབད་ནི་གི་	-8.93938
གྱིས་ཁོང་གིས་	-8.94136
འགྱོ་དོ།	-8.9415
་ཟེར་མནོ་ནུག།	-8.94261
སླབ་མས།	-8.94285
གྲུ་	-8.94308
ཀེ་	-8.94318
ལགཔ་	-8.94431
ཕམ་	-8.94557
འབད་དགོཔ་ཨིན་ན་	-8.94706
བཙན་སྐྱོགས་ཀྱིས་	-8.9486
རྐྱབ་	-8.94892
དོ་	-8.94893
གློག་རིག་	-8.94956
ཨོམ་	-8.95032
▁ཁོང་ལུ་	-8.95096
རྡོ་	-8.95138
ཏ་	-8.95184
གྱི་སྐོར་ལས་	-8.9528
ཚུ་གི་	-8.9531
་དོ་བཟུམ་	-8.95394
སྙན་ཆ་	-8.95574
དགའཝ་མས།	-8.95745
བཞག་ཡི།	-8.95912
བདེ་ཏོག་ཏོ་	-8.95921
ཟ་ནི་	-8.95924
ང་གི་	-8.95924
ཁྲིམས་	-8.96059
ཚོང་འབྲེལ་	-8.96103
་ནི་མས།	-8.9642
དུས་ཡུན་རིངམོ་	-8.96559
མེན་	-8.96834
ཆས་	-8.97087
ལས་རིམ་	-8.97241
ཅིག་གིས་	-8.97351
▁དེ་ཁར་	-8.97409
འབད་རུང་	-8.97463
ཤེས་པས།	-8.97498
ག་འབད་རུང་ཅིག་	-8.9761
ཉི་མ་གིས་	-8.97676
གདོང་	-8.97784
དབང་མོ་	-8.97885
ཇི་	-8.98249
ང་གིས་ཤེས།	-8.98311
སྨན་བཅོས་	-8.98382
ཅིག་ཡོད་ག	-8.98479
རིན་	-8.9868
གི་དོན་ལས་	-8.98819
གི་ཤུལ་ལས་	-8.98819
འགྱོ་ནིའི་	-8.9884
མང་ཤོས་ར་	-8.98878
ང	-8.98908
་པར་	-8.99
ལྔ་	-8.99027
་ནུག	-8.99044
བདུན་ཕྲག་གཅིག་	-8.99114
བཙན་སྐྱོགས་	-8.99217
ཁོ་ར་གིས་	-8.99276
འཛིན་	-8.99279
མི་འབད།	-8.99304
བཞག	-8.99333
▁ང་ནཱ་ལུ་	-8.99489
ག་ཅི་འབད་ནི་	-8.99528
ཡོད་ཟེར་སླབ་ཅི།	-8.9966
▁ང་གིས་ཉི་མ་འདི་	-8.99804
ཆུ་ཚོད་འཁོར་ལོ་	-8.99889
སློབ་སྦྱོང་	-8.99952
ཅིག་སྦེ་	-9.00029
སྡོདཔ་ད་	-9.00053
མངམ་སྦེ་	-9.00132
▁ང་བཅས་ཀྱིས་འདི་	-9.0035
བུཚ་	-9.00482
ལེ་ཤ་ཅིག་ར་	-9.00622
འཐོན་འོང་།	-9.00708
ཤོག།	-9.00709
འདས་པའི་	-9.00759
དཔེ་	-9.00859
བྱུང་ནུག།	-9.0086
▁རྡོ་རྗེ་ལུ་	-9.0089
འདི་གི་	-9.00904
བཟོ་ནི་	-9.0092
རྡོ་རྗེ་ལུ་	-9.00988
བཟའ་ཚང་	-9.01113
ཡར་སོ་ནུག།	-9.0114
སྣུམ་འཁོར་གཏང	-9.01427
སུ་	-9.01486
▁ཉི་མ་དང་	-9.01683
འབྲེལ་བ་	-9.01792
དམརཔོ་	-9.01959
གནམ་	-9.02021
ཉེན་ཁ་	-9.02233
ཀཱ་ཕི་	-9.02403
ཝ་ད་	-9.02441
ཀི་	-9.02587
ཆོས་རྒྱུགས་	-9.02629
ངོ་	-9.02814
ཨ་ཕི་དེ་འབད་ནི་	-9.0287
སྤྱོད་	-9.02874
་དགོ་མ་མནོ་བས།	-9.02999
་དེ་	-9.03096
▁མི་ག་ར་	-9.03236
▁ཀརྨ་གིས་མེ་རི་	-9.03352
ཡོངས་གྲགས་ཅན་	-9.03535
ཝ་སྨོ	-9.03696
གས་	-9.03699
མཛེས་ཏོག་ཏོ་	-9.03717
ཕྱུགཔོ་	-9.03752
༩	-9.03848
འ་ནཱི་འདི་	-9.03928
ཐག་	-9.04004
་བའི་སྐབས་	-9.04113
མིག་ཏོ་	-9.04127
ཐོབ་	-9.04203
ཀ	-9.04207
▁མོ་གིས་ཁོ་	-9.0442
▁འདི་ང་གིས་	-9.04495
འཇའ་ཆི་ཆི་	-9.04706
ལྷབ	-9.04811
ཨིནམ་དང་	-9.04914
ཚོརཝ་མས།	-9.05052
འབད་དེས།	-9.05204
མེན	-9.05241
མཐོང་	-9.05339
གཏང	-9.05376
་ནི་སྨོ	-9.05426
དོགས་པ་	-9.05497
སྡོདཔ་མས།	-9.05591
ཆོས་སྒྲོན་གྱིས་	-9.05764
▁ཉི་མ་ལུ་	-9.0583
ལག་ལེན་འཐབ་	-9.05938
བཟུམ་སྦེ་ར་	-9.06114
གཟུགས་ཁམས་	-9.06215
རླུང་	-9.06223
ལེགས་ཤོམ་སྦེ་ར་	-9.06334
ཨིང་ལིཤ་	-9.06334
ལུ་བལྟ་སྟེ་	-9.06348
མེད་པ་ཅིན་	-9.06372
བཟོ་མི་	-9.06417
▁ཉི་མ་གིས་ཁོ་	-9.06444
ལྷ་	-9.06492
ཆུང་ཀུ་ཅིག་	-9.06566
ལས་བརྟེན་ཏེ་	-9.06599
ཟ་ཁང་	-9.06655
ཤེས་ནུག།	-9.06717
གཙོ་བོ་	-9.06859
གིས་ཁོ་	-9.06891
གསལ་	-9.07022
ཕྱི་རུའི་ལྟོ་	-9.07059
ཉོ	-9.07114
རྐྱབ་ནུག།	-9.07337
▁བསོད་ནམས་	-9.07411
སེ	-9.07506
འཚོལ	-9.07634
ལུ	-9.07724
དཀརཔོ་	-9.07727
རྐང་འཁོར་	-9.07807
གི་རིང་ལུ་	-9.08035
ཊ	-9.08036
དྲག་	-9.08244
གནམ་གཤིས་	-9.08311
དུས་ཚོད་ཁར་	-9.08336
ལས་ར་	-9.08354
མགྱོགས་དྲགས་	-9.08417
▁སྒྲོལ་མ་གིས་	-9.0852
ནི	-9.08601
མོ་ར་	-9.08663
འཐེབ་	-9.08792
ཁང་མིག་ནང་	-9.08823
རེས་གཟའ་མིག་དམར་	-9.08898
ག་འདི་	-9.08993
ཆུ་ཚོད་	-9.09142
ཀྲོབ་མདའ་	-9.09224
ཆ་རོགས་འབད་ནི་	-9.09244
དྲོ་པ་	-9.09527
ཕ་ལུ་	-9.09666
ཅིག་དགོ་པས།	-9.09717
ལེགས་ཤོམ་ཡོད།	-9.09741
ཡོདཔ་སྦེ་	-9.09765
ལེ་ཤ་འདུག།	-9.09795
ལུ་ཁོ་གིས་	-9.0987
ཁྱོད་ཀྱིས་ང་ལུ་	-9.10081
མ་འབད་བས།	-9.10089
འགྱོ་དེས།	-9.10187
པ་སྨོ	-9.10261
གཞོནམ་	-9.10272
གོ་ཡི།	-9.10328
ཁ	-9.10341
འགྲུལ་འཕྲིན་	-9.10439
་སར་	-9.10485
ཉལ	-9.10565
ཤུགས་སྦེ་	-9.10678
གདོང་ཁར་	-9.10698
ནད་	-9.10721
འགྱོ་ནི་ལུ་	-9.10738
བརྒྱུད་དེ་	-9.10753
ངན་པ་	-9.10881
▁མོ་གིས་ང་ལུ་	-9.10976
གསརཔ་ཅིག་	-9.10995
གིས་ང་	-9.11199
ཝི་	-9.11236
རྩེདམོ་	-9.11357
ཚོན་	-9.11362
ལུ་བཀའ་དྲིན་ཆེ།	-9.11436
ཡོདཔ་དང་	-9.11559
ཡིག་	-9.11582
་སྡོད་ནུག།	-9.11606
ཕར་ལུ་	-9.1163
བཀོད་	-9.11634
འཐུས་མི་	-9.11643
སྦོ་ལོགས་ཁར་	-9.11657
སེམས་ཅན་	-9.11676
འཇའ་རིསམོ་	-9.11809
ཐོ་	-9.11861
་ཡི་ཟེར་	-9.11876
་མི་ཅིག་ཨིན།	-9.11904
སླབ་ཨིན།	-9.12039
སྦྱོང་བརྡར་	-9.12078
་གི་	-9.12111
རྒྱང་མཐོང་	-9.1215
རིག་	-9.1224
འགྱོཝ་ད་	-9.1233
ཞིབ་དཔྱད་འབད	-9.12352
ཌ	-9.124
ལྕོགས་གྲུབ་	-9.12443
ལེན	-9.12566
ག་ཅི་འབད་	-9.12691
ཚུ་ནང་	-9.12759
་ནི	-9.12784
འཛིན་བཟུང་འབད	-9.12808
ང་ལུ་ཁོ་གིས་	-9.12818
རེ་འདོད་	-9.12838
འགོ་ཐོག་	-9.12854
གྱོན་ཆས་	-9.12873
བཙུགས་	-9.12885
འོང་ནི་	-9.12974
བློ་སླབ་ནི་	-9.13014
ན་ཟུག་	-9.13281
་གིས་	-9.13344
ལུ་བརྟེན་	-9.13373
འགྱོ་དགོ།	-9.13404
བསྒུག	-9.13441
མི་ཅིག་	-9.13509
ལུ་བརྟེན་ཏེ་	-9.13607
འདི་ག་ཅི་སྨོ	-9.13637
མ་འགྱོ།	-9.13685
སོར	-9.13687
མའི་	-9.13766
གློག་	-9.1377
ཁྲལ་	-9.13773
ཁོ་ར་རྐྱངམ་གཅིག་	-9.13847
བསད	-9.13859
ཕུན་ཚོགས་ལུ་	-9.13938
འབད་ཚུགསཔ་	-9.14448
ཚར་	-9.1457
རིང་	-9.14728
ཤེས་ཅི།	-9.1475
ཨང་གྲངས་	-9.14753
ག་ཅི་ར་	-9.14767
བཟོ	-9.14831
▁ང་གིས་ཁོང་	-9.1491
ཨ་རོགས་དགའ་རོགས་	-9.14916
▁ང་གིས་འ་ནཱི་	-9.14986
འགོ་འདྲེན་འཐབ	-9.15038
དགོཔ་ཨིན།	-9.152
འོང་ག	-9.15216
ཅོག་གཅིགཔ་	-9.15226
ལྷམ་	-9.15245
སོ་སོ་ཅིག་	-9.15269
▁ཁྱོད་ཀྱིས་ཀརྨ་	-9.15277
ཐབས་	-9.15436
་རུང་བཏུབ་ནུག།	-9.1558
སྒྲིག་	-9.15662
བྱི་ལི་	-9.15739
མི་དགོ།	-9.159
ལག་ལེན་	-9.1596
སྦེ་སྡོད	-9.15973
མིག་	-9.15974
མཐོང	-9.16142
ལྷ་མོ་	-9.16157
ཐོག་ཁར་	-9.16228
ཧ་ཅང་གིས་	-9.16265
བྱིན་ནི་	-9.1634
འཐོབ་	-9.16426
ཟ་ཡི།	-9.16445
སྡོད་པའི་སྐབས་	-9.16497
བཙུགས་ནུག།	-9.16531
ཁ་གསལ་	-9.16557
གསལ་སྒྲོན་གྱིས་	-9.16637
མ་དངུལ་	-9.16789
▁གལ་སྲིད་ཁྱོད་	-9.16846
▁ཊོམ་འདི་	-9.16917
མཐར་འཁྱོལ	-9.16917
ཊོ་	-9.16996
འགྱུར་བ་	-9.17019
ཨིན་པས	-9.17094
བཱསི་	-9.17354
དགའ་མི་	-9.17386
སྦེ་སྡོད་ནུག།	-9.17435
སྐར་མ་	-9.17551
དགའ་ཤོས་	-9.17591
བདེན་འཛིན་རེ	-9.17608
་མ་བཅུག།	-9.17644
རིག་འཛིན་གྱིས་	-9.17667
་དོ་འོང་ཟེར་	-9.17896
རྙིངམ་	-9.179
མགྱོགས་དྲགས་སྦེ་	-9.1791
ཕོ་	-9.1805
རྩ་ལས་ར་	-9.18129
པ་འོང་།	-9.18131
▁ཁྱོད་ཀྱིས་ཁོ་	-9.18163
ཞབས་ཁྲ་འཐེན	-9.18172
རྡོ་རྗེ་འདི་	-9.18229
▁མི་ག་ར་གིས་	-9.1823
སྐྱ་	-9.18299
པ།	-9.18324
རྫོགས	-9.18445
ལཱ་འབདཝ་ཨིན།	-9.18445
བརྟན་བརྟན་ཨིན།	-9.18446
འགོ་བཙུགས་ཡི།	-9.18463
རྟ་	-9.18525
ཟེར་མི་	-9.18562
དུ་	-9.18582
གོང་འཕེལ་	-9.18729
སར་	-9.18807
ཟུར་	-9.18828
དང་འབྲེལ་བའི་	-9.18936
ཚེ་རིང་	-9.1894
ངོ་མ་སྦེ་	-9.19011
ག་ཏེ་སྨོ	-9.19019
དགོ	-9.19027
ལམ་སྟོན་	-9.19111
དེ	-9.19195
ཚེ་	-9.19264
ལཱ་འབད་ནི་	-9.19277
མེན་ག	-9.1939
འདྲོག་སི་སི་	-9.19396
དཀར་སངས་ཀྱིས་	-9.19541
་ནི་ཨིན་ན་	-9.19559
▁ང་གི་	-9.19622
འོང་ཟེར་མནོ་ཡི།	-9.19703
བཟང་པོ་	-9.1975
་ཡི་ག་	-9.19856
▁ང་གིས་ཨ་ཕི་	-9.19879
འཁོར་	-9.20045
འབད་ཡི་ཟེར་	-9.20086
ལཱ་འདི་	-9.20144
ཆོས་	-9.20224
་ནི་དོན་ལུ་	-9.20315
▁དབང་ཕྱུག་དང་	-9.20323
་སླབ་ཅི།	-9.20531
ཁོང་ར་	-9.20689
རེལ་ལི་	-9.20716
དཀའ་ངལ་འདི་	-9.20738
ཕྱོགས་	-9.20782
འོང་ཟེར་མནོ་ཡི	-9.20817
གཏང་།	-9.20836
ཧ	-9.20844
ཟེར་སླབ་ཨིན།	-9.21063
ལེགས་	-9.21083
འགྱོ་མི་	-9.21296
ཆ་རོགས་འབད	-9.21427
་ཟེར་མནོ་ཡི	-9.21445
འབད་གེ།	-9.21485
རིམ་	-9.21538
ཐོ་བཀོད་	-9.21587
འབད་སར་	-9.21778
་དོ་བཟུམ་སྦེ་	-9.22076
འཐེན	-9.22157
▁ཁོང་གི་	-9.22174
ཀོ	-9.22248
ཨ་ནཱི་འདི་	-9.22365
འོག་ལུ་	-9.22381
ཨ་པ་	-9.22406
འབད་དོ།	-9.22485
འབྱུང་ཁུངས་མེདཔ་	-9.22526
སྟོན་ཡི།	-9.22622
མི་འགྱོ།	-9.22662
ཡིག་ཚང་ནང་	-9.22669
ས།	-9.22755
་ནང་	-9.22828
ཨང་	-9.23019
ཕ	-9.23268
སྦེ་སྡོདཔ་ད་	-9.23331
ཅ་ལ་	-9.23333
བཱ	-9.23382
འདི་ང་གིས་	-9.23522
་ནི་དང་	-9.2357
རྩ་རྒས་	-9.23633
རྒྱལ་ཁ་འཐོབ	-9.23636
ཚོགས་	-9.23652
ཨ་ཕི་འབད་ནི་ལུ་	-9.23751
ནུབ་མོ་	-9.23797
འབག་	-9.23799
ཅིག་ར་	-9.23856
ཡོདཔ་སྨོ	-9.24037
▁ཉི་མ་གིས་ང་ལུ་	-9.24094
རྣམ་རྟོག་ལང	-9.24143
ཅིག་ལུ་	-9.24184
བྱིན	-9.24214
ལྷག་	-9.2441
འདྲི	-9.24424
འགྱོ་དགོཔ་	-9.24584
ལྟ	-9.24615
འགྱོ་གེ།	-9.24629
གནས་སྟངས་འདི་	-9.24648
དྲུག་	-9.24704
ལུ་གྲོགས་རམ་འབད	-9.24708
འོང་ནི་མས།	-9.2471
་ཟེར་ཤེས།	-9.24726
ཞྭམོ་	-9.24737
འདི་ངེ་གི་	-9.24744
་ཡི་ཟེར་སླབ་དེས།	-9.24801
རང་བཞིན་	-9.24868
ཨེ	-9.2497
་ཟེར་ང་གིས་ཤེས།	-9.2508
འཚོལ་	-9.25146
▁རྣམ་རྒྱལ་འདི་	-9.25189
ཅོག་འཐདཔ་	-9.25197
ག་སྨོ	-9.25222
པ་ཅིག་	-9.25375
འཛིན་སྐྱོང་	-9.25404
སྡོད་ནི་གི་	-9.25405
ག་དེ་	-9.2542
ཐོན་	-9.25434
མཚོ་	-9.25499
བི་ཡར་	-9.25578
ལངམ་སྦེ་	-9.25603
▁དཀར་སངས་ཀྱིས་	-9.25612
ང་རའི་	-9.25619
མར་ཕབ་	-9.25704
ག་ནི་ཡང་མེད།	-9.25799
རྣམ་རྒྱལ་	-9.26013
༣༠	-9.26078
ཁ་སྐོང་	-9.26133
བཱོསི་ཊཱོན་ལུ་	-9.26274
་དགོ་མ་མནོ།	-9.26276
ཚོང་	-9.26297
▁ཁ་ཙ་	-9.2632
ག་ལུ་ཡང་	-9.26381
བལྟ་ནི་	-9.26404
འབད་ནིའི་དོན་ལུ་	-9.26435
་ཟེར་ཤེས་ནུག།	-9.26437
སྨོ།	-9.265
▁ཁྱོད་ཀྱིས་མོ་	-9.26582
ཨེ་པཱལ་	-9.26671
འཐུས་	-9.26736
གཏང་ནི་	-9.26923
རྒྱབ་ཁར་	-9.26957
ཚ	-9.26977
དེ་ལུ་	-9.27052
ཕྱི་	-9.27068
སྐྱེ་བའི་ཉིནམ་	-9.27097
འཐོན་	-9.27137
་བཅུག་ཡི།	-9.2719
སྨན་ཁང་ནང་	-9.27263
དགོ་མི་	-9.27315
དྲི་	-9.27365
ཡེ་ཤུའི་འཁྲུངས་	-9.27507
ཤོབ་	-9.27523
རྐངམ་	-9.27537
ང་གིས་མནོཝ་མས།	-9.27555
མ་སྡོད་པས།	-9.27588
ད་རིས་ཀྱི་	-9.27692
བསོད་ནམས་	-9.27721
གུ་རམ་	-9.27742
གནམ་གྲུ་	-9.27862
འོད་	-9.27972
ཕི་	-9.28012
ལམ་འགྲུལ་	-9.2802
་དོ་ག	-9.28123
འབད་དགོ་ཟེར་	-9.2817
་ནི་ཨིན་པས།	-9.28267
དཔེ་ཆ་	-9.28589
▁ང་ད་ལྟོ་	-9.28625
འབད་ཚུགས་ཟེར་	-9.2865
བདག་འཛིན་	-9.2875
ཁྲག་	-9.28896
༢༠	-9.28941
▁ང་གིས་བཟང་པོ་	-9.28961
རིག་པ་	-9.29
དྲུང་འཚོ་	-9.29114
▁ཁྱོད་ཀྱིས་ཨ་ཕི་	-9.29137
ཁ་ཙ་ཕྱི་རུ་	-9.29138
་མིའི་	-9.29161
ཡིག་ཚང་	-9.29186
ཧ་སག་	-9.29195
ཚུ་ཡང་	-9.29226
ཤེལ་	-9.29327
མཐར་འཁྱོལ་ཅན་	-9.294
དགའ	-9.294
དབང་ཕྱུག་	-9.2946
ཚོར་ཡི།	-9.29558
སེམས་ཁར་	-9.29565
ཧ་ལམ་ཅིག་	-9.29612
མ་འགྱོ་བའི་ཧེ་མ་	-9.29733
ར་ཨིན།	-9.29798
སྟོན	-9.29848
ཕྱད	-9.29963
ཉན	-9.30052
ས་ནུག།	-9.30183
ག་ལུ་	-9.30236
ཁུ་སིམ་སི་སྦེ་	-9.30277
ཁྱད་པར་	-9.30353
བི	-9.30361
ཕྱད་ཅི།	-9.30384
སྡོད་དེ་	-9.30435
རུ་	-9.30444
ཨིན་ན་མི་ཤེས།	-9.30447
་ནི་གི་དཔའ་བཅམ	-9.3046
་གནང།	-9.3049
ལི	-9.3071
▁རྡོ་རྗེ་གི་	-9.30716
འདུ་འཛི་	-9.30769
རྐྱབ་ནི་	-9.30794
གནགཔོ་	-9.30913
སྡོད།	-9.30922
གྱིས་ཁོང་	-9.30976
ཟཝ་ཨིན།	-9.30995
ལུ་ཁོ་	-9.31043
ང་ར་	-9.31054
ཡོངས་རྫོགས་	-9.31073
དང་པ་	-9.31124
ཡར་སེང་	-9.31135
▁ཁྱོད་འདི་	-9.31229
རྒྱབ་	-9.31319
ཨི	-9.31343
མེདཔ་ཨིན།	-9.31343
དྲོད་	-9.31399
སྤྲོ་བ་སྟོན	-9.31441
བཟུམ་མཐོང་མས།	-9.31463
སྐབས་	-9.31632
ཆད་	-9.31909
བྱིན་	-9.3195
བརྗེད་སོ་ནུག།	-9.31974
ཁྱོསམ་	-9.31987
རས་	-9.31991
ཁ་བཟེད	-9.32008
ཆུང་	-9.32273
དཔལ་མོ་གིས་	-9.32367
ཀུ་	-9.32387
བཏང	-9.32601
མ་མནོ།	-9.32691
▁འདི་ལུ་	-9.32735
ཁྲོམ་ཁར་	-9.32812
ཡུ་	-9.32934
ཁས་བླངས་འབད་ཡི།	-9.32938
ལཱ་འབད་མི་	-9.33078
▁ཁོ་གིས་ང་	-9.33111
ཚོང་སྡེ་	-9.33117
▁ག་ར་གིས་	-9.33208
▁ད་འབདན་	-9.33302
༡༢	-9.33333
བར་ན་	-9.33403
དུས་ནམ་ཡང་	-9.33466
་དགོ་མནོ་ནུག།	-9.33529
ཚུ་གི་དོན་ལུ་	-9.33613
ཡ་མཚན་ཆེ་ཏོག་ཏོ་	-9.33644
་ཨིན།	-9.33676
འདུག་ཟེར་མནོཝ་མས	-9.33691
བྱིན་འོང་།	-9.33695
ཡངན་	-9.33744
ལེ་ཤ་ར་	-9.3379
ཌི	-9.33794
གིས་དཔལ་འབྱོར་	-9.33895
ཡིད་ཆེས་	-9.3391
དཔལ་འབྱོར་འདི་	-9.33941
མེདཔ་སྦེ་	-9.34066
འབད	-9.34129
རྩེ་	-9.34241
ན་ཧིང་	-9.34367
སློབ་གྲྭའི་	-9.34448
དྲང་པོ་	-9.34498
▁བསྟན་འཛིན་གྱིས་	-9.3451
ཨིན་མས	-9.34535
འོང་ཟེར་སླབ་ཅི།	-9.34561
བསྒྱུར་བཅོས་འབད	-9.34593
ལྕགས་	-9.34598
ལག་ལེན་འཐབ་ཨིན།	-9.34622
བོས་ཊོན་ལུ་	-9.34663
འགྲོས་ཀྱིས་སྦེ་	-9.34695
ལྟ་	-9.34771
བདའ་ཟུན	-9.34784
བགའ	-9.34796
སེངྒེ་	-9.34923
འཕྱད	-9.34944
གོང་	-9.34958
་དགོཔ་འདུག།	-9.34967
དགའ་ག	-9.34968
ཁ་རྗེ་	-9.35103
▁དེ་ཚུ་	-9.35187
བཟོ་བཀོད་	-9.35201
ག་དེ་སྦེ་འབད་ནི་	-9.35246
ཉིནམ་གཅིག་	-9.35294
བཀྲ་ཤིས་	-9.35324
ཚོང་ལཱ་	-9.35408
འོ་	-9.35413
གཅིག་གིས་	-9.35418
ཡོད་ཚད་ཅིགཔོ་	-9.35456
ཉོ་ཡི།	-9.35464
▁ང་ཁྱོད་ལུ་	-9.35466
བོ་	-9.3557
ཚ་	-9.35576
▁ཀརྨ་གི་	-9.35644
བརྩོན་ཤུགས་	-9.35661
རིག་པ་ཅན་	-9.35663
ཁས་བླངས་	-9.35794
ཞལ་འཛོམས་	-9.35845
▁རྡོ་རྗེ་དང་	-9.35923
རྩེད	-9.35925
▁ཁྱོད་ནཱ་ལུ་	-9.3595
་ནི་འདི་གིས་	-9.3603
ག་གི་	-9.36031
ཁྱིམ་འདི་	-9.3613
དང་མཉམ་	-9.36194
▁ཨ་ལུ་	-9.36213
་ནུག་ག	-9.36239
བཙོན་ཁང་ནང་	-9.36241
རྫས་	-9.36525
འགྲོ་འགྲུལ་འབད	-9.36617
གསརཔ་འདི་	-9.36688
▁མི་ཚུ་གིས་	-9.36833
དྲོ་མཛར་	-9.36945
གནམ་བྱཱར་ལུ་	-9.37095
མེད་མི་	-9.37191
མ་གཏོགས་	-9.37213
བཞག་	-9.37238
་དགོ་མནོཝ་མས།	-9.37396
ཐག་རིང་སར་	-9.37473
སྐད་ཡིག་	-9.37534
འབྲེལ་	-9.37638
གང་	-9.37641
▁ང་གིས་ང་ར་	-9.37773
སྐྱོན་	-9.37882
ལོ	-9.37962
འཐོབ་ནི་	-9.37987
སྒྲོམ་	-9.38076
ཕྱེད་ཀ་	-9.38099
ནདཔ་	-9.38118
ལ་ལུ་ཅིག་	-9.3817
སྦེ་ར་	-9.38196
ཆོག་ཐམ་	-9.38252
▁དར་རྒྱས་འདི་	-9.38253
བརྡ་	-9.38262
་དགོ་མནོ་ཡི།	-9.38451
བཀག་	-9.38487
ལྗིད་ཚད་	-9.38734
ག་ཅི་ཨིན་རུང་	-9.38736
རྡོ་རྗེ་ལྷ་མོ་	-9.38758
མ་མས།	-9.38808
མི་སྡེ་	-9.38921
▁ཇཱོན་འདི་	-9.38992
སའི་	-9.39022
དགའ་འཛུམ་སྟོན	-9.39089
ཁག་	-9.39151
▁ཕུན་ཚོགས་ཀྱིས་	-9.39454
སྡོད་ཡི	-9.39458
འབདཝ་ད་	-9.39459
རྩལ་	-9.39467
པ་འདི་	-9.39493
༥༠	-9.39494
དགོ་པ་ཅིན་	-9.39533
རིམ་ལུགས་	-9.3955
འདི་ག་ཅི་སྦེ་	-9.39572
འབད་ནི་མེད།	-9.39591
དང་རྡོ་རྗེ་	-9.397
▁བཀྲ་ཤིས་ཀྱིས་	-9.39717
ཨིནམ་ལས་	-9.39733
ཨིན་ན།	-9.39756
▁ཁྱོད་ད་ལྟོ་ཡང་	-9.39815
ཚན་	-9.39985
ཁེ་ཕན་	-9.40075
ལྡན་	-9.4011
འབད་ཡི་ག	-9.40244
ང་ལུ་ཁོ་	-9.40278
ཨསི་ཊེ་ལི་ཡ་ལུ་	-9.403
བློ་སླབ་	-9.40397
གསལ་སྒྲོན་	-9.40421
བཟོཝ་མས།	-9.40421
སྨིན་དྲུག་ལུ་	-9.40463
▁ང་གིས་ཉི་མ་ལུ་	-9.40476
་ཟེར་རེ་བ་བསྐྱེད	-9.40591
ཁོད་སི་སི་	-9.40657
བཀག	-9.40723
ལྷག	-9.40788
འཐོན	-9.40879
ཤོག་འཛིན་	-9.40904
ཐུང་ཀུ་	-9.4091
རྩེད་	-9.40915
་ག་	-9.4093
འགྱུར་	-9.41026
འ་	-9.41095
ང་ར་རྐྱངམ་གཅིག་	-9.41103
དགའ་ཡི།	-9.4112
འཕྲུལ་	-9.41209
ཁྱིམ་ནང་ལུ་	-9.41362
གཉེན་རྐྱབ	-9.41409
འགྱོ་དགོ་པས།	-9.41424
ག་ཅི་འབདཝ་ཨིན་ན་	-9.41443
▁དངོས་གྲུབ་	-9.41482
དེ་འབད་ནིའི་	-9.41488
ཡོདཔ་ཨིན་མས།	-9.41517
ས་ཡི།	-9.41552
དབང་ཚད་	-9.417
མཉམ་	-9.41834
▁ཨ་ལུ་ཚུ་	-9.41857
མཐོང་སྣང་	-9.4186
ལུ་མོ་གིས་	-9.41878
ཚོས་གཞི་	-9.41888
མེད་པ་	-9.41937
ཚོད་	-9.41952
པས།	-9.42192
བཙོང	-9.42206
ད་འབདན་	-9.42227
བསྟན་འཛིན་ལུ་	-9.42304
བརྡ་དོན་	-9.42304
འཛོམས་	-9.42353
མིན་འདུག་ཟེར་	-9.42396
ཡོདཔ་ཨིན་ན	-9.42432
བཏོན་	-9.42444
འབྱུང་	-9.42453
མོ་དང་གཅིག་ཁར་	-9.42473
བྲི	-9.42484
བཀག་བཞག	-9.42491
བདེན་	-9.42606
གནང་བ་	-9.42675
ནང་འཁོད་	-9.4268
རྒྱལ་ཁབ་ཀྱི་	-9.42765
ཅ	-9.42768
གློག་འཕྲིན་	-9.42896
བཅུ་ཐམ་	-9.42912
རོ	-9.42915
སླབ་ཅི་ག	-9.42946
ཁ་བྱང་	-9.43004
བདག་འཛིན་འཐབ	-9.43039
སྤྲོད་	-9.43079
ཉིནམ་དག་པ་ཅིག་	-9.43096
ལུ་ཡོད་པའི་	-9.43143
གནང	-9.43172
བོསི་ཊཱོན་ལུ་	-9.43187
འགོ་དཔོན་	-9.43256
དཀར་	-9.43287
▁ང་གིས་ད་ལྟོ་ཡང་	-9.43289
དགའཝ་ཨིན།	-9.43325
ཆེན་	-9.43354
འཐུང	-9.43435
འབྲི	-9.4347
དང་འཁྲིལ་ཏེ་	-9.43618
་བ་	-9.43624
གསར་	-9.4368
གྱང་	-9.43713
དགོཔ་མེད།	-9.43796
ཕོ་རྒནམ་	-9.43855
འབད་ཚུགས་ག	-9.43863
འགོ་བཙུགས་ཅི།	-9.43876
ལྟ་སྐོར་	-9.43923
ཨིན་མས་ཟེར་མནོ	-9.43932
ཁུངས་	-9.4395
དམག་	-9.43987
དགོ་མི་འདི་	-9.4401
▁བསོད་ནམས་དང་	-9.44013
བག་བག་	-9.44063
ཇཱོན་	-9.44084
འོང་ཟེར་མནོ་ནུག།	-9.44106
མེད་ཟེར་	-9.44121
▁ཨིན་རུང་	-9.44148
ཟས་སྟོན་ནང་	-9.44186
སློབ་ཁང་ནང་	-9.4424
▁ཁོང་ཚུ་གིས་	-9.44327
མོ་ར་གིས་	-9.44417
པི	-9.44433
གིས་ཨ་ཕི་དེ་	-9.44502
ཅ་	-9.44617
འབད་ནི་ཨིན།	-9.44666
རྩེདམོ་རྩེ	-9.44756
མིའི་	-9.44771
་ནི་འགོ་བཙུགས	-9.44915
བརྒྱུད་འཕྲིན་བཏང	-9.44922
བཏུབ།	-9.4494
ཉན་	-9.44945
སེམས་ཁར་དྲན	-9.44968
ཧེ་མའི་	-9.44968
་ནི་འོང་།	-9.45007
འགྲོ་འགྲུལ་	-9.45055
་ཞིག།	-9.45057
མིན་འདུག	-9.45068
གི་མིང་	-9.45071
ཞིབ་འཚོལ་	-9.45116
འཕྲུལ་ཆས་	-9.45153
འགན་ཁུར་	-9.45238
ཐང་	-9.4532
ཁྲིམས་ལུགས་	-9.45409
སླབ་མི་ཚུགས།	-9.45421
་དགོཔ་	-9.45463
རྨ་	-9.45464
ངོ་ཤེས།	-9.45483
དེ་ག་དེ་སྦེ་འབད	-9.45512
ཉིམ་	-9.4553
་ཅི་ག	-9.45534
གིས་ཁོང་རའི་	-9.45545
▁རིག་འཛིན་གྱིས་	-9.45553
དོན་དག་	-9.45602
མེ་རི་	-9.4561
རིག་རྩལ་	-9.45615
གཉིད་	-9.45668
གསོ་བའི་	-9.45668
འབྱུང	-9.45684
ཁམས་ལོག་སི་སི་	-9.45789
▁མི་ཚུ་	-9.45824
མགུ་ཏོ་	-9.45991
དགོ་པའི་	-9.46116
དེས།	-9.46164
▁པད་མ་	-9.46214
ལུ་ཡང་	-9.46352
ཡོངས་འབྲེལ་འཆར་	-9.4651
འཐུང་ནི་	-9.46553
གདོང་ལེན་	-9.46553
▁ང་བཅས་ཀྱིས་དེ་	-9.46566
མེན་ཟེར་	-9.46568
ལུ་རྒྱབ་སྐྱོར་	-9.46594
སངས་རྒྱས་	-9.46625
འདི་ཨིན།	-9.46633
ཆུ་ཚོད་གཅིག་	-9.46667
ཅ་ལ་ཚུ་	-9.46759
ཉིནམ་གཅིག་ར་	-9.46772
མི་ག་ར་	-9.46885
ཁྱིམ་གྱི་	-9.4692
འོང་དགོ།	-9.46929
▁དེ་ང་གིས་	-9.4695
གསལ་བཤད་	-9.46986
ཨིན་ན་མི་ཤེས་པས།	-9.46993
ག་བཟུམ་	-9.47029
ཟས་	-9.47072
ཉུང་མཐའ་	-9.47103
མ་འོང་།	-9.47117
འབད་དགོཔ་སྦེ་	-9.47123
་ཚུགས་པའི་	-9.47125
བལྟ་ནུག།	-9.47176
▁ནངས་པ་	-9.47196
ཡན་ལག་	-9.47257
▁འཇིགས་མེད་ཀྱིས་	-9.47267
འབྲེལ་བ་འཐབ	-9.47295
ཀྲིག་ཀྲི་	-9.47302
ཆོས་སྒྲོན་	-9.47359
གནས	-9.47409
ཉལ་	-9.47432
ཀེ	-9.47434
▁ང་གིས་ཀརྨ་དང་	-9.47603
རྒྱལ་ཡོངས་	-9.47764
བཟང་མོ་གིས་	-9.47804
མཁས་མཆོག་	-9.47863
▁ཀརྨ་དང་འཆི་མེད་	-9.47899
རྐང་	-9.47913
ཆརཔ་	-9.48017
ནམ་ར་ཨིན་རུང་	-9.4804
གནས་ཚད་	-9.48269
འདི་བཟུམ་	-9.48285
ཨིནམ་འོང་།	-9.48429
སྤོ	-9.48455
▁ད་རེས་	-9.48533
ཁྱད་	-9.48543
ཚུ།	-9.48543
རྡོ་རྗེ་དཔལ་མོ་	-9.48557
རུང་	-9.48631
གནད་དོན་འདི་	-9.48642
དངུལ་ཕོགས་	-9.48651
ཐིག་	-9.48666
ད་རིས་དྲོ་པ་	-9.4872
ལེ	-9.48806
བཟང་	-9.48907
མོ་གིས་དེ་	-9.4891
མེད	-9.48949
སེམས་དགའ་ནུག།	-9.48998
བཙུགས	-9.49166
འབག་ཡི།	-9.49201
ཁྱོད་ཀྱིས་དེ་	-9.4927
ཨར་	-9.49282
སེམས་ཤུགས་	-9.49284
དྲགཔ་སྦེ་	-9.49291
པ་ད་	-9.49344
ཁེན་ཇ་	-9.4943
▁ང་བཅས་ཀྱིས་ཁོང་	-9.49511
ཉི་མ་ལུ་	-9.49552
ལས་ཕར་	-9.49561
་བཅུག	-9.49599
ཕྱེ	-9.49657
འགྱོ་བ་ཅིན་	-9.49668
སློབ་གྲྭ་ནང་ལུ་	-9.49681
མ་པ་ལས་ར་	-9.49754
▁ཀརྨ་གིས་ང་	-9.49756
སྦེ་སྡོད་ཡི།	-9.49765
▁ང་གིས་ཁོང་ལུ་	-9.49799
མ་ད་	-9.49807
རྐྱབ་མི་	-9.49867
འབད་དགོ་པས།	-9.49952
ལོ་རྒྱུས་	-9.49975
གཞན་མི་	-9.49981
གི	-9.50055
ཨོ	-9.50097
དགོ་ག	-9.50124
ག་ཅི་གིས་	-9.50154
འདི་ད་ལྟོ་	-9.50164
རེ་བ་བསྐྱེདཔ་མས།	-9.50318
ང་གིས་ཁྱོད་	-9.5032
མནོ་བསམ་བཏང་ཡི།	-9.50341
དྲན་པ་	-9.5036
ལུ་ང་	-9.50385
མི་ཚུ་ལུ་	-9.50439
སླབ་དགོཔ་	-9.50497
བརྟན་བརྟན་སྦེ་	-9.50531
སྒོང་རྡོག་	-9.50593
ལྷབ་ཅི།	-9.50645
ག་ཅི་བཟུམ་	-9.50645
་བཅུག།	-9.50666
་ཆོག་ག	-9.5071
དགའ་བ་	-9.50735
ངོས་ལེན་	-9.50783
སླབ་དགོ།	-9.5079
ལྟེ་བ་	-9.50855
སྨྱོ་རྫས་	-9.5087
བློ་སླབ་ཅི།	-9.50884
མི་ཅིག་ཨིན།	-9.51034
▁ཟླ་བ་འདི་	-9.51078
ཁག་ཆེ་ཏོག་ཏོ་	-9.51201
ཁོ་གིས་དེ་	-9.51238
དྲི	-9.51423
སེང་གེ་ལུ་	-9.5152
ཉུང་སུ་	-9.51644
ཡོདཔ་ཨིན་ན་	-9.51651
ཅིག་ཨིན་ན	-9.51733
ཞག་	-9.51733
ཚང་	-9.51747
ཨིན་མས་ཟེར་	-9.51765
ཧིང་	-9.51935
ཐོག་ལུ་	-9.51962
སྐོར་འགྲུལ་	-9.51989
ལམ་འགྱོ	-9.52118
་སི་སི་	-9.52119
ལ་ལུ་	-9.52226
སི་སི་	-9.52292
ཞལ་འཛོམས་ནང་	-9.52344
འཐུ	-9.52382
ཡི	-9.52405
ཡུདཔ་ཐེངས་ཅིག་	-9.52475
ལོ་ངོ་	-9.5248
ཏོག་ཏོ་	-9.52524
ལོ་གསུམ་	-9.52532
བཱོས་ཊོན་ལུ་	-9.52549
སླབ་གནང་།	-9.52601
ཟད་འགྲོ་	-9.52641
རྐྱབ	-9.52702
སྡེ་	-9.52757
དམིགས་བསལ་གྱི་	-9.52825
ལུ་ང་གིས་	-9.52882
▁ང་ད་རིས་	-9.5291
འགོ་བཙུགས་ནི་	-9.53002
གྱངས་ཁ་	-9.53036
ཤོག་ཀུ་	-9.53051
ཚར་གསུམ་	-9.53077
འགྱོ།	-9.53079
སྡོད་ས་	-9.53124
ལོག་སྟེ་ར་	-9.53164
འོང་ནུག།	-9.53205
དྲིས་ཡི།	-9.53207
པ་ཨིན་ན	-9.53227
བཙན་སྐྱོགས་ཀྱི་	-9.53238
▁ང་གིས་ཊོམ་	-9.53264
འདི་ནང་ལུ་	-9.53381
ཤུགས་སྦེ་ར་	-9.53499
་ནི་ཨིན་ན	-9.53518
ཕྱེ་	-9.53581
་པའི་ཧེ་མ་	-9.53599
དོགས་པ་ཟཝ་མས།	-9.53708
བྱང་	-9.5375
འབད་ཟེར་སླབ་མི་	-9.5377
བཞག་ནི་	-9.53843
▁ཁྱོད་ཀྱིས་ཊོམ་	-9.54014
་འོང་	-9.54052
གི་བར་ན་	-9.54053
གཅིག་ཨིན།	-9.54056
ས་ཏེ་	-9.54067
ཨཱསི་ཊེ་ལི་ཡ་ནང་	-9.54083
ལཱ་འབད	-9.54135
སྲུང་སྐྱོབ་	-9.54303
ེ་	-9.54307
ཉི་མ་དང་རྡོ་རྗེ་	-9.54456
རྐྱངམ་གཅིག་སྦེ་	-9.54466
ཆུ་ཚོད་༢༣༠ལུ་	-9.54488
་ཡོད་པའི་	-9.54519
▁འདི་ཚུ་	-9.54609
ཀརྨ་འདི་	-9.54629
ས་ཁར་	-9.54844
རྩེད་འགྲན་	-9.54854
▁ཀུན་ལེགས་ཀྱིས་	-9.54873
ལམ་ལུགས་	-9.54948
སྡོད་ནིའི་	-9.5504
རྟེན་འབྲེལ་	-9.55047
ལུགས་	-9.55057
ན་ལུ་	-9.55176
▁མཐའ་མཇུག་ལུ་	-9.55188
ཅ་ཆས་	-9.55192
རང་དབང་	-9.55204
ཊོམ་གྱིས་	-9.55216
གཏམ་	-9.55273
པོ	-9.55291
་པ་	-9.55331
གཞུང་	-9.55352
འགྱོ་ཞིནམ་ལས་	-9.55379
་ཡི་ཡ	-9.55477
ཁམས་	-9.55485
བརྟག་ཞིབ་	-9.55547
ཉེན་བཅོལ་	-9.55552
ཆ་རོགས་ཚུ་	-9.55567
བསྟན་འཛིན་གྱིས་	-9.55569
ཅན་ཨིན།	-9.5558
ནད་གཞི་	-9.55584
འབྲི་ཁྲི་	-9.556
ལཱ་ཚུ་	-9.55615
གནས་སྡུད་	-9.55641
སླབ་འོང་།	-9.55681
དགའ་ཏོག་ཏོ་སྦེ་	-9.55721
ལྷོད	-9.55783
འབད་ཡི	-9.55818
གིས་ཁོ་ལུ་	-9.55862
གཅིག་ཡང་	-9.55878
བཟོ་བཟོཝ་	-9.55954
བཟོ་ནི་ལུ་	-9.56019
ཁྱིམ་ཚང་	-9.56043
ལཱ་ཁག་འདུག།	-9.56062
ང་གིས་བལྟ་བ་ཅིན་	-9.56098
མཇུག་བསྡུ་ཡི།	-9.56104
ཡི་	-9.56173
ཤོག་བྱང་	-9.56292
ལཱ་འགན་	-9.56296
བཟོ་སྐྲུན་	-9.56331
མ་སྡོད	-9.5634
བློ་འདོད་བསྐྱེད	-9.56434
ཟས་སྟོན་	-9.56437
ཚུ་ལས་	-9.56458
དེ་ག་ཅི་སྦེ་	-9.56463
སྤྱི་	-9.56481
ད་ལྟོ་ར་	-9.56505
༡༥	-9.5651
རི	-9.56534
▁ཀརྨ་དང་དཔལ་མོ་	-9.5662
ཧོནམོ་	-9.56725
བེ	-9.56741
འབད་ཚུགསཔ་ཅིག་	-9.56834
ཚོར་བ་	-9.56954
▁ང་ང་རའི་	-9.56966
ས་ཁོངས་ནང་	-9.56968
ཚར་གཉིས་	-9.56987
འགྱོ་སྦེ་	-9.5699
་དགོཔ་ཡོད།	-9.57063
▁དུས་ཚོད་	-9.57144
དྲོ་པ་ཨ་རྟག་ར་	-9.57176
་མི་ཚུ་	-9.57208
སྐྱེ་	-9.57227
ཊི	-9.57251
མཐུན་	-9.5731
བདག་འཛིན་འབད	-9.57336
ས་གནས་ཀྱི་	-9.57373
▁ང་གིས་ང་བཅས་	-9.57381
འབདཝ་སྨོ	-9.57389
ཡང་དག་	-9.57415
་དང་	-9.57428
མ་འདྲཝ་ཅིག་	-9.57433
འཆར་གཞི་འདི་	-9.57507
༢༥	-9.57513
གསང་བ་	-9.57513
འགོ་བཙུགས་	-9.57613
མཚམས་	-9.57665
ལེགས་ཤོམ་ཨིན།	-9.57802
༡༨	-9.57821
ཡོདཔ་འོང་།	-9.57823
ཁུ་སིམ་སི་	-9.57849
མེད་ག	-9.57882
ཡོདཔ་ད་	-9.57909
ཨིནམ་སྦེ་	-9.57976
▁ད་རུང་	-9.57987
སྐྱོ་དྲགས་	-9.57999
ཆ་མཉམ་	-9.58011
གནོད་པ་	-9.58117
དང་ཕྱདཔ་ད་	-9.58169
་ཟེར་དྲིས་ཡི།	-9.5818
ལག་ལེན་འཐབ་སྟེ་	-9.58187
་ཟེར།	-9.58251
ལྷོད་	-9.58279
ལྷོད་ནུག།	-9.58319
ཆ་ཚང་	-9.58349
ཆ་རོགས་འབད་ཚུགས	-9.58383
རྔམ་སི་སི་	-9.58386
ཁང་ཚན་	-9.58404
▁པད་མ་དང་	-9.58429
བྲིས་ནུག།	-9.58449
འཕུར	-9.58504
ཉོ་ནི་	-9.58551
▁ཉི་མ་གིས་དེ་	-9.58554
སྦ	-9.58611
▁ཨ་	-9.58613
ཤ	-9.58622
བློ་འདོད་	-9.58662
ཆག་	-9.58668
ཁོ་གིས་མནོ་ཡི	-9.58682
འདུག་ཟེར་མནོ་ཡི	-9.58683
▁ཨོ་རྒྱན་གྱིས་	-9.58694
▁གཅིག་འབདན་	-9.58701
ཚེ་རིང་གིས་	-9.5873
འཁྱེག་	-9.58748
འབད་ཚུགས་ཚུགསཔ་	-9.58772
ཧེང་སྐལ་	-9.58774
སྒེར་གྱི་	-9.58803
བེ་	-9.58898
ཚོང་ཁང་	-9.58944
དཀའ་ངལ་ཚུ་	-9.59005
་ནི་ལུ་དགའ།	-9.59044
ཆེ་བའི་	-9.59081
ངོ་མ་སྦེ་ར་	-9.5914
གི་འོག་ལུ་	-9.59227
ཧིང་སང་ས་	-9.59301
བཀའ་དྲིན་ཆེ།	-9.59329
ལས་འགུལ་	-9.59362
འདི་ཁྱོད་ཀྱི་	-9.59385
ཆགས་	-9.59596
གྲངས་	-9.59617
གསོ	-9.59646
སྟོནམ་ཨིན།	-9.5969
▁སྐལ་བཟང་གིས་	-9.59696
་དགོ་པའི་	-9.59723
སློབ་སྟོན་	-9.59752
སྐྱོ་སི་སི་	-9.59818
ངེ་གི་དོན་ལུ་	-9.59845
ཕོ་སྐྱེས་འདི་	-9.59899
པ་ཚུ་	-9.59972
ཉིན་མའི་ལྟོ་	-9.59991
ལྷབ་	-9.59995
ཁཝ་	-9.60007
ནང་སྡོདཔ་ཨིན།	-9.60108
རྩེད་རིགས་	-9.60109
▁ཨེ་	-9.60167
མཐར་འཁྱོལ་	-9.60181
ཡུན་རིངམོ་	-9.60185
བཏོན་གཏང	-9.60202
རེ	-9.60213
་ཅིག་	-9.60322
འོང་འབབ་	-9.60401
▁ཁྱོད་ཀྱིས་ཉི་མ་	-9.60494
བཟོ།	-9.60522
མཇུག་ལུ་	-9.60529
་ར་	-9.60546
དལཝ་	-9.60614
ཨིན་ཟེར་ཤེས།	-9.60632
བཱམ་རོ་ཊི་	-9.60669
འགྱོ་ནི།	-9.6068
་ནི་གི་གོ་སྐབས་	-9.60685
ག་ཏེ་ལས་	-9.60708
སྦེ་མཐོངམ་མས།	-9.60709
གཏང་	-9.60719
ཉི་མའི་ལྟོ་	-9.60733
་དགོཔ་ཐོན་ཡི།	-9.60739
ཁྲོམ་སྡེ་	-9.60768
རྒྱུ་	-9.60824
ཚ་ཏོམ་	-9.60833
ཆ་རོགས་འཆམ་ཤོས་	-9.60865
དགའ་སྤྲོ་	-9.60926
འགྱོ་བཅུག	-9.61006
འབད་མི་ལུ་	-9.61013
ཀོཊ་	-9.61053
འདི་ཡང་	-9.611
ཁས་ལེན་	-9.61209
བདུན་	-9.61249
ནངས་པར་	-9.61271
ོ་	-9.61303
པར་ཆས་	-9.61307
ནོ་	-9.6145
ག་ཅི་གི་སྐོར་ལས་	-9.61504
ཁྲོམ་ལམ་	-9.61518
་བཅུག་ནུག།	-9.61522
དང་འཁྲིལ་	-9.61545
སྤྱང་ཀ་	-9.61557
བཏུབ་	-9.61577
རྩེ	-9.61608
ལྡུམ་ར་	-9.61655
དགོས་མཁོ་	-9.61772
བཏང་	-9.61785
པ་ལས་	-9.61796
གདམ་ཁ་རྐྱབ	-9.618
འོས་འབབ་	-9.61805
དྲག	-9.61807
བཙུགས་ནི་	-9.61876
ཟླ་	-9.61903
འཁྱུ	-9.61997
ཁ་ཐུག་	-9.6208
ལྷག་ནི་	-9.62097
་ཟེར་ཤེས་ཅི།	-9.62102
ཐོན་ཡི།	-9.62113
ལག་ལེན་འཐབ།	-9.62118
སྐྱེས་	-9.62148
་ཟེར་ང་གིས་	-9.62234
ལག་ལེན་འཐབ་མི་	-9.62299
བློ་གཏད་	-9.62368
▁སློབ་ཕྲུག་	-9.62396
ཚོར་སྣང་	-9.62479
ཡོད་ག་	-9.62509
རྒྱལ་ཁ་ཐོབ	-9.62532
གཉེན་	-9.62554
མོ	-9.62591
གིས་ང་བཅས་ལུ་	-9.62614
▁ལྷ་	-9.62634
ཨེན་	-9.62685
▁ཀརྨ་དང་རྡོ་རྗེ་	-9.62729
གློག་བརྙན་འདི་	-9.62774
འབད་འབདཝ་	-9.628
ལོང་	-9.62808
▁ང་བཅས་ཀྱིས་ཁོ་	-9.62847
ཨིན་པས་ཟེར་	-9.62854
ཨིན་ན་ཤེས།	-9.62871
ཧོ	-9.62883
འབད་མ་ཚུགས།	-9.63014
མེན་ཡ	-9.63061
གིས་ཁྱོད་	-9.63065
སླབ་ཚུགས།	-9.63159
་ནི་འདི་ཨིན།	-9.63195
དྲན	-9.63206
གི་སྦོ་ལོགས་ཁར་	-9.63211
▁ཁྱོད་ཀྱིས་ག་ཅི་	-9.63213
ཀཱར་འདི་	-9.63237
ཡེ་ཤུའི་ལྷ་ཁང་	-9.63238
ཤུལ་	-9.63244
སློབ་ཚན་	-9.63249
ཝའིན་	-9.63249
ཊོམ་ལུ་	-9.63298
▁བཟང་པོ་ལུ་	-9.6334
ཇ་པཱན་གྱི་	-9.63345
དེ་འབད་ནི་འདི་	-9.63352
འབྱང་ནུག།	-9.63358
དམག་མི་	-9.6337
མཐོ་ཤོས་	-9.63385
ངན་	-9.63402
མཐོང་མི་	-9.63433
▁ག་ཡང་	-9.63433
གསང་	-9.63442
རིན་གོང་	-9.63442
▁ཆུ་	-9.6345
ཀཱ་	-9.63521
རེ་བ་བསྐྱེད	-9.63541
ནུག་ཟེར་མནོཝ་མས།	-9.6359
▁དབང་མོ་གིས་	-9.63637
▁བདེ་ཆེན་དང་	-9.63653
སྔོན་	-9.63734
པེ	-9.63792
གི་གདོང་ཁར་	-9.63807
ཝ་ཨིན་ན	-9.63822
་འོང་ཟེར་མནོ་ཡི།	-9.6386
ཞིང་	-9.63898
མི་ཊར་	-9.63982
ཧ་མི་གོ་བས།	-9.64046
བརྗེད	-9.6409
ཨིན་ན་མ་ཤེས་པས།	-9.64163
འདུག་ཟེར་སླབ་ཅི།	-9.64244
་མི་བཅུག།	-9.64262
པདྨ་	-9.64275
མཉམ་འབྲེལ་	-9.64275
ལྷོད་འོང་།	-9.64293
བརྒྱ་ཆ་	-9.64444
བསམ་	-9.64588
དྲན་	-9.64663
འཆོལ་ལོ་	-9.64689
ཁྲིམས་རྩོདཔ་	-9.64757
སྨན་ཁང་	-9.64759
དགོ་ནི།	-9.64787
མི་འབད་ཟེར་	-9.64787
ཁང་མིག་འདི་	-9.64909
འཛིན་སྐྱོང་པ་	-9.64916
་དགོཔ་སྨོ	-9.64959
ཌོ་ལར་	-9.64981
ཉལ་ཁྲི་	-9.64983
ཕྱི་རྒྱལ་ལུ་	-9.65249
གླ་ཆ་	-9.65261
གནམ་བྱཱར་	-9.65277
འགྱོ་སྟེ་	-9.65319
འབད་འབདཝ་འོང་།	-9.65347
ནང་གི་	-9.65383
ཨ་རྟག་	-9.65425
ཐང་རིལ་	-9.65574
སྤར	-9.65585
མ་འོངས་པའི་	-9.65643
འབདན་	-9.65659
འཚོལ།	-9.65665
འཛུལ་	-9.65695
ཚད་འཛིན་	-9.65699
་དགོཔ་འོང་།	-9.65745
ཤི་ནི་	-9.65747
མགུ་	-9.65787
མ་མཐོང་པས།	-9.65901
ཐ་	-9.65934
གཉེན་རྐྱབ་ནུག།	-9.65935
གཅིག་རྐྱངམ་གཅིག་	-9.65938
འཕྱག	-9.65944
་ནི་གི་འཆར་གཞི་	-9.65958
བཤད་	-9.66033
དྲག་པས།	-9.6612
གར་	-9.66244
བུ	-9.66259
ལས་སྡེ་	-9.66289
བསྐྱེད	-9.6629
ནུས་ཤུགས་	-9.66331
མང་སུ་	-9.66378
ཨེསི་	-9.66389
འདི་ཨ་རྟག་ར་	-9.66587
སྲོག་	-9.66621
བ་འདི་	-9.6671
ཏ	-9.6676
ཡིག་ཆ་	-9.66807
དཔལ་མོ་	-9.66825
དྲགས་	-9.66869
ཐག་གཅད	-9.6688
འབད་ནི།	-9.66932
བཀལ	-9.66936
ཁོ་ར་གི་	-9.66971
ཀར་	-9.6699
མ།	-9.67049
མི་ཚེ་འདི་	-9.67055
དུས་སྟོན་	-9.67063
ཚ་རིམས་	-9.67126
བརྟན་བརྟན་ཨིན་ན	-9.67142
རྐྱངམ་གཅིག་མེན།	-9.67163
འགྲེམས་སྟོན་ཁང་	-9.67166
ཅིག་ཡང་	-9.67198
▁རིན་ཆེན་གྱིས་	-9.67203
▁ཡེ་ཤེས་ཀྱིས་	-9.6724
▁ཡོན་ཏན་གྱིས་	-9.67259
མཐའ་	-9.6732
ངོ་ཤེས	-9.67344
འཕྲོ་མཐུད	-9.67382
དགོད་བྲོ་	-9.67479
སྦྱོར་	-9.67497
སྡོད་ཅི་ག	-9.6757
▁ག་དེ་སྦེ་	-9.6758
གདམ་ཁ་རྐྱབ་	-9.67608
ཝ་ཨིན་མས།	-9.67665
ཡོདཔ་བཟུམ་	-9.67696
ཨ་ཕི་དེ་འབད	-9.67758
ཧ་ལས་སི་སི་	-9.67791
དངུལ་ཁང་	-9.67832
ཡོད་མི་ཚུ་	-9.67838
བྱིན།	-9.67841
ཨ་ལོ་	-9.67904
བྲོཝ་	-9.67972
གཙུག་ལག་སློབ་སྡེ	-9.68
ཏི་རུ་ལངམ་སྦེ་	-9.68017
ཇེ་	-9.68053
་ས་	-9.68065
ཡར་སོང་ཡི།	-9.68066
འབད་དགོ་མནོ་མི་	-9.68108
སྒྲིང་ཁྱིམ་	-9.68154
ཚོར་ནུག།	-9.68186
ལེ་ལ་	-9.68226
▁ང་ད་ལྟོ་ཡང་	-9.6826
▁སྣུམ་འཁོར་	-9.683
ན་གྱི་	-9.6831
ཤེས་མི་	-9.68361
་ཟེར་སླབ།	-9.68414
▁མེ་	-9.68423
་སྨོ	-9.68447
འཆར་གཞི་བརྩམས་	-9.68455
བཱོལ་	-9.68537
རྐང་ཁྲི་	-9.68742
མི་ངོམ་	-9.68819
སྦོམ་འདུག།	-9.68886
ལོ་ཚད་	-9.6889
▁ང་བཅས་ག་ར་གིས་	-9.68931
ཁ་མ་བཟེད	-9.68946
མནོ	-9.68986
སྒུག	-9.68992
སྦོམ་ཤོས་	-9.69005
ཧ་གོ་ཡི།	-9.69092
སྤྲོ་སྟོན་	-9.69156
་ད་ཡི།	-9.69165
ང་ལུ་མོ་	-9.69185
ཆ	-9.6919
ཟླ་བ་	-9.69216
དབང་འདུས་ཀྱིས་	-9.69237
པི་སི་	-9.69306
ངོ་མ་འདི་	-9.69309
དོན་ཧིང་	-9.69342
རྫོགས་སོ་ཡི།	-9.69356
བཱོསི་ཊོན་ནང་	-9.69358
བཤད	-9.69363
་དོ་ཡོདཔ་ཨིན།	-9.69422
མངར་ཁུར་	-9.69475
འདི་འཇམ་ཏོང་ཏོ་	-9.69481
ཨིན་ན་ཤེས	-9.69492
ཡོ་	-9.69495
འདི་ཧ་ལམ་	-9.69511
ག་ཅི་འབད་ཡི	-9.69537
བྱེམ་	-9.69548
ན་གཞོན་	-9.6956
ངོ་མ་འབད་བ་ཅིན་	-9.6959
ག་ཏེ་ཡང་	-9.69637
སྤྱོད་ལམ་	-9.69662
ག་དང་གཅིག་ཁར་	-9.69678
ཚུལ་	-9.69789
མཚན་	-9.69814
མཐོང་ཡི་ག	-9.69882
ཤིང་འབྲས་	-9.69931
ག་ཅི་ཨིན་ན་	-9.7004
་ལས་	-9.70041
འགྲན་བསྡུར་	-9.7006
གཉེན་སྦྱོར་	-9.70242
ཞི་བདེ་	-9.70251
་སོ་ནུག།	-9.70286
ག་ཅི་འབདཝ་སྨོ	-9.7031
་བཅུགཔ་མས།	-9.70331
བལྟ་སྟེ་	-9.70349
▁ཕོ་སྐྱེས་	-9.70352
འཁོར་ལམ་	-9.70536
་ནིའི་འཆར་གཞི་	-9.7056
འབད་འོང་ག	-9.70577
རྒྱུག་	-9.70713
རྒྱུ་ནོར་	-9.70746
▁ང་བཅས་ཆ་ཁྱབ་	-9.7075
བཙན་སྐྱོགས་ལུ་	-9.70793
ཉོག་བཤད་	-9.70893
མ་སླབ་པས།	-9.70897
འདི་ཁོ་གི་	-9.7107
སླབ་ད་	-9.71107
འདྲེ་	-9.71172
གསལ་ཏོག་ཏོ་	-9.71221
གློག་མེ་	-9.71234
ཉེས་ཅན་	-9.7124
སྡེ་ཚན་གྱི་	-9.71241
གནང་མས།	-9.71252
མ་རྐྱབ།	-9.71274
སྐུགས་	-9.71284
ཤུལ་མ་	-9.71299
་གནང་མས།	-9.71337
ང་ར་གིས་	-9.71345
་འོང་ཟེར་མནོ་ཡི	-9.7135
འབད་བའི་	-9.71378
འཐབ་འཛིང་	-9.71472
ཧ་ལས་ནུག།	-9.71474
ང་གནམ་མེད་ས་མེད་	-9.71477
ག་ཏེ་ལུ་ཡང་	-9.71487
ཡོན་ཏན་	-9.71494
་དོ་བཟུམ་འདུག།	-9.71575
མནོ་	-9.71585
ཞུ	-9.71681
ཐིམ་ཕུག་ལུ་	-9.71744
ཀི་དེབ་	-9.71794
གཟུང	-9.71826
▁གནམ་གཤིས་	-9.7186
ཚྭ་	-9.71969
ཞིབ་དཔྱད་	-9.72059
ཊོ	-9.72178
སོང་།	-9.72347
ཚབ་	-9.72361
བརྟག་དཔྱད་	-9.72446
གསོན་པོ་སྦེ་	-9.72448
དོ་རུང་	-9.72453
མིན་	-9.7246
སྟོང་	-9.72482
ཕེརེནཆི་གི་	-9.72534
ཕན་ཐོགས་	-9.72536
་མི་ཆོག།	-9.7254
ར་མེད།	-9.72546
ཇི	-9.72574
བསྐྱར་ཞིབ་	-9.72607
ལྡེ་མིག་	-9.72654
ཐབ་	-9.72656
གིས་ཁོང་	-9.7268
མི་སླབ།	-9.72739
ཀི	-9.72833
འཁྱིད	-9.72846
སྣང་	-9.729
་ནུག་ཟེར་སླབ་ཅི།	-9.7292
འགྱོ་ནི་ཨིན།	-9.72938
བརྙ	-9.72954
རེ་བ་བསྐྱེད་ཅི	-9.7304
སྐྱེས་ལོ་	-9.73115
བདེན་ཁུངས་	-9.73128
གསད	-9.73176
མང་ཤོས་ཅིག་	-9.7325
སྒྱུར་	-9.7333
ཐོན་སྐྱེད་	-9.73346
སྔུ	-9.73431
རྐྱབ་སྟེ་	-9.7344
ལྡན་པའི་	-9.73441
་དགོཔ་སྦེ་ཨིན།	-9.73502
བདའ་	-9.7354
༡༠༠	-9.7357
སྒྲོལ་མ་ལུ་	-9.73588
མཐོ་དྲགས་	-9.7359
ཌོ་	-9.7375
སྒོ་སྒྲིག་	-9.73779
ཐོབ	-9.73887
ཟ་ཁང་ནང་	-9.73893
ཏོ་	-9.73915
ཉོ་	-9.73931
སྐམ་	-9.73944
་ཡོདཔ་ཨིན།	-9.73973
བསྒྱིར	-9.73976
གཉིས་ཀྱིས་	-9.73983
་ཟེར་ཁོ་གིས་མནོ	-9.74138
ཨཱོས་ཊེ་ལི་ཡ་ལུ་	-9.74183
་ཚུགས	-9.74215
འཁོར་ལོ་	-9.74235
ལས་བརྒལ་	-9.74271
སླབ	-9.74288
འདྲ་མཉམ་	-9.74331
ཕད་ཅུང་	-9.74356
་ག།	-9.74358
ལོག་ཅི་ལོག་ཅི་ར་	-9.74424
དབང་མོ་ལུ་	-9.74497
ལན་གསལ་	-9.74542
ཨེཕ་	-9.74587
འཐོབ།	-9.74598
སྒྲིང་སྒྲི་	-9.74617
དེ་གི་	-9.74637
སྐྱིན་འགྲུལ་	-9.74698
▁ཀུན་བཟང་གིས་	-9.74735
མ་འབད་བ་ཅིན་	-9.74749
ཨ་རྟག་བཟུམ་སྦེ་	-9.7475
གི་རིང་	-9.7476
▁ད་ང་	-9.74803
ཕོག	-9.74818
ཁུ་	-9.7497
ང་བཅས་ལུ་ཆ་རོགས་	-9.74976
དེ་འབད	-9.74986
སྒྲིང་སྒྲིང་	-9.74994
ང་གིས་དེ་	-9.75008
སློབ་ཕྲུག་ཚུ་	-9.75025
ི	-9.75043
སོར་	-9.75057
དུག་	-9.75107
ཆ་རོགས་འབད་ཡི།	-9.75149
ལཱ་འབད་ཡི།	-9.75162
གྱོན	-9.75279
ཆུ་ཚོད་གསུམ་	-9.75519
བཅོས་	-9.75583
ཞབས་ཁྲ་རྐྱབ	-9.75638
འབད་བཅུག	-9.75642
ལས	-9.75691
དེ་འབད་ཚུགས	-9.75751
རོ་ཁྱི་འདི་	-9.75763
རྒྱལ་ཁབ་ནང་	-9.75769
སྒྲོལ་མ་འདི་	-9.75779
མོ་ར་རྐྱངམ་གཅིག་	-9.75782
སྐྱེ	-9.75863
མི་གིས་	-9.75883
འབག་ཤོག།	-9.75902
ཚོང་ལས་	-9.75993
སྤྲོ་	-9.76062
▁ག་འབད་རུང་ཅིག་	-9.76103
ན།	-9.76147
འབད་དགོ་མི་འདི་	-9.76215
སླབ་གེ།	-9.76217
ཕོ	-9.76256
ཤེས་ཡོན་	-9.76274
དུས་སྟབས་	-9.76301
རྐང་རྩེད་	-9.76328
སྲིད་བྱུས་	-9.76344
རྒྱུན་	-9.76409
▁བཀྲ་ཤིས་	-9.76447
མེ	-9.76523
རེ་བ་བསྐྱེད་མི་	-9.76529
༡༣	-9.76531
▁ང་གིས་སེང་གེ་	-9.76533
་ནུག་ཟེར་མནོ་ཡི	-9.76544
ཤི་ནུག།	-9.76562
མང་	-9.76587
གི་ནང་འཁོད་	-9.76616
བོསི་ཊོན་ལུ་	-9.76661
སློབ་སྦྱོང་འབད	-9.76683
འབད་འོང།	-9.76738
སྟོན་ནུག།	-9.76747
བསྒུག་སྡོད	-9.76791
གིས་ཁྱོད་ལུ་	-9.76804
འཆར་གཞི་བརྩམ་དོ	-9.76847
ཏམ་ཁུ་འཐུང	-9.76858
ཡིད་	-9.76936
གྲོགས་རམ་འབད	-9.76938
▁མི་ག་གིས་ཡང་	-9.76998
མི་ཁུངས་	-9.77073
ཇ་པཱན་ལུ་	-9.77087
ཤོར	-9.77135
འདྲ་	-9.77188
ག་ཅི་སྦེ་མ་	-9.77201
ཐོན་ནུག།	-9.77227
ངས་	-9.7724
ལེ་ཤ་གིས་	-9.7731
ཇ	-9.77323
གདན་	-9.77333
གནག་དུང་དུ་	-9.77374
མེནམ་	-9.7738
ཚབས་ཆེན་	-9.77416
▁དཀའ་ངལ་འདི་	-9.77465
བདེན་པ་འདི་	-9.77486
འབག།	-9.77493
སྡོད་ཅི་ཟེར་	-9.775
མ་འདི་	-9.77542
བལྟ་གེ།	-9.77599
བསིལ་ཏོང་ཏོ་	-9.77731
སྒྲུབ་བྱེད་	-9.77746
འདོད་	-9.77757
ཕུན་ཚོགས་ཀྱིས་	-9.77788
▁ཚེ་རིང་དང་	-9.7781
བཙན་	-9.7781
རྒྱ་	-9.77826
་ཟེར་མི་མནོ་བས	-9.77836
ཅི	-9.77958
འབདཝ་ཨིན་ན	-9.77965
སྣུམ་འཁོར་ཀཱར་	-9.77973
ཉེས་	-9.77975
ལིན་	-9.77984
དེ་འབད་དགོཔ་	-9.78098
སྟབས་མ་བདེཝ་	-9.78139
ཤོ	-9.78176
་ཆོག།	-9.78233
བརྟན་བརྟན་མེད།	-9.78245
རེ་བ་ཡོད།	-9.78264
ཙིགཔ་ཟ་ནུག།	-9.78301
ཟོགཔོ་	-9.7832
མཐའ་འཁོར་ལུ་	-9.78347
ངེས་བདེན་	-9.78367
མཐོངམ་ད་	-9.78397
ཨིན་མི་	-9.78481
རིས་	-9.78633
འུ་བཀལ	-9.78637
དེ་འབདཝ་ད་ང་གིས་	-9.78639
ནཱ	-9.78645
བཟུང་	-9.78681
རྫོང་ཁག་	-9.78717
བཅའ་མར་གཏོགས	-9.78724
▁མི་ཅིག་གིས་	-9.78726
དཔེ་དེབ་ཚུ་	-9.78809
འགོར་ཡི།	-9.78954
ལང	-9.7898
རྒྱང་མཐོང་བལྟ	-9.79075
བཏོན	-9.79076
ཧམ་	-9.79079
ལུ་བརྒྱུད་འཕྲིན་	-9.79083
་རུང་བཏུབ་ནུག	-9.79131
ཕི	-9.79203
འཐབ	-9.79207
ཁྲིམས་འགལ་	-9.79211
བཤོལ་བཞག	-9.79218
དཔྱད་རིག་གཏང	-9.79219
སྤུ་	-9.79268
་སྟེ་སྡོད་ཅི།	-9.79268
ནཱ་ལས་	-9.79287
ནམ་ར་འབད་རུང་	-9.79307
ལཱ	-9.79341
དེ་ག་དེ་སྦེ་	-9.79348
མི་ཚོར་བས།	-9.79462
འབད་ཐངས་	-9.79529
༤༠	-9.79562
ཕྱགས་སྙིགས་	-9.79564
རྩི་	-9.79611
་ནིའི་དུས་ཚོད་	-9.79641
ཚུ་གི་སྐོར་ལས་	-9.79685
རའི་	-9.79725
་ཡི་དེ་འབདཝ་ད་	-9.79727
རྐྱངམ་གཅིག་གིས་	-9.79745
ཕྱི་ཁ་	-9.79764
ཝི	-9.7978
ཚོར་	-9.79822
མ་ཚད་	-9.7983
▁ང་གིས་ཨ་རྟག་ར་	-9.79851
▁དེ་འབད་ནི་འདི་	-9.79959
སྡོད་མི་ཚུགས།	-9.79974
ཊར་	-9.80104
ང་སེམས་དགའ་ཡི།	-9.80135
ཨིང་སྐད་	-9.80138
ཤེས་ཅི་ག	-9.80198
་བཅུག་ནི་	-9.80228
་དགོཔ་སྦེ་	-9.80234
ཆ་ཤས་	-9.80237
ཅིག་མེད།	-9.80292
ཏམ་ཁུ་	-9.80295
ང་གིས་ཤེས་ཅི།	-9.80326
ངེ་གི་ཆ་རོགས་	-9.80329
ཉེན་བརྡ་	-9.80359
དེའི་སྐོར་ལས་	-9.8043
ཕན་	-9.80455
ལས་འཆར་	-9.80468
པ་སྦེ་	-9.8051
འཛམ་གླིང་ནང་	-9.80514
རེ་བ་སྐྱེད་དོ།	-9.80531
༽	-9.80535
རཱ	-9.8056
ལྷོདཔ་ད་	-9.80574
ཁོང་ར་གིས་	-9.80585
ནང་འདུག།	-9.80595
འགྱོ་བའི་སྐབས་	-9.80596
་ཐངས་	-9.80717
▁ང་གིས་ད་རིས་	-9.80723
སློབ་གྲྭ་ཆེ་བ་	-9.80864
འགོ་བཙུགསཔ་ཨིན།	-9.80871
དར་	-9.80882
མཉམ་གཅིག་	-9.80886
སྟོངམ་	-9.80897
ཨཱསི་ཊེ་ལི་ཡ་	-9.80921
བུ་ལོན་	-9.80928
མེན་པས་ག	-9.8093
སྒོ་ཕྱེ	-9.80974
རྒྱལཔོ་	-9.8098
རླུང་མ་	-9.80988
སྦེ་འདུག།	-9.81055
ལེན།	-9.8106
ཞབས་ཁྲ་འཐེན་མི་	-9.81102
རྒྱ་མཚོ་	-9.81147
སྙིང་སྟོབས་	-9.81214
འབྱུང་འོང་ཟེར་	-9.81231
སྤྲོ་བ་འབྱུང	-9.81231
འཁྲབ་སྟོན་	-9.81252
ག་ཅི་ཡང་མེད།	-9.81292
▁མོ་གིས་ང་	-9.81343
འབྲེལ་མཐུད་	-9.81369
བུམོ་འདི་	-9.81371
་ཟེར་སླབ་ཅི	-9.81427
འབད་ཡི་ག་	-9.81463
▁ང་ཨ་རྟག་ར་	-9.81474
ཁའི་	-9.81482
དྲག།	-9.81551
▁ཨ	-9.81557
གི་ཐོག་ལས་	-9.81567
་ཟེར་སླབ་མི་འདི་	-9.81586
ཁྲོམ་གྱི་	-9.81598
ཚེ་རིང་དབང་མོ་	-9.81647
་བཏུབ།	-9.817
ཏམ་ཁུ་འཐུང་ནི་	-9.81728
དྲང་བདེན་	-9.81729
གལ་ཅན་	-9.81733
གས	-9.81736
དཀར་སངས་	-9.8178
གྲོས་ཐག་	-9.81786
ངེས་	-9.81802
▁ང་བཅས་རའི་	-9.81817
༼	-9.81823
ཟླ་བ་གིས་	-9.81825
རྒྱུག	-9.81926
▁ང་བཅས་ནཱ་ལུ་	-9.81965
་ཡོདཔ་དང་	-9.81992
བདེན་ཁུངས་བཀལ	-9.82075
སྐྱེལ་འདྲེན་	-9.82115
མནོ་ཡི།	-9.8215
ལྷབ་ནི་	-9.8221
▁ཀརྨ་གིས་ཁོ་གི་	-9.82217
ལས་ལྷག་	-9.82218
གཅེས་སྐྱོང་	-9.82234
ད།	-9.82302
མ་བཏུབ་	-9.82335
སྟོབས་ཤུགས་	-9.82367
ཝེ	-9.824
ངལ་འཚོ	-9.82427
མ་མནོ	-9.82462
ཁོ་རང་	-9.8252
གཉིད་ལོག	-9.82521
བཟང་མོ་	-9.82525
མཱ	-9.82544
མེ་རི་གི་	-9.8258
རྒྱལ	-9.82585
ལཱ་ཁག་ཅིག་	-9.82613
འབད་དགོཔ་ཨིན།	-9.82649
འུ་སྡུག་སྡུགཔ་	-9.82693
ལུས་ནུག།	-9.82713
བརྒྱུག	-9.82733
དུས་ཚོད་འདི་	-9.82733
པཱ	-9.82827
ཚར་ཅིག་	-9.82836
དག་པ་ཅིག་ཡོད།	-9.82849
▁ང་གིས་གལ་སྲིད་	-9.82856
ཉལ་ཁང་	-9.82862
དགའ་ནུག།	-9.82875
ལྡེ་མིག་བུ་	-9.82914
གཏངམ་ཨིན།	-9.82937
▁ལྷ་མོ་གིས་	-9.82971
འབདཝ་ལས་	-9.83022
པི་ཛ་	-9.83035
མི་ག་ར་གིས་	-9.8306
སྐར་མ་དག་པ་ཅིག་	-9.83088
་ནིའི་གོ་སྐབས་	-9.83129
▁ང་གིས་ཟླ་བ་གིས་	-9.83191
གཞན་ཚུ་	-9.83243
ནང་བཅའ་མར་གཏོགས	-9.83247
མི་ཚུགས།	-9.83289
ཕྱི་ཁར་འགྱོ	-9.83317
མི་འབད་བས།	-9.8337
རྣམ་	-9.8344
སྒྲ་སྙན་	-9.83446
ལྡུམ་ར་ནང་	-9.83487
དོང་	-9.83513
བདེ་ཆེན་	-9.83521
ཡིད་ཆེས	-9.83548
▁ཀརྨ་དང་ང་	-9.83567
དཀོན་མཆོག་	-9.83591
སེམས་དགའ་སྟེ་	-9.83612
ཅིག་སྡོད་ཡི།	-9.83638
འཐབ་	-9.83643
འབད་བ་ཅིན་ཀརྨ་	-9.83655
དོགས་པ་ཆགསཔ་མས	-9.83685
ཙམ་	-9.83741
་ནི་ལུ་བློ་འདོད་	-9.83796
གྱི་ཐོག་ལས་	-9.83814
ལམ་ཁར་	-9.83851
དེ་བཟུམ་མའི་	-9.83906
དྲག་ཤོས་ཅིག་ཨིན།	-9.83946
ཅིག་མས།	-9.83984
ཆ་རོགས་འབད་མི་	-9.83984
གིས་ཁོང་གིས་	-9.84019
བཙུགས་ཏེ་	-9.84023
འདུག་	-9.84038
མཁོ་མངག་	-9.84049
གོཝ་མས།	-9.84057
ཚེས་	-9.84069
▁དཀོན་མཆོག་	-9.84081
ཁ་ལས་	-9.84165
ཁྱིམ་ལཱ་	-9.84175
ཞུ་བ་	-9.84176
ཚིག་མཛོད་	-9.84262
མགྱོགས་པ་	-9.84344
▁ཨ་ཕི་འདི་	-9.84403
ཡིད་ཁར་འོང་	-9.84404
མཐོང་ཚུགས།	-9.84434
པ་ཅིག་ཨིན།	-9.84457
▁བསྟན་འཛིན་	-9.84472
གོ་གནས་	-9.84528
འབྱང་ཡི།	-9.84579
ཀྲོབ་མདའ་རྐྱབ	-9.84606
སྟོན་ནི་	-9.84611
བརྩི་འཇོག་འབད	-9.84644
་མི་བཏུབ།	-9.84664
མི་མང་	-9.84682
▁ང་ཡང་	-9.84701
ས་སྟོང་	-9.84722
་ཡི་ཟེར་སླབ་ནུག།	-9.84732
ཨེས་	-9.8477
རེ་བ་བསྐྱེདཔ་ཨིན	-9.84777
གནས་རིམ་	-9.84805
སྦྱང་བ་	-9.84823
དྲང་	-9.84875
་ནིའི་དོན་ལས་	-9.84894
ང་ལས་	-9.84979
སྲོག་སྐྱབས་འབད	-9.84989
ཕོག་	-9.85006
མནོ་བསམ་བཏང	-9.85011
རྒྱུ་རྐྱེན་	-9.85078
ཀརྨ་དང་	-9.85114
འཚབ་འཚབ་	-9.85138
དག་	-9.85147
བྱུང་	-9.85184
སེམས་ཤོར་སི་སི་	-9.85315
འགྱོ་ཡི་ག	-9.85317
རྨགཔ་	-9.85356
ལྟ།	-9.85397
འགྱོ་ཡི	-9.85444
▁མི་ཚེ་འདི་	-9.8546
བཙུགས།	-9.85464
སླབ་ནི་ལུ་	-9.85493
▁ང་གིས་ཁོ་གི་	-9.85495
ལོག་འོང	-9.85558
་པའི་བསྒང་	-9.85588
▁ང་གིས་རིག་འཛིན་	-9.85593
སྒྱུ་རྩལ་	-9.85596
འབག་འོང	-9.85597
་ཚུགས་པས།	-9.85641
༡༩	-9.8568
མེདཔ་ལས་	-9.85703
འདི་ང་ལུ་	-9.85749
རྣམ་ཅོ་	-9.85751
ཚུ་དང་གཅིག་ཁར་	-9.85762
་སྟེ་ཡོད།	-9.8577
▁ཁོ་ཁོ་རའི་	-9.85787
དངོས་	-9.85829
སླབ་ཚུགས་ག	-9.85858
སྡོད་ཁྲི་	-9.85881
པ་ཨིན་མས།	-9.8592
རེ་བ་བསྐྱེད་ནུག།	-9.85973
རཝ་	-9.86032
ནེ་	-9.86082
དྲིམ་	-9.86093
འབབ་	-9.86122
དུས་རྒྱུན་དུ་	-9.86136
༡༡	-9.86174
ཐུག་རྐྱེན་	-9.86188
ཨིན་པའི་	-9.86196
ཕྱི་འགྱུར་	-9.86308
དང་མཉམ་གཅིག་	-9.86323
་ནི་ཡོད་ག	-9.8633
གཞན་ཅིག་	-9.86342
བརྡུང	-9.86357
ནུབ་	-9.86376
ག་ཨིན་ན་	-9.86426
མི་ལུ་	-9.86442
▁ང་ཁྱིམ་ནང་	-9.86487
▁ལོ་	-9.865
རང་སོའི་	-9.86504
གིས་ཁོ་གི་	-9.86532
ནོར་	-9.86555
བཙོང་	-9.86582
་ཚུགས་ཅི།	-9.86619
བཤལ་	-9.86633
གཅིག་ནང་	-9.86679
ལས་རིམ་འདི་	-9.86703
བཅག	-9.86744
▁ང་གིས་ད་ལྟོ་	-9.86804
༠	-9.86822
ཅུང་	-9.86824
ཨ་ཕི་འབད་ནི་གི་	-9.86868
▁དོན་གྲུབ་ཀྱིས་	-9.86873
གསང་བའི་	-9.86907
▁ང་གིས་གཅིག་	-9.86942
གྲུབ་	-9.87003
འབད་ཡོད་པའི་	-9.87012
བཞགཔ་ཨིན།	-9.87024
བཟུམ་ཅིག་ར་	-9.87066
སྡུག་བསྔལ་	-9.87084
་ཟེར་མི་འདི་	-9.8714
དབང་བཙོང་	-9.87191
་སོ་ཡི།	-9.87205
་སྡོད་ཅི།	-9.87229
ཁ་བྱལ	-9.87254
དེ་འབད་དགོ་ཟེར་	-9.87417
ཨ་ཕ་	-9.8744
་ནི་གི་དུས་ཚོད་	-9.87474
ཨེབ་	-9.87541
ཀཱ	-9.87545
▁དཔེ་དེབ་འདི་	-9.87547
་ཐབས་ལུ་	-9.8762
ཐལ་	-9.87626
▁ཊོམ་ལུ་	-9.87632
འདི་ཁྱོད་ཀྱིས་	-9.87671
་འོང་ཟེར་ང་གིས་	-9.87705
གནང་	-9.87719
བརྟན་	-9.87757
ན་སྟེ་	-9.87799
ཨེམ་	-9.87822
དེད་གཡོགཔ་	-9.87838
དེ་འབད་	-9.8784
ཡུལ་	-9.87869
རྩིས་ཁྲ་	-9.88051
ཉིནམ་གསུམ་	-9.8806
ལེ་ལ་ལུ་	-9.88091
འེ་	-9.88143
་ཡི་	-9.88157
▁རྟ་མགྲིན་གྱིས་	-9.88199
་མི་དགོ།	-9.8823
་ཆི་ནུག།	-9.88265
ཁྱོད་ར་གིས་	-9.88286
་མ་བཏུབ།	-9.88314
ཏི་རུ་འདི་	-9.88325
ཚོགས་པ་	-9.88349
ཐད་ཀར་	-9.88367
སྦེ་བཞག	-9.88432
སྒོ་འདི་	-9.88522
མཆོག་ཏུ་གྱུར་པ་	-9.88555
བྱ་སྤྱོད་	-9.88622
བྲིས་ཡི།	-9.88624
▁དཔལ་མོ་གིས་	-9.88681
ཤར་	-9.88852
ཨིན་ན་ཤེས་ག	-9.88863
མ་དགའཝ་	-9.88878
ཞབས་ཁྲ་འཐེན་ནི་	-9.88927
གྱོངས་སོ་ཡི།	-9.89001
༡༤	-9.89049
འཐོབ་ཚུགས།	-9.89116
ཨ་ཙི་རེ་	-9.89197
རོལ་ཆས་པི་ཡ་ནོ་	-9.89222
བཏབ་	-9.89227
གིས་མོ་	-9.89276
ཡེ་ཤེས་	-9.89321
ཐོབ་དབང་	-9.89327
སྡེ་ཚན་ནང་	-9.89381
ཁྱོད་ལུ་ཆ་རོགས་	-9.89382
ནེ	-9.8939
ཛ	-9.89396
འགྲེམས་སྟོན་	-9.89402
ལོང	-9.89412
འབད་ནི་སྦེ་	-9.89471
ཆར་	-9.89514
རྒྱན་	-9.8952
▁ང་གིས་ཊོམ་གྱི་	-9.89538
ེལ་	-9.89542
དུས་ཚོད་ལེ་ཤ་	-9.89556
འདྲོག་	-9.89618
ཕན་ཐོགས་ཅན་	-9.89665
འགྱོ་འོང་ཟེར་	-9.89674
གེ་	-9.89683
ཡོད་ག།	-9.89691
༡༦	-9.89761
ཆི་	-9.89819
མནོ་ནུག།	-9.89822
གཟའ་མིག་དམར་	-9.89832
འཕྲུལ་རིག་	-9.89853
ར་སྡོད་ཅི།	-9.89855
ཕེརེནཆ་	-9.89872
སྦེ་མཐོང་མས།	-9.89909
ནི་འགོ་བཙུགས་ཡི།	-9.8998
གཙང་ཆུ་	-9.8999
གཉིས་ཡོད།	-9.89998
ཆུ་འཁྱུ	-9.9001
དབང་མོ་འདི་	-9.90067
བདེ་སྐྱིད་	-9.90077
བཙོ	-9.9013
▁བཙན་སྐྱོགས་	-9.90133
ཤུལ་མམ་གི་	-9.90148
་ནི་བཟུམ་འདུག།	-9.90163
་ནི་བཟུམ་ཅིག་	-9.9018
མཐུན་འབྲེལ་	-9.90194
དཔྱད་	-9.90194
གཱ	-9.90257
བཟོ་ཚུགས	-9.90399
སོ	-9.90503
འབདཝ་	-9.90617
གླིང་ག་ནང་	-9.90663
དོ	-9.90708
་མས་ག	-9.90739
ཆོས་ཚན་	-9.90744
འདི་ང་བཅས་ཀྱི་	-9.90761
མི་སྡེའི་	-9.90772
བཅུག	-9.90782
འཐོན་འོང་ཟེར་	-9.90823
ལེབ་	-9.9084
༢༠༠	-9.90848
▁ང་གིས་ནཱ་ལུ་	-9.90863
ངོས་ལེན་འབད	-9.90893
མཁོ་ཆས་	-9.90904
་དགོཔ་ཅིག་ཨིན།	-9.90912
ཡར་རྒྱས་	-9.9092
དམ་སྦྱིས་	-9.90964
རེ་རེ་བཞིན་དུ་	-9.90995
ལུས་སྦྱོང་	-9.91029
གྱལ་	-9.91038
ཕེརེནཆི་ནང་	-9.91053
▁འདི་ཁྱོད་ཀྱིས་	-9.91084
འི	-9.91105
ག་ཅི་བྱུང་ཡི་ག་	-9.91349
མི་དགའ	-9.9142
▁རྒྱལ་པོ་གིས་ཁོ་	-9.91437
ཁྱིམ་ནང་འགྱོ	-9.91447
བཟོ་གྲྭ་	-9.91449
ཉེན་ཁ་ཅན་	-9.91458
བློ་འདོད་འདུག།	-9.91463
གཉེན་རྐྱབ་ཅི།	-9.91517
་བའི་ཧེ་མ་	-9.91627
ེན་	-9.91655
བརྒྱད་	-9.91667
ཅིག་ཨིན་ཟེར་	-9.91683
སྲུང་སྐྱོབ་འབད	-9.91737
▁དར་རྒྱས་	-9.91752
འཚོལ་ནི་	-9.91759
དགོ་	-9.91787
འོག་	-9.91841
དབང་ཕྱུག་དང་རིན་	-9.91846
སབ་ཁྲ་	-9.91897
ཉིན་	-9.92042
ཊག་	-9.92108
ཡོདཔ་བཟུམ་འདུག།	-9.92164
་ཟེར་སླབ	-9.92164
▁དབང་འདུས་ཀྱིས་	-9.92185
ཕྲ	-9.92221
ཕུ	-9.92232
ཤོས་	-9.92236
ནང་ན་འཛུལ	-9.92265
བཏུབ་པས།	-9.923
ག་ཅི་གི་	-9.9237
འབད་རྩོལ་བསྐྱེད	-9.92396
སྤྱོད་པ་	-9.92436
སྡོད་ནི་ལུ་	-9.92439
ཅིག་མིན་འདུག།	-9.92495
ཊོན་	-9.92498
ང་གིས་མི་ཤེས།	-9.92546
▁ཨི་	-9.9255
འཆམ་ཏོག་ཏོ་	-9.92585
འདི་ལེགས་ཤོམ་	-9.92606
འདི་ངོ་མ་ར་	-9.92659
ལྷགཔ་ཅིག་	-9.92683
་ནི་སྦེ་	-9.92773
འགོ་ཁྲིདཔ་	-9.92774
མེ་ཏོག་ཚུ་	-9.92793
སྤུས་ཚད་	-9.928
་དོ་བཟུམ་ཅིག་	-9.92816
འཛམ་གླིང་འདི་	-9.92835
ཉིན་མ་	-9.92858
སོན་	-9.92872
▁མ་གཞི་	-9.92875
གི་རྒྱབ་ལས་	-9.92914
མ་འབད་ཟེར་	-9.92917
་ནི་ར་འབད་ཡི།	-9.92918
ལྗིད་	-9.92923
སློབ་ཁང་	-9.92967
དེའི་	-9.92993
པ་དང་	-9.93013
གཅིག་ཁར་སྦེ་	-9.93087
ཨ་ཞེམོ་	-9.93118
ཚོགས་རྒྱན་	-9.93137
ཁྱོད་ཀྱིས་ང་	-9.9314
ཉིནམ་འདི་	-9.93167
༡༧	-9.93279
ལོ་གཅིག་	-9.93298
དབུར	-9.93324
སློབ་	-9.93332
སྣུམ་འཁོར་ནང་	-9.93433
་པའི་སྐབས་ལུ་	-9.93482
དགོཔ་འདུག།	-9.93516
ཨིན་པས་ཟེར་མནོ	-9.93571
དུང་	-9.93631
▁ཕུན་ཚོགས་	-9.93665
བཟུང	-9.93701
བཟོད་གསོལ་	-9.93703
གཉིད་ལམ་	-9.93727
བཟོ་འོང་།	-9.93729
རེ་འདོད་བསྐྱེད	-9.93757
ཚོད་བསྲེ་	-9.93766
་དགོཔ་མེད།	-9.93776
གཏང་ཡི།	-9.9378
བསལ	-9.93814
གོ་ལ་ཚུ་	-9.93817
སླབ་པ་ཅིན་	-9.93851
སྣ་ཚོགས་	-9.93882
བཙུགས་ཡི།	-9.93912
ཇེ	-9.93955
་བཅུག་ཅི།	-9.94001
ཁ་བཟེད་ཡི།	-9.94014
ཝེ་	-9.94045
་ནུག་དེ་འབདཝ་ད་	-9.94108
▁རོ་ཁྱི་འདི་	-9.94113
་མི་ལུ་བརྟེན་ཏེ་	-9.94139
▁རྒྱལ་པོ་དང་དཔལ་	-9.94185
བདུན་ཕྲག་ངལ་གསོ་	-9.94199
གོམས་འདྲིས་ཚུད	-9.94226
ཟོགཔ་	-9.9424
བསྒུག་	-9.94241
ངེ་གིས་	-9.94242
ང་གིས་ཁོ་ལུ་	-9.94342
སྒྲོམ་འདི་	-9.94357
སྡོད་ཅི་ཟེར་མནོ	-9.94362
ཐད་རི་བ་རི་ར་	-9.94387
བཀོ	-9.94393
ང་གིས་ཁོ་	-9.94397
ལུ་བལྟ་	-9.94475
འབད་མི་དགོ་ཟེར་	-9.94478
རྒྱུ་དངོས་	-9.94489
དེ་ཡང་	-9.945
ཉེན་	-9.94555
ལམ་ཡིག་	-9.94617
རོགས་	-9.94654
ཞིམ་ཏོང་ཏོ་	-9.9469
སྡོད་ཡི་ག	-9.94693
▁ངེ་གིས་	-9.94732
ས་ཡ་	-9.94764
འབོ་ཡི།	-9.94814
ཁོང་དང་གཅིག་ཁར་	-9.94852
ཉལ་ནི་	-9.94861
ཐར་	-9.94914
དུམ་	-9.94921
་མི་ཨིན།	-9.94927
དུས་སྐབས་	-9.94945
▁ཁོ་གིས་མོ་ལུ་	-9.94976
བཙོང་ནི་	-9.94976
ལག་ལེན་འཐབ་ནུག།	-9.95006
འཕྲོ་མཐུད་དེ་ར་	-9.9503
ཡོད་ཟེར་མནོཝ་མས།	-9.95056
་དོ་ཡོདཔ་ཨིན་མས།	-9.95064
་མནོཝ་མས།	-9.95079
དངོས་གྲུབ་	-9.95139
སྤྱིར་བཏང་	-9.95142
འགྱོ་ནི་འདི་	-9.95144
རྩལ་རྐྱབ་ནི་	-9.95146
▁ཟླ་བ་	-9.95169
ཏི་རུ་ལེ་ཤ་	-9.952
བུམོ་རོགས་	-9.95246
སྐྱོ་ཤོས་	-9.9525
བཏང་སྟེ་	-9.95291
སྟོབས་ཤུགས་ཅན་	-9.95419
འཇམ་	-9.95422
ཕབ་	-9.95444
སེམས་དགའ་དགའཝ་	-9.95469
པ་ཚུ་གིས་	-9.95479
མི་ཤེས	-9.95543
དུས་མཐུན་	-9.95693
བཟོ་རྣམ་	-9.95729
འཕྲོད་བསྟེན་	-9.95743
▁ང་བཅས་ཀྱིས་མོ་	-9.95745
ན་ཆུང་	-9.95747
ཨིན་དེ་འབདཝ་ད་	-9.95795
▁དེ་འབདཝ་ལས་	-9.95804
་ནིའི་དཔའ་བཅམ	-9.95953
་མི་འདི་གིས་	-9.95989
ཅིག་སྦེ་སྡོད་ཅི།	-9.96018
ཅིན་	-9.9602
སྒོ་ལས་	-9.96198
གི་དུས་ཚོད་	-9.96233
མ་བཟོ།	-9.96259
ཡོངས་	-9.96297
▁སེང་གེ་	-9.96325
དཔྱད་རིག་	-9.96359
མི་འགྱོ	-9.96391
མཐའ་འཁོར་	-9.96392
ཚོར	-9.96402
དགའ་འཛུམ་	-9.96406
ཅིག་བྱིན་ཡི།	-9.96412
༦༠	-9.96443
དེ་བསྒང་	-9.96456
གྲོས་འཆར་	-9.96466
ཉེན་སྲུང་ཅན་	-9.96482
འགོ་	-9.96491
ཊེ	-9.96515
ཕོཝ་	-9.96528
འོང་ཟེར་མ་མནོ།	-9.96566
བཀང	-9.96567
ཉི་	-9.96599
འཁྲབ་རྩེདཔ་	-9.96616
་མ་གནང་།	-9.96623
▁ང་གིས་ཚེ་རིང་	-9.96639
ཤི་སོ་ནུག།	-9.96652
འགྲུལ་	-9.96665
ངེས་ཏིག་	-9.96683
འབད་དགོ་མ་མནོ	-9.96704
བཀོད་རྒྱ་	-9.96722
མནོ་བསམ་གཏང་ནི་	-9.96737
བཏོན་ནུག།	-9.96751
ལམ་འདི་	-9.96802
སྦོམ་ཡོད།	-9.96803
དེ་འབད་འོང་ཟེར་	-9.96835
ཁ་རྗེ་ཅན་	-9.96837
ལུས་	-9.96839
་དགོ་མི་མནོ་བས།	-9.96845
མའིལ་	-9.96907
▁ང་གིས་ག་ཅི་	-9.9696
ལུ།	-9.96991
་སའི་	-9.97036
འབྱུང་ནི་	-9.97083
རྩུབ་དྲགས་	-9.97102
ཐུབ་	-9.97111
▁འཛམ་གླིང་	-9.9713
▁ཁྱོད་ད་རིས་	-9.97164
དམིགས་གཏད་	-9.97199
ཐ་ན་	-9.97266
སི་གི་	-9.97271
▁ནོར་བུ་གིས་	-9.97278
དེ་ཅིག་ར་	-9.97279
དང་འཁྲིལཝ་ད་	-9.97288
འགྱོ་དགོ་མནོ	-9.97316
སྡེ་ཚན་གྱིས་	-9.97324
ཚིག་ཚུ་	-9.97329
ངལ་	-9.97336
སེམས་དགའ	-9.97352
ཧ་སག་སྦེ་	-9.97368
མཛོད་ཁང་	-9.97375
མ་མནོ་བས།	-9.97423
གཟའ་ཟླཝ་ལུ་	-9.97427
ག་ཅི་སླབ་མི་འདི་	-9.97492
▁ཁོང་ག་ར་	-9.97502
བྱོག་འགྱོ	-9.97518
གླིང་	-9.97552
ཡེན་	-9.97576
ཐབ་ཚང་ནང་	-9.97614
འོས་	-9.97622
ཌེ	-9.97627
ཁེ་ཏོག་ཏོ་	-9.97635
བསོད་ནམས་ཀྱིས་	-9.97653
▁ཁྱིམ་འདི་	-9.97657
འདི་ཁོ་རའི་	-9.97686
ཡར་སོང་ནུག།	-9.977
▁ཨ་ནཱ་	-9.97774
གཤག་བཅོས་	-9.97783
ཉོ་ཚོང་རྐྱབ་པར་	-9.97794
བདེན་པས།	-9.97835
གསོལ་ར་	-9.97931
ན་འདི་	-9.97938
ལཱ་རྩ་འགེངས་འབད	-9.97962
འདི་ག་གིས་	-9.97984
འགོར་འོང་།	-9.97992
ཁྲུས་ཁང་	-9.97996
སྐད་སྒྱུར་	-9.98017
སྒྱུ་རྩལ་མཁནམ་	-9.98028
གླ་	-9.98033
བརྟག་དཔྱད་འབད	-9.9806
དཔེ་ཆ་ལྷབ	-9.98078
ཨིན་ན་མ་ཤེས།	-9.98117
མཇུག་བསྡུ་	-9.98155
ཤེས་དགོཔ་	-9.98219
▁ཟླ་བ་གིས་ཁོ་	-9.9823
འབྲུག་	-9.9824
མཐུན་ཏོག་ཏོ་	-9.98249
སླབ་དོ་བཟུམ་སྦེ་	-9.98279
▁ཁྱོད་ག་ཅི་	-9.98281
གསར་ཤོག་	-9.98286
ཉོ་ནུག།	-9.98291
མེད་རུང་	-9.98303
ནམ་རྒྱུན་	-9.98338
ཁོ་རང་གིས་	-9.98389
ཅིག་ར་ཨིན།	-9.98405
མི་ཚེ་ནང་	-9.9844
གྲ	-9.98488
འོང་མི་	-9.98577
▁ཆོས་སྐྱིད་ཀྱིས་	-9.98615
ཧི་	-9.98624
ས་ཀྱི་	-9.98632
ཐག་བཅད	-9.98636
སེམས་ཕམ་	-9.98648
བྱིན་འོང་ག	-9.98656
ཨིན་པ་ཅིན་ང་གིས་	-9.98666
གཏང་འོང་།	-9.98687
ལྷ་སྒྲོན་གྱིས་	-9.98697
འཇིགས་སྣང་	-9.9874
འཐེན་	-9.98742
ཁང་ནང་	-9.98745
ཐད་ཀར་དུ་	-9.98757
དེ་བཟུམ་སྦེ་	-9.98901
བཏབ	-9.98914
ཤིང་གི་	-9.98921
དགྲ་བྱང་ཕྱད་	-9.98938
ཧ་མ་གོ།	-9.98987
དངུལ་སྤྲོད་	-9.99004
སཱན་	-9.99113
བཟོད་བསྲན་	-9.99136
སྐད་ཤུགས་སྦེ་	-9.9919
གུས་ཞབས་	-9.99206
ཐོབ་མི་	-9.9923
ཡི་གུ་འདི་	-9.99244
▁ཀརྨ་གིས་ཕུན་ཚོ	-9.99245
གྲོས་བསྡུར་	-9.99278
ཕྱད་ནུག།	-9.99357
འཚོལ་འཐོབ	-9.99362
གིས་ཁོ་རའི་	-9.99386
སྡོད་དགོཔ་	-9.99392
▁ཕ་ལུ་	-9.99461
ལུ་སྐྱེས་ནུག།	-9.99491
ངོ་ཚབ་	-9.99562
ཡུ་རོ་	-9.99584
▁ག་གིས་	-9.99588
ཚན་རིག་	-9.99608
འབད་མི་ཚུགས་ཟེར་	-9.99624
དུས་ཚོད་ཁར་ལྷོད	-9.99635
ལསི་	-9.99709
དང་འབྲེལ་བ་འཐབ	-9.99781
དང་ལྡནམ་སྦེ་	-9.99822
མ་སླབ་སྨོ	-9.99849
གཏང་མི་	-9.99873
ཅིག་གི་	-9.99874
མ་བརྗེད།	-9.99879
སྔུ་	-9.99954
སྦེ་ཚོརཝ་མས།	-9.99954
▁ཁོ་གིས་མོ་	-9.99965
རྐྱེན་	-10.0001
མས་ག	-10.0002
་ཅི་ཟེར་མནོ་ཡི།	-10.0003
སྲུང་འདི་	-10.0006
ཊེ་	-10.0007
ཅན་ཅིག་ཨིན།	-10.001
ག་དེ་སྦེ་སྨོ	-10.0012
རྩྭ་	-10.0014
ཡོད་སར་	-10.0014
བཟོ་སྟེ་	-10.0015
མ་བྱིན།	-10.0015
▁ཀརྨ་གིས་དཔལ་མོ་	-10.0016
འབད་ནི་ཡོད།	-10.0016
ཅན་ཅིག་	-10.0018
བཱོསི་ཊོན་ནང་ལུ་	-10.0019
དགོ་ནི་	-10.0022
དང་པ་འདི་	-10.0023
སྣ་	-10.0023
དམིགས་བསལ་	-10.0025
གསེར་	-10.0026
དང་ཡང་ན་	-10.004
འགྲེལ་བཤད་རྐྱབ	-10.004
་ཡོད།	-10.004
་ནི་ལུ་ལཱ་ཁག་	-10.0043
ཟེར་བའི་	-10.0044
དྲང	-10.0056
མདང་ཞག་གི་	-10.0058
་མ་ཚུགས་པའི་	-10.0058
བུ་སྤུན་	-10.0063
བླུག	-10.0063
ཁོ་རའི་ཨམ་སྲུ་	-10.0064
སྦོམ་སྦེ་	-10.007
་དོ	-10.0075
མཐུན་རྐྱེན་	-10.0075
གཏིང་	-10.0075
འབྱང	-10.0076
ཡན་	-10.0076
དེ་བཟུམ་ཅིག་	-10.0078
མཚམས་འཇོག་འབད	-10.0079
བརྟེན་	-10.0081
བདག་དབང་	-10.0084
▁ཨ་ནི་	-10.0084
འཇིགས་མེད་	-10.0087
གངས་རི་	-10.0096
▁པད་མོ་གིས་	-10.0098
དགོ་པས	-10.0101
དུས་ཚོད་ལངམ་སྦེ་	-10.0104
ལྷོད་ལྷོད་	-10.0108
བསྐྱེད་དེ་	-10.0111
གནོད་	-10.0112
ལུ་ག་ཅི་ཅིག་	-10.0119
ཐད་	-10.0123
སྤྲོ་བ་བྱུང་ཡི།	-10.0131
དང་བསྟན་འཛིན་	-10.0131
ཚོང་འབྲེལ་གྱི་	-10.0135
་ཟེར་ང་ལུ་སླབ་ཅི	-10.0135
ཀེན་སར་	-10.0136
མི་ཅིག་གིས་	-10.0138
ང་གིས་མོ་ལུ་	-10.0141
མི་མཐོང་མས།	-10.0142
མ་དགའ།	-10.0145
དེ་འབད་དེ་	-10.0145
གཏང་ནུག།	-10.0146
མ་ཐོབ།	-10.0146
སྦེ་ཐག་བཅད་ནུག།	-10.0152
ནི་འགོ་བཙུགས་ཅི།	-10.0157
▁ལེ་ལ་གིས་	-10.016
སྲ་ཀྲག་	-10.0161
▁འདི་ག་ར་	-10.0163
ཅ་ཆས་ཚུ་	-10.0166
ཨིསི་	-10.0166
པར་བཏབ	-10.0167
མི་གི་	-10.0167
རིན་མེད་སྟོང་པ་	-10.0168
འཆི་མེད་	-10.0172
དཔོན་	-10.0179
ཁས་ལེན་འབད	-10.0179
ངེས་གཏན་	-10.0181
དབྱེ་ཁག་	-10.0182
དེབ་	-10.0183
▁ལཱ་	-10.0183
པགས་ཀོ་	-10.0184
གོ་རིམ་	-10.0186
▁ཁྱོད་ང་ལུ་	-10.0188
མནོ་མི་	-10.0192
ཡེ	-10.0195
བཏོག་	-10.0196
བརྒྱ་	-10.0197
སྤྲོད་ནི་	-10.0197
སྤང་	-10.0198
བཤུད་	-10.0202
ཨེལ་	-10.0204
སཱ	-10.0213
མ་བཞག།	-10.0213
འབད་གནང་།	-10.0214
བགའ་ཡི།	-10.0214
ལཱ་རྩ་འགེངས་ཏེ་	-10.0215
ངན་པ་ཅིག་	-10.0221
་དོ་འོང་ཟེར་མནོ	-10.0223
ཀརྨ་གིས་དེ་	-10.0225
རེ་ཌིའོ་	-10.0225
བློ་འདོད་ཡོད	-10.0228
ལ་འདི་	-10.0232
རང་གི་	-10.0236
ནིའི་	-10.0236
ཀརྨ་གི་	-10.024
འདི་ངེའི་	-10.0242
པེ་	-10.0242
སྦེ་ཡོད།	-10.0245
ལྷ་མོ་འདི་	-10.025
བཀའ་	-10.0253
ས་སྒོ་	-10.0253
གསལ་བསྒྲགས་	-10.0261
གིས་དེ་	-10.0262
ཉོ་མི་	-10.0264
▁དཀོན་མཆོག་གིས་	-10.0266
ཉི་གདུགས་	-10.0266
སྤང	-10.0267
སྒྲོལ་མ་གིས་ཁོང་	-10.0272
རློནམ་	-10.0278
འུ	-10.029
སེམས་ཁར་ཕོག	-10.0291
རྒས་ཤོས་	-10.0291
འདི་ག་ཏེ་སྨོ	-10.0292
གིས	-10.0293
ཨིན་ན་མེན་ན་	-10.0294
ལྷ་མོ་ལུ་	-10.0295
ག་ཨིན་ན་ཅིག་གིས་	-10.03
སླབ་ནི་མེད།	-10.0301
ཟ་ནུག།	-10.0304
ཆུ་རྫིང་	-10.0305
དབྱངས་འཛོམས་	-10.0306
གསལ་སྒྲོན་འདི་	-10.0307
ཟི་	-10.0317
འགྱོ་བའི་	-10.0321
པར་ཚུ་	-10.0326
གཉིས་ཀྱི་	-10.0328
རྒྱབ་སྐྱོར་འབད	-10.0329
སྙན་རྩོམ་	-10.0329
མང་ཤོས་	-10.0329
ཐོབ།	-10.0332
ཡོད་མི་ག་ར་	-10.0332
▁ང་གིས་དཀར་སངས་	-10.0333
འབག་ནི་	-10.0335
ཨ་ལུའི་	-10.0335
རྩ་ལས་མ་	-10.0336
་ནི་གི་དོན་ལས་	-10.0337
ངོས་འཛིན་	-10.034
སོ་ནུག།	-10.0343
མགྱོགས་	-10.0345
དཔལ་སྒྲོན་ལུ་ཁོ་	-10.0345
བདའ	-10.0346
ལས་གཡོགཔ་	-10.0348
ང་གིས་མནོ་ཡི།	-10.0352
སྣུམ་འཁོར་བཞག་ས་	-10.0354
དགའ་བའི་	-10.0354
བྲི་ནི་	-10.0357
ཀསི་	-10.0357
གོ་ནུག།	-10.0358
་ཡི་ག།	-10.0359
ནི་འདི་	-10.0367
དགོངསམ་མ་ཁྲེལ།	-10.037
▁ང་དོན་ལས་ར་	-10.037
ཧ་ལས་ཡི།	-10.0375
ག་དེ་སྦེ་ཤེས་ཅི	-10.0375
▁ཆོས་སྒྲོན་གྱིས་	-10.0375
་ཟེར་བའི་	-10.0376
མདང་ཞག་	-10.0377
ོ	-10.0377
▁ག་ཅི་གི་	-10.0381
རིན་ཆེན་	-10.0384
ཁོ་རའིི་	-10.0385
མི་རིགས་	-10.0388
དང་འབྲེལ་བ་	-10.0391
ཨ་ལུ་ཚུ་ལུ་	-10.0391
མི་ལེ་ཤ་	-10.0391
རྐྱབ་ཨིན།	-10.0393
ཆོས་སྒྲོན་འདི་	-10.0394
སེམས་དགའ་བཅུག	-10.0394
ཉི་མ་འདི་	-10.0397
ལཱ་སར་	-10.0402
དགོཔ་སྨོ	-10.0403
ངོས་འཛིན་འབད	-10.0407
ནང་ཡོད་པའི་	-10.0412
མོའི་	-10.0416
ཅིག་ཉོ་ཡི།	-10.0416
མདའ་	-10.0416
ལྷ་པ་	-10.0419
གཞི་རྟེན་	-10.042
▁ཟླ་བ་དང་	-10.0421
ས་འདི་	-10.0423
ཐེངས་	-10.0425
ཇར་མཱན་	-10.0426
འགྱུར་བཅོས་	-10.0429
སྐར་མ་གཅིག་	-10.0435
མི་འོང་ཟེར་	-10.0437
་མི་ཅིག་	-10.0441
ཉུང་	-10.0442
པར	-10.0448
རྒྱུན་འགྲུལ་	-10.045
རྐང་འགྲུལ་	-10.0451
▁འདི་ངེ་གི་	-10.0452
ལོ་ན་	-10.0452
▁འདི་ཁྱོད་ཀྱི་	-10.0454
ཅིག་བཟོ	-10.0455
སྐུ་	-10.0458
ལོ་ལྔ་	-10.0462
རྩོམ་བྲིས་	-10.0462
མཐོང་ཅི་ག	-10.0468
ལུག་	-10.0468
འབད་བལྟ	-10.0469
ཉལ་བར་འགྱོ	-10.0469
འགྱོ་དགོ	-10.0472
ཞིབ་	-10.0473
རྟེན་	-10.0485
ཤོབ་རྐྱབ་	-10.0491
▁རྒྱ་མཚོ་གིས་	-10.0492
ཤོག་ལེབ་	-10.0493
ཚ་གྱང་ལང	-10.0495
བཟུམ་ཚོརཝ་མས།	-10.0496
དང	-10.0496
བཀལ་ནུག།	-10.0497
བྱུང་རབས་	-10.0499
འབུཔ་	-10.0503
སྙིང་སྟོབས་ཅན་	-10.0504
གཞི་བཙུགས་འབད	-10.0513
རྒྱབ་སྣོན་	-10.0514
ལོ་སུམ་ཅུ་	-10.0515
འབད་ནི་འདི་གིས་	-10.052
དགའ་སྐྱིད་	-10.052
ཚོང་མགྲོན་པ་	-10.0521
▁ཨ་ལུ་འདི་	-10.0522
སྒྲིག་ཆ་	-10.0522
འཚོ་	-10.0523
ཆང་འཐུང	-10.0532
▁ནཱ་	-10.0533
སྤོ་	-10.0534
གསུམ་ཡོད།	-10.0537
ཁྲ	-10.0537
ཟེར་སླབ་ཅི།	-10.0539
འཇའ་ཆི་ཆི་འདུག།	-10.0541
མགྱོགས་མགྱོགས་	-10.0542
་ང་གིས་མི་ཤེས།	-10.0545
མནོ་བསམ་མ་བཏང་།	-10.0546
་དགོ་ག	-10.0547
འཕྲོ་མཐུད་	-10.0548
ཕྲང་ཏང་ཏ་	-10.0549
བརྟན་བརྟན་བཟོ	-10.055
འཕྱིས	-10.0551
གྱོན་	-10.0552
བློ་གཏད་ཚུགསཔ་	-10.0553
ཉིནམ་གཅིག་ནང་	-10.0554
ཚ་དྲོད་	-10.0562
པད་མ་ལུ་	-10.0564
སེམས་ཁམས་	-10.0567
རྫས་སྦྱོར་	-10.0571
སྲོལ་	-10.0571
གེ	-10.0571
ཀྲི་	-10.0572
ག་དེམ་ཅིག་ཡོད	-10.0575
གཉེན་རྐྱབ་ནི་	-10.0579
ལེན་ནི་	-10.0582
རྒྱབ་འགལ་	-10.0589
བྷ	-10.0589
ཅིག་ཐོབ་ཅི།	-10.0595
ཁོ	-10.0601
ཚལ་ལུ་	-10.0602
གཟུགས་ཀྱི་	-10.0606
ག་དེམ་ཅིག་སྨོ	-10.061
དང་ང་	-10.0611
འཛུལ	-10.0611
བཱར་	-10.0614
དྲུང་འཚོ་ཅིག་	-10.0619
ཚད་གཞི་	-10.062
འབྲི་	-10.0622
ལམ་སྲོལ་	-10.0624
ཆརཔ་རྐྱབ་ནི་	-10.0628
སྡོད་ཅི་ག་	-10.0628
ལུ་བློ་སླབ	-10.0628
མ་སྨོ	-10.0629
▁པ་སངས་ཀྱིས་	-10.0631
ེ	-10.0633
ཅེ	-10.0633
▁ང་གིས་ཁ་ཙ་	-10.0634
དོ་འགྲན་	-10.0637
སྟེགས་	-10.0638
ཕྱི་རུའི་ལྟོ་ཟ	-10.0645
མང་རབས་ཅིག་	-10.0651
འགོར	-10.0656
སེལ་	-10.0656
ལུ་ག་ཅི་	-10.066
ཨོ་རྒྱན་	-10.0661
པ་ལུ་	-10.0668
ག་ཅི་བཟུམ་ཅིག་	-10.0668
ག་འབད་རུང་	-10.0676
བལྟ་ནི་ལུ་	-10.0677
་ཟེར་མ་ཤེས།	-10.068
བཙག་འཐུ་	-10.068
དང་ཅིག་ཁར་	-10.068
ཨ་ཕི་འབད་ནི་འདི་	-10.0682
འགྱོ་ནི་ཨིན་ན	-10.0684
སེམས་དགའ་ཡི	-10.0684
ག་ཅི་གི་དོན་ལུ་	-10.0696
ལྟོཝ་བཀྱེས	-10.0704
ཁྱོད་ཀྱི་ཆ་རོགས་	-10.0711
སོ་སོ་སྦེ་	-10.0716
དབྱངས་ཅན་	-10.0717
དགུ་	-10.0717
གཉིས་ཀྱི་བར་ན་	-10.072
འབད་དགོ	-10.0723
གྲ་སྒྲིག་འབད	-10.0726
སྔུ་ཡི།	-10.0727
ཞལ་འདེབས་	-10.0728
▁དེ་ངེ་གི་	-10.073
▁ཚེ་དབང་གིས་	-10.0732
དྲི་བ་དག་པ་ཅིག་	-10.0733
ཆོས་རྒྱུགས་ནང་	-10.0733
ཁྱད་ཆོས་	-10.0736
མོ་སྤུན་	-10.0738
དབྱངས་ཅན་གྱིས་	-10.0741
ཨ་ནི་	-10.0742
ཆུའི་	-10.0742
སྤྱི་ཟླ་བཅུ་པའི་	-10.0744
སི་གིས་	-10.0745
འཕྲོ་བརླག་	-10.0745
རྩལ་རྐྱབ་	-10.0748
འི་ནང་	-10.075
ལཱ་ནང་	-10.075
དབྱངས་	-10.0751
ཐག་བཅད་ནུག།	-10.0751
མིང་གཏམ་	-10.0751
ག་ཨིན་ན་ཅིག་	-10.0751
ལུ་མོ་	-10.0752
ཏི་རུ་ག་དེམ་ཅིག་	-10.0752
འོང་ཟེར་ང་གིས་	-10.0754
སྒྲིག	-10.0754
གཉིས་པ་	-10.0754
ཁྱབ་	-10.0754
གཞན་ལུ་	-10.0755
གཏོར་	-10.0756
ས་ལུ་	-10.0758
འབད་ས་	-10.0759
▁ང་བཅས་ཚུ་གིས་	-10.076
▁དགོངསམ་མ་ཁྲེལ་	-10.0764
་མ་ཚུགསཔ་	-10.0771
དོན་ཚན་	-10.0776
▁པདྨ་གིས་	-10.0776
བཟའ	-10.0776
ཨ་ལུ་ཅིག་	-10.0776
ཁྱབ་བསྒྲགས་	-10.0779
▁སློབ་དཔོན་གྱིས་	-10.078
ཀརྨ་དཔལ་འབྱོར་	-10.078
ཁྱོད་ཀྱིས་ཤེས་ག	-10.0781
་ཟེར་མ་མནོ།	-10.0782
▁ཁྱོད་ཀྱིས་ཁོང་	-10.0782
ཧོ་	-10.0784
ལཱ་འབད་	-10.079
སྡོད་ནི་འདི་	-10.0791
ཁབ་	-10.0795
མ་ཟ།	-10.0799
▁མ	-10.0806
▁རིན་ཆེན་	-10.0808
སྐྱོ་སྐྱོཝ་	-10.0808
ངོ་ཚ	-10.0818
དཔེ་མཛོད་ཁང་ནང་	-10.0821
▁ངེའི་ཨ་པ་	-10.0823
སྡོད་སྡོདཔ་	-10.0825
ཨཱ	-10.0828
ཁ་གསལ་རྐྱབ	-10.0828
རྫོགས་	-10.0828
མིག་ཤེལ་	-10.0829
སྡོད་དགོ།	-10.084
ཆེ་	-10.084
གཉེན་གྱི་	-10.0848
བསྟན་འཛིན་གྱི་	-10.0851
འདི་མི་	-10.0851
སུ	-10.0857
འཐོན་འགྱོ	-10.0859
བདའ་སྟེ་	-10.0866
སྒོའི་	-10.0866
འབད་ཚུགས་པ་ཅིན་	-10.0867
བདག་	-10.0875
ཉོག་བཤད་བཀོད	-10.0876
ཞུ་ཡིག་	-10.0885
▁ཨའི་	-10.0886
▁འཛམ་གླིང་འདི་	-10.0886
་ནི་འདི་ལཱ་ཁག་	-10.0895
ཆབ་གསང་	-10.09
གྱང	-10.0904
་ཚུན་ཚོད་	-10.0909
སྣུམ་འཁོར་འདི་	-10.0909
ཤེསཔ་	-10.091
ང་ལུ་ཁོང་གིས་	-10.0912
སུམ་ཅུ་	-10.0914
བཏོག	-10.0926
་རུང་ཀྲིག་ཀྲི་	-10.0928
བསྡམ	-10.0931
ཁུ་བ་	-10.0936
མཚོ་གླིང་	-10.0937
ཟེར་རུང་	-10.0937
▁ཨིན་	-10.0938
▁ཨམ་སྲུ་	-10.0943
འབད་བ་ཅིན་ང་གིས་	-10.0945
ག་དེམ་ཅིག་འགོར	-10.0949
མོ་གིས་ཨ་ཕི་དེ་	-10.095
ཚར་ག་དེམ་ཅིག་	-10.0953
་དོ་	-10.0954
ད་ལྟོ་ཚུན་ཚོད་	-10.0955
སློབ་གྲྭ་ནང་འགྱོ	-10.0959
▁ཉི་མ་གིས་ང་	-10.0959
ཁོང་གིས་ཨ་ཕི་དེ་	-10.0959
དང་ཚེ་རིང་	-10.0965
དགའ་ནི་མེད།	-10.0965
རྟགས་མ་	-10.0966
འཕྲོ་མཐུད་དེ་	-10.0971
ལུ་མི་དགའ།	-10.0972
▁ད་རིས་ཕྱི་རུ་	-10.0972
ཇོན་	-10.0978
རང་རྐྱང་	-10.0983
▁ང་ལུ་ཁྱོད་ཀྱི་	-10.0985
ནི་ལུ་	-10.0988
ཐོན་དངོས་	-10.099
བྱམས་བརྩེ་	-10.099
བདེ་	-10.0994
མ་དགའ་བས།	-10.0995
་ཚུགས་ཟེར་	-10.0997
སྨྱུ་གུ་	-10.1002
བསྡུ	-10.1006
་ཤིག།	-10.1009
ཚོགས་རྒྱན་བཙུགས	-10.1012
ཅིག	-10.1015
ཡོད་དོ་བཟུམ་	-10.1016
་ན	-10.1017
▁ང་ར་	-10.1018
རན་	-10.1022
ཨའེ་	-10.1022
ཆ་རོགས་ཅིག་	-10.1023
རང་བཞིན་གྱི་	-10.1024
དཀར་སངས་དང་པད་མ་	-10.1025
འབད་མ་ཚུགས་པས།	-10.1025
མ་འགྱོ་བས།	-10.1025
བྱ་རིམ་	-10.1026
▁ང་ནངས་པ་	-10.1028
ཁྱོད་ར་གི་	-10.1032
▁ག་ཅི་	-10.1035
མ་ཤེས་ག	-10.1036
བལྟཝ་ད་	-10.104
ཀྱི་ཐོག་ལས་	-10.104
ཨིན་མས་ག	-10.1055
འཚོལ་ཐོབ	-10.1056
ཞབས་ཏོག་ལྟེ་བ་	-10.1057
བསམ་འཆར་བཀོད	-10.1058
▁བློ་གྲོས་ཀྱིས་	-10.1061
རྩ་འགེངས	-10.1061
དམ་	-10.1063
དབང་མོ་གིས་ཁོང་	-10.1066
དབངཔོ་ངལ་སི་སི་	-10.1067
ལེན་ཡི།	-10.1068
ལུ་དགའཝ་ཨིན།	-10.1068
ཆ་རོགས་འབད་འོང	-10.1078
རྒྱ་ནག་གི་	-10.108
ད་རེས་ཀྱི་	-10.108
རྐྱང་	-10.1082
ཧཱ	-10.1084
ཚེ་སྲོག་	-10.1091
འབད་བ་ཅིན་ཁྱོད་	-10.1094
ཧེ་	-10.1095
རྒྱལ་ཁ་	-10.1097
བསྐྲོག	-10.1099
ག་ཅི་འབད་ནི་སྨོ	-10.11
ཨ་རྟག་དང་མ་འདྲཝ་	-10.1103
ལུ་དགའ་མི་	-10.1106
དང་འཁྲིལ་བ་ཅིན་	-10.1107
མདངམ་ཕྱི་རུ་	-10.1108
ཡེ་ཤུའི་	-10.1109
དང་བཙན་སྐྱོགས་	-10.1111
▁ཡ་	-10.1116
འགོ་འཛིན་	-10.1116
ཌོ	-10.1121
གཞན་དང་མ་འདྲཝ་	-10.1122
▁རིག་བཟང་འདི་	-10.1127
ཁོ་གི་དོན་ལུ་	-10.1128
་ཟེར་སླབ་	-10.1135
ངོ་རྟགས་	-10.1135
ཇོ	-10.1136
ལུ་དུས་ཚོད་	-10.1138
པ་ཅིན་	-10.114
དེ་སྦེ་ར་	-10.114
མཚོ་མཐའ་	-10.114
ལྕང་ཁ་	-10.1142
ས་སྨུག་	-10.1145
ཆུ་ཚོད་ག་དེམ་	-10.115
ནང་ཡོད།	-10.1151
དགའ་འཛོམས་	-10.1152
ནསི་	-10.1156
▁ཀརྨ་གིས་ཁྱོད་	-10.1157
ཟ་མི་	-10.1161
▁ང་གིས་བསོད་ནམས་	-10.1162
གིས་ཡང་	-10.1164
གཡུ་སྒྲོན་གྱིས་	-10.1167
ནངས་པ་དྲོ་པ་	-10.1168
འཐུ་	-10.1169
ནོ	-10.1174
རྩེད་སྟོན་	-10.1174
ངེས་ཏིག་སྦེ་	-10.1177
▁སྐལ་བཟང་	-10.1179
དབུགས་	-10.1182
ག་ཅི་སླབ་ནི་	-10.1189
དྲག་ཤོས་ཨིན།	-10.1191
ཆུ་ཚོད་༢༣༠	-10.1198
འཕྱིས་སོ་ཡི།	-10.1216
རྩེ་ནི་	-10.1217
ཙམ་ཅིག་	-10.1221
ཝོ	-10.1222
སླབ་ནི་གི་	-10.1225
ངེའི་དོན་ལུ་	-10.1228
བཏོན་ཏེ་	-10.123
▁ང་ཁྱོད་ཀྱིས་	-10.1236
ཕྱི་རུའི་	-10.1237
བག་	-10.1238
ཟམ་	-10.1242
གོང་ཅན་	-10.1244
ཧ་གོ།	-10.1244
ཇོ་བདག་	-10.1246
ནག་	-10.1247
ཡོངས་འབྲེལ་ཐོག་	-10.1248
ངལ་རངས	-10.1251
ལྟོ་བཀྱེས	-10.1252
བཟུམ་མི་མཐོང་པས།	-10.1252
སྙན་ཞུ་འདི་	-10.1255
མ་འབད་བར་	-10.1255
དབང་ཆ་	-10.1256
དཀའ་	-10.1256
བྱིན་གེ།	-10.1257
སེམས་ཤི	-10.1258
ཚུ་དགའ།	-10.1258
▁འ་ནི་	-10.1259
འཆར་གཞི་ཚུ་	-10.1261
རྒྱ་སྨུག་	-10.1262
གི་རིགས་	-10.1264
གཡོག་འདི་	-10.1265
གནམ་གྲུ་ཐང་ནང་	-10.1267
ཊའི་	-10.1269
སངས་རྒྱས་ཀྱིས་	-10.127
བསྐྱེདཔ་མས།	-10.1272
དེ་ཨིན།	-10.1275
ཟུར་ཁར་	-10.1277
མུ	-10.1277
ཁེབ་ས་	-10.1278
འཕྱིས་སུ་སྦེ་	-10.1282
པར་འདི་	-10.129
ཆ་རོགས་འབད་འོང་།	-10.129
▁རྒྱལ་ཁབ་	-10.129
སེན་ཝིཅ་	-10.1295
དེ་འབད་མི་དགོ	-10.1301
བས་	-10.1303
འགྱོ་ནི་མེད།	-10.1304
མོ་འདི་	-10.1304
ཕོ་སྐྱེས་ཅིག་	-10.1308
པད་མ་གིས་	-10.1309
ཊོམ་དང་གཅིག་ཁར་	-10.1309
ཆོས་ལུགས་	-10.1316
འཆར་	-10.1317
་སྦོ	-10.1317
དཀར་སངས་ལུ་	-10.1319
ས་ཆ་	-10.1323
གྱོན་ནུག།	-10.1328
འཐུང་	-10.1332
མོ་རང་གིས་	-10.1334
ཁ་ཕྱེ	-10.1335
ད་ལྟོ་ཚུན་	-10.1337
བྱུང	-10.1338
གྱོངས	-10.134
་པས་ཟེར་	-10.134
་དགེ	-10.1343
དཀའ་ངལ་ཅིག་	-10.1346
སྦྱང་	-10.1348
དི་	-10.135
ནཝ་མས།	-10.1352
བཅོ་ཁ་རྐྱབ	-10.1353
སྣུམ་འཁོར་གྱི་	-10.1354
སྲིད་འཛིན་	-10.1355
དོརམ་	-10.1356
འོས་འབབ་འདུག།	-10.1361
ཞན་ཁོག་	-10.1361
སླབ་འོང་ག	-10.1368
ཕྱ་སི་སི་	-10.1369
འོང་སྲིད།	-10.1371
འོག་གི་	-10.1372
འཇམ་ཏོང་ཏོ་ཨིན།	-10.1374
ཨཱསི་ཊི་ལི་ཡ་ལུ་	-10.1377
ང་བཅས་ག་ར་	-10.1379
ས་མཚམས་	-10.1379
དམིགས་ཡུལ་	-10.138
སྤྲོ་བ་འདུག།	-10.1381
ལས་ཁུངས་	-10.1383
བདུན་ཕྲག་གསུམ་	-10.1388
མནོ་དོ་བཟུམ་སྦེ་	-10.1391
རེ་བ་བསྐྱེད་དོ	-10.1393
ཅོག་ལེཊ་	-10.1395
▁ཕོ་སྐྱེས་འདི་	-10.1397
ཨིན་ཟེར་མནོ་ཡི།	-10.1402
ཕྱི་རྒྱལ་གྱི་	-10.1408
སློབ་དཔོན་གྱིས་	-10.1409
མཇུག་གི་	-10.1414
ཚེས་གྲངས་	-10.1414
▁རོ་ཁྱི་	-10.1417
ལག་ལེན་འཐབ་ཅི།	-10.1421
ཧ་ལས	-10.1422
མི་རློབས་	-10.1423
ལང་	-10.1425
ཐོ་བཀོད་འབད	-10.1425
སྒུག་སྡོད	-10.1425
བཀོད	-10.1428
རྡོ་རྗེ་གི་	-10.1429
▁ང་གིས་ང་ལུ་	-10.143
ཁེ་	-10.143
གླ་འཁོར་	-10.1436
ངེའི་ཆ་རོགས་	-10.1439
མནོ་བསམ་བཏང་ནུག།	-10.1441
འདི་ག་ར་	-10.1443
རེ་བ་མ་བསྐྱེད།	-10.1445
སྡོད་ནུག	-10.1449
མོ་རང་	-10.1451
ཐགཔ་	-10.1451
ཚ་ཏོག་ཏོ་	-10.1453
སེམས་གནས་པ་མེདཔ་	-10.1454
འུ་སྡུག་ཡི།	-10.1456
ཁྱོད་ཀྱིས་ག་ཅི་	-10.1457
▁ང་གིས་ཉི་མ་དང་	-10.1458
ཟེར་མནོཝ་མས།	-10.1466
ཝེན་	-10.1468
ཡོངས་རྫོགས་སྦེ་	-10.1469
ཨིན་པས་ག	-10.147
སྤྱི་ཟླ་བཅུ་པ་	-10.1478
ཁོ་གིས་ཨ་ཕི་དེ་	-10.1479
▁གནམ་	-10.1481
རེ་རེ་ལུ་	-10.1482
འདི་ཁར་	-10.1492
འབད་དགོཔ་སྨོ	-10.1495
▁བདེ་ཆེན་གྱིས་	-10.1495
གུ་ལུ་	-10.15
ཞབས་ཏོག་འདི་	-10.1501
དཀའ་སྡུག་	-10.1503
འགྱོཝ་ཨིན་ན	-10.1504
གོ་སྐབས་ཅིག་	-10.1505
ཏན་ཏན་	-10.1509
མཐོང་ཡི	-10.1509
གཡུས་	-10.1509
མགུ་འཐོམ་སི་སི་	-10.151
གར་དྲགས་	-10.1513
ཕཱ	-10.1515
ཅུ་	-10.1521
ག་ནི་ཡང་མིན་འདུག	-10.1523
བཏོན་ཡི།	-10.1523
དྲན་ཤེས་	-10.1524
རྒྱལ་ཁ་འཐོབ་ནི་	-10.1526
ལེ་ལཱ་	-10.1531
ཚུགས།	-10.1531
བརྩི་སྲུང་འབད	-10.1532
སྣུམ་འཁོར་བཞག་ཁང	-10.1538
▁ཀརྨ་དང་མེ་རི་	-10.154
▁ཀརྨ་གིས་རིག་	-10.154
་ཟེར་བརྟན་བརྟན་	-10.1541
འབྱུང་ཁུངས་	-10.1541
ནུས་	-10.1546
དཀོན་དྲགས་	-10.1548
དབྱངས་སྒྲོན་	-10.1548
འགྱོཝ་	-10.1549
སྐར་ཆ་	-10.1551
ཤེས་བཅུག	-10.1552
གཡིབ་	-10.1553
ཤེ	-10.1556
རྩལ་རྐྱབ་པར་འགྱོ	-10.1558
སངས་	-10.1561
▁ཉིནམ་	-10.1564
ག་དེ་སྦེ་འདུག	-10.1565
ཊུ་	-10.1565
▁ང་ཨ་ནཱི་	-10.1567
ཐུང་	-10.1567
འོས་འབབ་ཡོད།	-10.1569
མཚོན་ཆ་	-10.157
ཕྲང་སྟེ་	-10.157
ཁྲི་	-10.157
ང་ལུ་ཆ་རོགས་འབད	-10.1572
སྦེ་ཨིན་མས།	-10.1573
འཛམ་གླིང་གི་	-10.1573
འགྱོ་མི་ཚུགས།	-10.1578
ཤུལ་མ་གི་	-10.1578
▁ཨེ	-10.1583
་ཚུགས་མི་	-10.1594
དགའ་ནི་	-10.1599
▁འཕྲལ་འཕྲལ་	-10.16
་མ་བཅུག	-10.1601
ཨིན་མས་	-10.1602
བཟོ་ནིའི་	-10.1602
ཀྲ	-10.1606
▁དཔལ་འབྱོར་གྱིས་	-10.1606
ང་ལུ་མོ་གིས་	-10.1607
ཁོང་རང་གིས་	-10.1608
གཅིག་འདི་	-10.1612
འགྱོཝ་སྨོ	-10.162
བཟང་པོ་གིས་	-10.162
ཟེ	-10.1626
སྲིད་	-10.1628
རེལ་ལི་འདི་	-10.1628
རྒྱགས་པ་ལ་	-10.1632
▁དྲུང་འཚོ་གིས་	-10.1635
ཕྱོགས་ལུ་	-10.1636
ལུ་འགྱུར	-10.1636
ས་གཞི་	-10.1638
ལྷོང	-10.1638
རྒན་རྒས་	-10.1638
སྡེ་ཚན་འདི་	-10.1643
རྩལ་རྐྱབ	-10.1644
དཀྲོགས	-10.1646
གནོད་སྐྱོན་	-10.1651
རྩེདམོ་རྩེ་མི་	-10.1653
དགོངསམ་ཞུ	-10.1655
ལུ་ཏི་རུ་	-10.1655
མས་ཟེར་མནོཝ་མས།	-10.166
ཐལཝ་	-10.1662
▁ཁྱོད་ཀྱིས་ཁྱོད་	-10.1663
ནཱ་ཕར་ཚུར་	-10.1677
འབད་འབདཝ་འོང	-10.1684
དཔའ་	-10.1687
གཙུག་ལག་	-10.169
ལོ་བཅུ་ཐམ་	-10.169
ཀཱར་ནང་	-10.169
མཇུག་ར་	-10.1693
ཅིག་དང་	-10.1693
མོ་ར་གི་	-10.1707
དུས་ཅི་	-10.1707
▁འདི་ཚུ་ག་ར་	-10.1709
དཔའ་བོ་	-10.1709
ཅིག་མེན་པས།	-10.1715
མཱ་	-10.1715
སྐབས་ལུ་	-10.1716
▁ཀརྨ་གིས་ང་བཅས་	-10.1718
བེསི་བཱོལ་	-10.1718
་དོ་ག་	-10.172
་པས་ཟེར་མནོཝ་མས།	-10.1726
དེ་ནང་ལུ་	-10.1726
གསལ་བསྒྲགས་འབད	-10.1729
སྣང་མེད་	-10.1731
ཞལ་འཛོམས་འདི་	-10.1731
འབད་མ་ཚུགས	-10.1731
འཁྱེག་ཟས་	-10.1732
ུན་	-10.1736
འགོ་དང་པ་ཨིན།	-10.1736
ལུ་སྤྲོ་བ་	-10.1738
ཆང་ཁང་	-10.1738
དཔལ་འབྱོར་གྱི་	-10.1739
འཆར་གཞི་བརྩམ་	-10.174
འོང་དོ།	-10.174
་ཁྱོད་ཀྱིས་	-10.1743
དབྱིབས་	-10.1743
▁ཀརྨ་དང་པད་མོ་	-10.1757
ཝ་ཨིན་པས།	-10.176
་ཟེར་མནོཝ་མས	-10.1761
གུ་ལས་	-10.1763
▁པདྨ་	-10.1764
ར་འདི་	-10.1765
འདམ་	-10.1767
་པའི་རེ་བ་ཡོད།	-10.1768
སྔུ་ནི་	-10.177
ངོ་ཤེས་ག	-10.1772
རྒྱུད་	-10.1775
མས	-10.1775
ཉེས་པ་	-10.1778
དེ་ག་ཅི་སྦེ་འབད	-10.1779
ལཱ་གཡོག་འདི་	-10.178
འཚོལ་ཞིབ་འབད	-10.178
ལུ་བལྟ།	-10.1786
ཏི་རུ་སྤྲོད	-10.1791
་སྡོད་ཡི།	-10.1798
▁སྟེ་	-10.1802
ང་བཅས་གཅིག་ཁར་	-10.1805
ཁ་སླབ	-10.1811
ལས་ཡང་	-10.1811
གི་རྒྱབ་ཁར་	-10.1813
▁དེ་བསྒང་	-10.1815
རཊ་	-10.1816
མཐོང་མི་འདི་	-10.1816
ཁྱོད་ར་ལུ་	-10.1816
འབད་བའི་སྐབས་	-10.1819
རྒྱལ་ཁབ་ནང་ལུ་	-10.182
ཕྱག་	-10.1834
ཡུ	-10.1835
ཅན་སྦེ་	-10.1836
བརྩེ་བ་	-10.1837
སྦོམ་ཤོས་ཅིག་	-10.1837
འཐོན་ནི་	-10.1838
▁གནས་སྟངས་འདི་	-10.1845
བཅོ	-10.1852
དང་གཅིག་ཁར་སྡོད	-10.1853
ཐ	-10.1858
ནང་འཛུལ་	-10.1858
གྲོས་སྟོན་	-10.1872
ཕྱེད་	-10.1876
་མི་གི་	-10.1877
ཤུལ་མམ་གྱི་	-10.188
འགྲུབ	-10.1884
་ཚུ་	-10.1885
▁ཁོང་ཆ་ཁྱབ་ཀྱིས་	-10.1885
སྐྱོང་	-10.1886
མི་སྡོད།	-10.1891
མྱོང	-10.1891
འོ	-10.1892
འཇའ་རིསམོ་འདུག།	-10.1893
འབད་དགོ་པའི་	-10.1894
▁ག་ཅི་སྦེ་	-10.1898
ལས་མངམ་	-10.19
མཐུན་ལམ་	-10.1907
དུས་ཡུན་ཐུང་ཀུ་	-10.191
ཕྱི་ཁར་འགྱོ་ནི་	-10.191
་སྟེ་འདུག།	-10.1915
ཐ་ལི་	-10.1916
ཕོརཔ་	-10.1917
ཚར་གཅིག་གུར་	-10.192
ཚུགས་	-10.1921
འཕྲིན་ཡིག་	-10.1924
གསལ་ཏོག་ཏོ་སྦེ་	-10.1926
བཟའ་ཚང་གི་	-10.1926
དགའ་བས	-10.193
འབད་འོང	-10.1931
དབངཔོ་ངལ	-10.1937
གཡུས་ཁའི་	-10.1938
སྐྱེལ་	-10.194
སྟོན།	-10.1941
ཚོར་ཉམས་	-10.1945
ཧི	-10.1948
གདམ་ཁ་རྐྱབ།	-10.1948
ཁག་ཆེ་བའི་	-10.1952
སྡོདཔ་ཨིན་ན	-10.1957
དེ་འབད་དགོ་མནོ	-10.196
ཤི་སོ་ཡི།	-10.1963
གསད་ནི་	-10.1969
ཁས་ལེན	-10.197
ལུ་ཁོང་གིས་	-10.1971
དབྱེ་ཞིབ་	-10.1976
ནང	-10.1976
ཕྱིར་	-10.1979
རྩོམ་	-10.1981
ཁང་མིག་ནང་ལུ་	-10.1982
དང་ཕྱད	-10.1983
ལེ་ལ་གི་	-10.1987
བྱ་ངན་	-10.1988
ལུས	-10.1991
ཁྲོམ་འདི་	-10.1994
ལས་ལྷག་པའི་	-10.1995
ནམ་སྨོ	-10.1999
▁ཁོ་གིས་ཁོ་	-10.1999
ཐོབ་ནི་	-10.1999
▁ང་གིས་ག་ཅི་ཅིག་	-10.2002
སྟོང་ཕྲག་	-10.2003
དགོ་ནི་མས།	-10.2004
སྐར་མ་བཅུ་ཐམ་	-10.201
རྩོམ་པ་པོ་	-10.2013
མ་བཏང་།	-10.2013
རྒྱལ་མཚན་གྱིས་	-10.2014
མ་ལས་	-10.2017
ངོ་རྒོལ་	-10.2026
▁ཤེས་རབ་ཀྱིས་	-10.2026
ཏོག་	-10.2026
▁སངས་རྒྱས་དང་	-10.203
ཏི་	-10.2031
སྡོད་ཁྱིམ་	-10.2032
བཀག་མི་ཚུགས།	-10.2033
ཉུང་ཤོས་	-10.2033
འགྲུལ་སྐོར་	-10.2035
རྐྱེན་ངན་	-10.2036
་ནུག་ཟེར་མནོ་ཡི།	-10.2037
ཚིགས་	-10.2039
ཝར་	-10.2041
བཟོ་ནི་གི་	-10.2041
རེ་ཅིག་སྐབས་	-10.2042
འབག་སྟེ་	-10.2044
ཀརྨ་དང་འཆི་མེད་	-10.2046
ཨིན་མི་འདི་	-10.2046
མི་ག་གིས་ཡང་	-10.2046
དབྱེ་ཞིབ་འབད	-10.2047
འཛོལ་ཏེ་	-10.2052
་པ་ཅིན་ང་གིས་	-10.2052
གླུ་གཞས་	-10.2054
ཐང་ཆད	-10.2059
ཀཱར་གྱི་	-10.2059
ཕུལ	-10.206
བྱམས་བརྩེ་ཅན་	-10.2061
གི་ཐོག་ལུ་	-10.2061
་ཟེར་དྲིས་ནུག།	-10.2061
▁བུཚ་འདི་	-10.2063
ལོག	-10.2063
ན་གྱིས་	-10.2066
ཙིགཔ་ཟ་སྟེ་	-10.2074
༥༠༠	-10.2078
ཡིག་ཆ་ཚུ་	-10.2079
ག་ར་ནང་	-10.2079
འགྲེམས་རྟགས་	-10.2081
བཙན་བཅོལ་	-10.2089
ཀརྨ་ལུ་མོ་གིས་	-10.2089
ཧེ	-10.2093
གཡོ་	-10.2093
དངུལ་ཀྲམ་	-10.2095
▁འཕྲིན་ལས་ཀྱིས་	-10.2097
བརྒལ	-10.21
▁ཁོང་གིས་ང་	-10.21
མཐོང་མས་ག	-10.2102
འཕུ	-10.2103
▁ཉི་མ་གིས་རིན་	-10.2105
མཁས་པ་	-10.2107
མཁོ་མངག་འབད	-10.2109
གནམ་བྱཱར་གྱི་	-10.211
བློ་འགྱོད་བསྐྱེད	-10.2112
ག་ཅི་སླབ་ཨིན་ན་	-10.212
འཛུལ་ཞུགས་	-10.212
འགྲེལ་བཤད་	-10.2121
▁ཆོས་སྐྱིད་	-10.2122
སླབ་ཚུགས	-10.2125
སྦུལ་	-10.2133
བཞེས་སྒོ་ཟ	-10.2135
སྡོད་པའི་	-10.2136
ག་ཅི་འབད་དོ་ག་	-10.2137
ལུ་ཉན	-10.2137
ཁོ་གི་སྐོར་ལས་	-10.2138
དཀྲོག	-10.2142
རཱ་	-10.2143
མགུ་སྐོར་རྐྱབ	-10.2144
དམག་འཁྲུག་	-10.2146
▁ཨ་ནཱི་དཔེ་དེབ་	-10.2147
ཡོ	-10.215
ཀེན་	-10.2154
རིན་ཐང་ཅན་	-10.2156
ན་ནུག།	-10.2158
འགྱོ་འགྱོཝ་འོང་།	-10.2158
འབད་ཚུགས་པའི་	-10.2161
ཤཱ	-10.2162
བས།	-10.2163
མིན་འདུག་ག	-10.2164
ལཱ་འབད་ནི་ལུ་	-10.2165
རྒསཔ་	-10.2165
དྲོ	-10.2169
མངར་ཟས་	-10.2173
འཚོལ་མི་	-10.2179
ལྷ	-10.218
ཁྱོད་ཀྱིས་ཨ་ནཱི་	-10.2181
མདོ་ཆེན་	-10.2186
ལྷག།	-10.2186
མ་ལྷོད།	-10.2186
ཅིག་ཨིན་པས	-10.2187
ད་རུང་ཡང་	-10.2188
མ་གིས་	-10.2188
ཕབ	-10.2191
ལྟཝ་ད་	-10.2193
སེརཔོ་	-10.2195
བསྟུན་གྲོས་འབད	-10.2197
▁ང་གིས་དོན་ལས་ར་	-10.22
དང་ལྡན་པའི་	-10.2202
སྡོད་སར་	-10.2203
མཐོང་ནི་	-10.2204
རྒྱལ་པོ་གིས་	-10.2207
▁བྱ་	-10.2212
ཕེརནཆི་	-10.2213
མཁོ་	-10.2217
ཀུན་ལེགས་	-10.2218
གྲོལ་	-10.2219
▁བཙན་སྐྱོགས་འདི་	-10.2222
དཔ་	-10.2223
སློབ་དཔོན་ཅིག་	-10.2223
སོ་ཡི།	-10.2224
ཐོབ་ཅི་ག	-10.2225
འདི་ཁོ་གིས་	-10.2229
མ་དགའ	-10.2229
བུཚུ་	-10.2231
▁ང་ཁ་ཙ་	-10.2232
ལུ་ཡིད་ཆེས་	-10.2237
བཟུང་ཡི།	-10.2239
སྟག་ཚེར་མེ་ཏོག་	-10.2239
བཟོ་དགོ།	-10.2241
རྒྱང་མཐོང་ནང་	-10.2241
་མ་ཚུགས	-10.2244
ཡོད་ནི་འདི་གིས་	-10.2244
ཁྱིམ་ནང་སྡོད	-10.2252
▁གློག་བརྙན་འདི་	-10.2253
ཇ་པཱན་	-10.2254
་དེ་ལས་	-10.2256
མིག་ཆུ་	-10.2261
ཁ་སྐོང་བཀལ	-10.2261
འགན་	-10.2263
མནོ་བསམ་བཏང་ཡི	-10.2263
བསྡུ་ལེན་	-10.2266
ཨ་རྟག་འབད་བ་ཅིན་	-10.2269
མཉམ་ཆུང་	-10.2271
གྲོས་བསྡུར་འབད	-10.2272
ཡོངས་འབྲེལ་གྱི་	-10.2273
ཕེ	-10.2276
ལོ་ག་དེམ་ཅིག་	-10.2278
བཏུབ་ག	-10.228
དུས་དེབ་	-10.2282
ས་ཁོངས་འདི་	-10.2283
ནགས་ཚལ་	-10.2284
གསརཔ་ཚུ་	-10.2285
འདི་ཚུ་ག་ར་	-10.2294
རྗོད་ཚིག་	-10.2295
▁ཁོ་གིས་ཁོ་ར་	-10.2295
ལོ་དག་པ་ཅིག་	-10.2298
ཨ་ཕར་	-10.2302
རྣམ་རྒྱལ་གྱིས་	-10.2302
འདི་ཧེ་མ་ལས་	-10.2303
་མ་དབྱངས་སྐྱིད་	-10.2303
ཀླདཔ་	-10.2305
འགོ་འདྲེན་འཐབ་	-10.2307
ལྷག་སྟེ་	-10.2309
བཟུང་ནུག།	-10.231
ཨ་ནཱ་	-10.2313
དགའ་ཤོས་ག་ཅི་སྨོ	-10.2313
▁བཞེས་སྒོ་	-10.2316
སྣང་དག་བསྐྱེད	-10.2316
ཨརཝ་	-10.2318
༢༤	-10.2321
བཱསི་ནང་	-10.2322
འདི་ལག་ལེན་འཐབ	-10.2322
▁སྨིན་དྲུག་	-10.2323
ལྷོད་ནི་	-10.2323
བརྡ་སྤྲོད་	-10.2323
འབད་དགོ་མི་	-10.2324
བརྒྱུད་འཕྲིན་ཨང་	-10.2324
ཆེ	-10.2328
འཕྲོག་བཅོམ་འབད	-10.2334
་ད་ནུག།	-10.2337
རིངམོ་འདུག།	-10.234
སྐོར་ལས་ཚ་གྱང་ལང	-10.2347
འགྱོ་ནི་སྦེ་	-10.235
▁སློབ་ཕྲུག་ཚུ་	-10.2364
▁ཚེ་རིང་དབང་མོ་	-10.2365
ལེནཌ་	-10.2368
་པས་ག	-10.2368
དབང་འདུས་	-10.2369
ན་ན	-10.237
འགྲུལ་འཁོར་	-10.237
གིས་ང་བཅས་	-10.2374
་མི་གིས་	-10.2376
ཁང་གླ་	-10.2377
གཉེན་རྐྱབ་	-10.2377
▁ཁྱོད་ཀྱིས་ངེའི་	-10.2378
ཁ་འཆམ	-10.238
གསི་	-10.2381
ཁྱོད་དང་	-10.2384
བྲིས	-10.2387
ང་བཅས་ར་	-10.2388
འགྱོ་འོང་ག	-10.239
རྨ་བཏོན	-10.2392
▁གནག་མདོག་གིས་	-10.2394
ལག་ངར་	-10.2394
་མི་དེ་	-10.2395
འཐིང་གཞི་	-10.2395
་སར་མཐོང་ཅི།	-10.2402
སེམས་ཅན་ཚུ་	-10.2405
མནོ་བསམ་གཏང་དོ།	-10.2406
འདིའི་	-10.2406
ཧོནམ་	-10.2408
འདྲོགས་ནུག།	-10.2414
བཟོ་ནིའི་དོན་ལུ་	-10.2415
འགྱོ་དགོཔ་སྦེ་	-10.2421
▁བ	-10.2423
རྒྱུགས་	-10.2424
སྡོད་ནུག་ཟེར་	-10.2425
འོང་དགོཔ་	-10.2425
ཧ་ཅང་	-10.2426
ཨ་མི་རི་ཀ་ལུ་	-10.2427
རོགས་རམ་	-10.2435
་ཅི	-10.2439
བློ་འདོད་ཡོད་ག	-10.244
སྡོད་གནས་	-10.2441
འཁྱིད་	-10.2444
་ཨིན་རུང་	-10.2446
༨༠	-10.2447
དུས་རྒྱུན་	-10.2448
མདོག་	-10.2448
རྒྱས་	-10.2449
ལྷབ་ཨིན།	-10.2452
ཧིང་སངས་ས་	-10.2452
ག་ཅི་ཡོད	-10.2453
༣༠༠	-10.2455
ཝའི་	-10.2456
ག་དེ་སྦེ་ཡོད	-10.2462
འབད་མི་ཚུགས་པས།	-10.2462
རྡོ་རྗེ་དབང་མོ་	-10.2463
ཚུ་ཡོད།	-10.2464
ཕྱི	-10.2466
ཧ་ཅང་གི་	-10.2467
ཐོབ་སྟེ་	-10.2469
སྤྱ	-10.2476
ཆ་འཇོག་	-10.2477
སེན་	-10.248
མིན་ནུག།	-10.2481
བཟོ་ནི་འདི་	-10.2484
ནང་འཛུལ	-10.2485
ཤོབ་རྐྱབ	-10.2486
འབདཝ་ཨིན་ན་	-10.2487
བལྟ་མི་	-10.2492
ཅོག་	-10.2494
ཚོགས་སྡེ་	-10.2494
བསླབ་བྱ་བྱིན་ཡི།	-10.2496
ཁ་སླབ་ནི་	-10.2496
▁ཀརྨ་གིས་ཁོ་ལུ་	-10.2499
སོང་	-10.2501
འོག་ཐོག་ལུ་	-10.2502
བཀྲམ་སྤེལ་	-10.2502
ཧ་མ་གོ་བས།	-10.2503
དར་ཚི་	-10.2504
འུ་སྡུག་ནུག།	-10.2504
བསྡོམས་	-10.2505
ལྟོ་ཟ	-10.2508
ཀུ་ཀི་	-10.2508
གང་རུང་	-10.251
▁ཨོ་	-10.251
ཡོད་ཟེར་སླབ་དེས།	-10.2512
མེདཔ་གཏང	-10.2514
གིས་ཨ་ཕི་འདི་	-10.2516
བགོ་བཤའ་རྐྱབ	-10.2516
གཅིག་ལུ་	-10.2518
ནཱི་	-10.2521
འདི་ལོག་	-10.2526
ཀཱན་	-10.2527
ལོག་འཐོན་འོང་།	-10.253
ལཱ་འབད་བར་	-10.253
བརྩི་མཐོང་	-10.2533
ཚུདཔ་ཨིན།	-10.2534
སང་ཕོད་	-10.2535
ཞ	-10.254
གཉིསཔོ་ཆ་ར་	-10.2541
ཁག་ཆེཝ་	-10.2543
་དགོ	-10.2544
སྐྱེས་ནུག།	-10.2545
རྒྱ་མཚོ་གིས་	-10.2546
སྙན་ཆའི་	-10.2548
ཆོས་སྐྱིད་	-10.2551
རྣམ་འགྱུར་སྟོན	-10.2555
བརྐྱབ	-10.256
མེད་མི་འདི་	-10.2562
▁ང་གིས་ཤེས་	-10.2563
ངེ་	-10.2564
ཕྲང་	-10.2564
ཉལ་ཡི།	-10.2566
ཆ་རོགས་འབད་གནང	-10.2567
ཏི་རུ་ཨ་ཙི་ཅིག་	-10.2567
་རུང་དྲག་ནུག	-10.2569
ཉིན་མའི་ལྟོ་ཟ	-10.257
གནས་ཚུལ་འདི་	-10.2571
མཛེས་	-10.2573
སྐོར་ལས་བློ་སླབ	-10.2574
མངའ་སྡེ་	-10.2576
བཱོསི་ཊཱོན་ནང་	-10.2577
ཞུ་	-10.2583
སྦེ	-10.2583
མནོ་བསམ་གཏངམ་	-10.2583
ཧྲིལ་བུམ་	-10.2583
▁བཀྲ་ཤིས་དང་	-10.2584
ཨིནམ་ང་གིས་ཤེས།	-10.2584
གྱུར་	-10.2585
▁ང་གིས་སེངྒེ་	-10.2586
རྩེདམོ་འདི་	-10.2586
འགྱོ་དགོ་མ་མནོ	-10.2587
བསྡམ་	-10.2587
མ་གོ།	-10.259
མི་ངོ་	-10.2591
རང་རྐྱང་སྦེ་	-10.2591
གོ་ཡི་ག	-10.2591
རིང་ཚད་	-10.2592
དྲི་བ་དྲིས་ལན་	-10.2592
རྫས་བམ་	-10.2593
ཅོག་འཐདཔ་སྦེ་	-10.2593
གི་ལཱ་	-10.2595
མཐུད་	-10.2595
རྩ་འགེངས་ཏེ་	-10.2595
འཚོལ་ཏེ་	-10.2597
ཀ་གིས་	-10.2599
ཁྲིམས་འགལ་གྱི་	-10.26
ལན་རྐྱབ	-10.2604
བསྐྱེད་དོ།	-10.2605
▁དེ་ནང་ལུ་	-10.2605
སྡོད་ཡི་ཟེར་	-10.2608
ངལ་གསོའི་སྐབས་	-10.2608
་ཚུགས་ནུག།	-10.2609
གསང་ཡིག་	-10.2617
ལེན་ནུག།	-10.2618
འདི་ར་	-10.262
འབྲི་ནི་	-10.2621
རྒྱ	-10.2622
དུས་ཨ་རྟག་ར་	-10.2627
▁རེལ་ལི་འདི་	-10.2628
་དགོ་མནོ་བ་ཅིན་	-10.2628
བློ་སྟོབས་	-10.263
ུག་	-10.2631
ཚུ་དང་	-10.2639
ཉི་མ་དང་རིག་	-10.2644
བརྗོད་	-10.2647
འཕྲལ་མགྱོགས་ར་	-10.2649
བུ་རོགས་	-10.265
དེམ་ཅིག་ར་	-10.2653
ི་མེད་གསལ་སྒྲོན་	-10.2653
བློ་མ་སླབ།	-10.2654
ངེ་གི་ཨ་པ་	-10.2659
བུམོ་ཅིག་	-10.2661
རྣམ་རྟོག་ལངས	-10.2663
▁གནས་ཚུལ་	-10.2665
མང་སུ་སྦེ་	-10.2669
རྙིངམ་འདི་	-10.2675
ང་ལུ་སླབ།	-10.2675
ང་ཨིན།	-10.2678
▁ངེའི་ཨ་པ་གིས་	-10.2679
དགའ་ཏོག་ཏོ་ཅིག་	-10.2679
འཛོལ་	-10.2684
ཧ་ལས་སི་སི་ཅིག་	-10.2684
ལུང་ཕྱོགས་	-10.2684
ལག་ཆས་	-10.2685
སུན་ཁག་ཁ་	-10.2687
བཏགས	-10.2688
དཔལ་འབྱོར་ལུ་ཁོ	-10.269
འདི་ང་	-10.2691
▁ང་གིས་རྡོ་རྗེ་	-10.2691
སེངྒེ་ལུ་	-10.2692
གླིང་ག་	-10.2692
འཆར་གཞི་མ་བརྩམ	-10.2694
བཟའ་གྲོགས་	-10.2699
ཁུར་ཆ་	-10.2701
འབུད	-10.2707
འབད་མི་ཚུགས	-10.2708
སླབ་མི་ལུ་	-10.2712
ཉལ་བར་	-10.2714
འདྲོག་ནུག།	-10.2714
ཉལ་ཁྲི་གུར་	-10.2715
་ནི་གི་རེ་བ་	-10.2719
་མི་འདི་ང་	-10.2722
▁ལེ་ལ་འདི་	-10.2727
འབྱུང་འོང་།	-10.2728
འཛོལ་བ་ཨིན།	-10.2738
ཅིག་ལས་	-10.2745
ཚོང་སྒྱུར་	-10.2746
འདི་ལོག་སྟེ་	-10.2747
བང་རྒྱུག་	-10.275
སི་འདི་	-10.2754
འོངས་ནུག།	-10.2756
ཨཱསི་ཊ་ལི་ཡ་ལུ་	-10.2757
མནོ་བསམ་བཏང་	-10.2758
ཁྱིམ་ཐོག་	-10.2759
ལན་འདི་	-10.2759
་ཚུགསཔ་ཅིག་	-10.276
ཁོ་ར་ལུ་	-10.2762
ཅོག་ཙེ་	-10.2762
རྨ་བཏོན་	-10.2763
▁སྒྲོལ་མ་	-10.2764
▁ཚེ་རིང་འདི་	-10.2765
བསྐྱེད་ནུག།	-10.2767
དགའ་རོགས་	-10.277
ཐབ་ཚང་	-10.2772
ཉེས་བཙུགས་	-10.2772
གསོག་འཇོག་	-10.2775
རྫུས་མ་	-10.2775
གསལ་རི་རི་སྦེ་	-10.2777
ཟས་སྟོན་ལུ་	-10.2778
དགའཝ་	-10.2782
སྐྱེད་	-10.2782
འདི་འཕྲོ་ལས་ར་	-10.2788
ག་ཅི་སླབ་ཅི་ག་	-10.2794
ལཱ་གི་	-10.2801
བཞག་སྟེ་	-10.2804
ཡིག་ཚང་འདི་	-10.2805
ཤེས་རབ་	-10.2806
གླུ་སྟོན་	-10.281
ཞབས་ཏོག་ཚུ་	-10.281
མི་ཚུ་གི་	-10.2812
▁འཇིགས་མེད་	-10.2821
ནོར་བུ་	-10.2828
བཤད་པ་རྐྱབ	-10.2831
དམིགས་དོན་	-10.2835
▁རྡོ་རྗེ་གིས་དེ་	-10.2835
ཤེས་དགོ།	-10.2835
▁ཤིང་	-10.2835
▁ངོ་མ་འབད་བ་ཅིན་	-10.2838
གསལ་སྟོན་	-10.2839
རྩུབ་སྤྱོད་	-10.284
ལུ་ཁོ་གི་	-10.2842
་ཟེར་ཁྱོད་ཀྱིས་	-10.2844
ས་ཁར་སྡོད	-10.285
བར	-10.2853
ཡལ་	-10.2856
འོང་དེས།	-10.2859
▁ང་གིས་ཕེརེནཆི་	-10.286
ཙིགཔ་ཟ	-10.2862
སྦྱང་བ་འབད	-10.2864
▁ཁྱོད་ང་བཅས་	-10.2864
སྦྱར་	-10.2867
བསྐྱལ་	-10.2868
བློ་ཕམ་	-10.2869
ཀེ་བ་	-10.2871
བཞག་དགོ།	-10.2872
▁ཁྱིམ་	-10.2873
ཅིག་བཟོ་ཡི།	-10.2876
ལོག་སྤྲོད	-10.2878
ལག་ཁྱེར་	-10.2879
གནད་	-10.2882
ལས་འཐོན་འགྱོ	-10.2883
འབད་མི་དགོ	-10.2886
ར་ཡོད།	-10.2886
སྟོན་མི་	-10.2896
༤༥	-10.2896
མཛོད་	-10.2897
དེ་བཟུམ་གྱི་	-10.2901
སྦེ་སྡོད།	-10.2905
ཨིན་རུང་ང་གིས་	-10.2909
ཡོད་ཟེར་ཤེས།	-10.2911
ཇཱ	-10.2911
་སར་མཐོང་ཡི།	-10.2912
ངོ་སྤྲོད་འབད	-10.2912
བསད་ནུག	-10.2914
རུ	-10.2915
མལ་ཆ་	-10.2915
ཀུན་དགའ་	-10.2916
ཨ་རྒས་	-10.2917
འཕྲལ་འཕྲལ་སྐབས་	-10.2917
ཁ་གསལ་ཚུ་	-10.2921
ཕམ	-10.2921
དངུལ་རྐྱང་	-10.2926
མི་འབད	-10.2927
དྲི་བ་འདི་	-10.2929
གྱི་ཅུ་	-10.2932
སྤྲོ་བ་བསྐྱེད	-10.2932
བློ་གཏད་ཚུགས	-10.2938
ཁྱིམ་ནང་ལས་	-10.2938
འདི་མི་དགའ་བས།	-10.2939
ཁག་ཆེ།	-10.2945
ལཱ་འབད་དེ་	-10.2945
གཞུང་གི་	-10.2946
▁ཁོང་གིས་ང་བཅས་	-10.2946
པ་ཨིན་པས།	-10.2947
བརྙན་	-10.295
མེདཔ་ཐལ	-10.2951
མ་འབད	-10.2951
▁གནས་སྟངས་	-10.2951
གྲལ་གཏོགས་	-10.2956
འདི་ག་སྨོ	-10.2957
འགྱོ་མི་འདི་	-10.2958
ང་གིས་མོ་	-10.2961
ཧུ	-10.2962
འབད་བའི་བསྒང་	-10.2964
འགྱོ་ནི་ཡོད།	-10.2966
ཧ་ལས་ལསཔ་བཟུམ་	-10.2967
འབད་མི་དགོ།	-10.2968
▁ཇ་པཱན་གྱི་	-10.2968
བུམོ་ཚུ་	-10.2969
རབ་	-10.297
བྲིས་	-10.2973
དང་རིན་འཛིན་	-10.2973
ཐེ་ཚོམ་	-10.2974
ཁྲམ་	-10.2981
ལྷམ་ཚུ་	-10.2982
རྒྱབ་སྣོན་འབད	-10.2983
དཔག	-10.2987
འཐོབ་ཅི།	-10.2996
ཕྲལ་ར་	-10.2998
མི་གཅིག་	-10.3001
་ཚུན་	-10.3005
གཙུག་ལག་སློབ་གྲྭ	-10.3005
▁ཧེ་མ་	-10.3007
ཨིན་ན་མ་ཤེས	-10.3007
སྒོ་ཅུ་	-10.3009
གདོང་ལེན་འབད	-10.3013
མས་ཟེར་	-10.3015
་བཅུགཔ་ཨིན།	-10.3019
སྦེ་སྡོད་ཅི	-10.3021
བཀལ་	-10.3024
སྒོ་ཅུང་	-10.3026
འཆར་དངུལ་	-10.3028
རྐྱབ་མས།	-10.3028
གཟུགས་རིངམོ་	-10.3034
བསྡུ་	-10.3035
ཇེ་ཀེཊ་	-10.3036
ཁོ་གི་མིང་	-10.3037
▁སྒོ་	-10.3037
མི་མནོ་བས	-10.304
བཅུད་	-10.3043
་མི་ཚུགས་ནི་མས།	-10.3052
ཨ་ལུ་འདི་	-10.3053
ནང་ཆས་	-10.3055
གཅིག་གི་	-10.3055
རྒྱགས་ཏོ་རིལ་རི་	-10.3056
མེན་ན	-10.3063
མི་རྐྱབ།	-10.3064
རྒྱལ་པོ་	-10.3069
སེམས་དགའ་	-10.3073
་མནོ་ཡི།	-10.3074
ཐོབ་ཅི	-10.3076
གྲོས་ཆོད་	-10.3078
་མ་	-10.308
སྐྱོང	-10.3084
ཐལ	-10.3086
མིང་ཚིག་	-10.3086
▁བུམོ་	-10.3088
ལ་ལུ་ཅིག་གིས་	-10.3092
འཕེལ་	-10.3092
སྐེ་རྒྱན་	-10.3093
ཀྱིས་ཨ་ཕི་དེ་	-10.3094
ཕུད	-10.3097
༣༥	-10.3099
འདི་ནཱ་ལུ་	-10.31
རིལ་	-10.3104
མི་སེར་	-10.3105
ཀུན་བཟང་	-10.3105
བརྩེ་གདུང་	-10.3109
▁སྡེ་ཚན་	-10.311
▁ཁྱོད་ད་ལྟོ་	-10.3117
ལེགས་ཤོམ་ཅིག་ཨིན	-10.3118
་ཡོདཔ་	-10.312
▁ཁ་གསལ་	-10.312
འབད་ཚུགས་མི་	-10.3124
ག་ཅི་འབད་འོང་	-10.313
ཨིང་ལིཤ་གི་	-10.313
འབད་ཚུགས་ནི་	-10.3131
འོངམ་ད་	-10.3135
▁འཇིགས་མེད་དང་	-10.3138
སི་ལུ་	-10.3139
ལངམ་	-10.3139
མཐོངམ་ཨིན།	-10.3141
སྡོད་མི་འདི་	-10.3143
གི་པར་	-10.3144
ག།	-10.3146
གནམ་དགུན་ལུ་	-10.3148
ཅིག་གནང་།	-10.3151
སེམས་ཤུགས་བསྐྱེད	-10.3153
བླུགས	-10.3154
འཇམ་ཏོག་ཏོ་	-10.3155
ལྷ་ཁང་	-10.3155
འཕྱིས་ཏེ་	-10.3159
འཚོལ་དོ།	-10.316
སྐལ་	-10.3161
་སྟེ་སྡོད་ནུག།	-10.3167
་ནི་སྦེ་ཨིན།	-10.3169
▁ང་གིས་ལྟཝ་ད་	-10.317
གྱིས་ང་ལུ་	-10.3173
འགྲུལ་སྐྱོད་	-10.3175
ཨོསི་ཊེ་ལི་ཡ་ལུ་	-10.3176
ཨ་ཕི་དེ་ཁོང་གིས་	-10.3178
བཙུགས་ཅི།	-10.318
རིག་པའི་	-10.318
འགྱུར	-10.3181
▁ཆརཔ་	-10.3181
རྩེདམོ་རྩེ་ནི་	-10.3181
་མེན་པས་ག	-10.3184
་བའི་སྐབས་ལུ་	-10.3188
བལྟ་བ་ཅིན་	-10.3188
འཕྲིན་ལས་	-10.3192
▁ལཱ་འདི་	-10.3197
འོང་དགོཔ་ཨིན།	-10.3197
རཱོ	-10.3202
ང་གིས་ག་ཅི་	-10.3205
འཕུར་	-10.3209
▁ངེ་གི་ཨ་པ་གིས་	-10.321
དེ་འབད་མི་ཚུགས	-10.321
སྐྱེད	-10.3211
བརྒྱུད་སྐུལ་	-10.3213
སྐལ་བཟང་	-10.3216
རྩ	-10.3219
བློ་ཕམ	-10.322
་དགོཔ་སྡོད་ནུག།	-10.322
ཅིག་འཚོལ	-10.3221
ཆུ་ནང་	-10.3229
པདྨ་ལུ་	-10.3229
འགན་ལེན་	-10.323
▁ང་ཁྱོད་དང་	-10.3231
བཱོསི་ཊོན་	-10.3233
དམག་རྩེད་	-10.3234
་ཟེར་མ་སླབ།	-10.3234
གེ་ར་	-10.3236
བཟུམ་མའི་	-10.3237
མ་བསྐྱེད།	-10.3238
ལེགས་ཤོམ་མེན།	-10.3243
་བའི་ཤུལ་ལས་	-10.3246
བཟང་མོ་འདི་	-10.3248
ད་ལྟོའི་	-10.325
དྲི་བ་ཚུ་	-10.3252
ཨིན་ན་ཟེར་	-10.3253
བཞག་མི་	-10.3253
རེན་	-10.3254
བྱི་ཙི་	-10.3259
ཁ་སླབ་	-10.3264
རེ་བ་བསྐྱེད་ཡི།	-10.3264
རང་བཞིན་གྱིས་	-10.3265
ཕུལ་	-10.3266
འཕྲལ་ཁམས་ཅིག་ཁར་	-10.327
ལྷོད་ཚུགས	-10.3271
▁ཤུལ་མའི་	-10.3271
དག་པ་ཅིག་གིས་	-10.3274
ཅིག་ཁར་	-10.3275
མཛུབ་མོ་	-10.3275
ཆོས་སྐྱིད་ཀྱིས་	-10.3286
ངོ་མར་	-10.3286
ཨརཝ་བརྐུ་ནུག།	-10.3286
དགའ་ནི་མས།	-10.3286
ངོ་མི་ཤེས།	-10.3288
ག་ཅི་འདུག	-10.329
རྫོགས་ནི་	-10.3293
འདི་ཁྱོད་ལུ་	-10.3293
▁མོ་མོ་རའི་	-10.3295
བསྒྱུར་	-10.3296
དྲནམ་	-10.3297
སྐྱོད་	-10.33
▁སྤྱིར་བཏང་	-10.3303
འབྱུངམ་ཨིན།	-10.3306
བརྡ་སྟོན་	-10.3307
མཇུག་འདི་	-10.3308
དྲག་ཤོས་འདི་	-10.3309
་ཟེར་སླབ་ད་	-10.3311
སྟབས་བདེ་ཏོག་ཏོ་	-10.3312
བཅུ་	-10.3315
བཀྲ་ཤིས་ཀྱིས་	-10.3315
ཝ་འོང་།	-10.3318
གི་སྐོར་ལས་སླབ	-10.3319
▁བརྒྱུད་འཕྲིན་	-10.3323
མ་གཏོགས་གཞན་	-10.3325
མཆོང་	-10.3326
གྲུབ་མཐའ་	-10.3328
ཡོངས་བསྡོམས་	-10.3329
འཕྲུལ་ལྟོ་	-10.3332
དོགས་པ་ཅན་	-10.3334
འབྱུང་བཅུག	-10.3336
ག་ཅི་ར་སྨོ	-10.3336
མཐའ་བསྐོར་ཏེ་	-10.3337
ས་ཀྱིས་	-10.3339
སླབ་ཅི	-10.334
ཁྱོད་ལས་	-10.3343
རིངམོ་སྦེ་	-10.3346
ལིང་	-10.3349
ང་དང་	-10.3358
འབད་ཚར	-10.3358
▁འདི་གི་སྐོར་ལས་	-10.3359
འབད་དགོཔ་མེད།	-10.3363
སྒོ་བསྡམ	-10.3367
འབད་ནུག	-10.3368
▁ཆུ་འདི་	-10.3369
་དགོ་མནོཝ་མེད།	-10.3371
ལྟེམ་ལྟེ་	-10.3372
ཌེ་	-10.3374
ཆུ་ཚོད་དྲུག་ལུ་	-10.3376
ཀརྨ་གིས་འཆི་མེད་	-10.3376
འབད་ནི་ཟེར་	-10.3377
འདི་ངེས་པར་དུ་	-10.3377
སྟབས་ལེགས་སྟེ	-10.3378
ཡོདཔ།	-10.3378
ཚུགས་ག	-10.3386
བཞིན་	-10.3387
དབང་པོ་	-10.3389
སྐད་རྐྱབ་	-10.339
སྔ་	-10.3395
ཨཱས་ཊེ་ལི་ཡ་ལུ་	-10.3398
ཨ་ཕི་དེ་ཁོ་གིས་	-10.34
་ཚུགས་པས་ག	-10.3403
གདོང་ལན་	-10.3411
གཅིག་ཡོད།	-10.3412
ཕྱི་ཁར་བཏོན	-10.3412
ཚར་ལེ་ཤ་	-10.3417
འཆར་གཞི་བརྩམ་དེས	-10.3419
ཨོམ་སོ་ཁེན་ཇ་	-10.342
▁ཉ་	-10.3421
འཕྱག་	-10.3422
དངུལ་ཁང་ནང་	-10.3424
ལས་མར་	-10.3434
ཁ་ཐུག་ལུ་	-10.3434
ཁྲི	-10.3439
ལུ་ལྷོད	-10.3448
ཡུན་	-10.3451
▁ཨ་ལུ་ཚུ་གིས་	-10.3453
རེ་ལུ་	-10.3455
མོ་གི་དོན་ལུ་	-10.346
མཐོང་འོང་།	-10.3461
ཅིག་ནང་ལུ་	-10.3461
ཕོག་ནུག།	-10.3463
▁ཉི་མ་དང་ང་	-10.3464
བྱིན་མས།	-10.3465
་ཡང་ན་	-10.3466
བཀུག	-10.3471
ག་འདི་སྨོ	-10.3473
བལྟ་དགོ།	-10.3473
གནང་བ་བྱིན	-10.3476
ཨམ་སྲུ་ཚུ་	-10.3478
ང་གིས་འདི་	-10.3479
འཚིག	-10.3479
སྤྲོ་ཏོག་ཏོ་	-10.348
▁ཁང་མིག་འདི་	-10.3481
འཚོལ་མ་ཐོབ	-10.3481
མ་ཟ	-10.3481
ལུ་ཁྱོད་	-10.3482
གསར་བཏོད་	-10.3485
འདི་གིས་ང་	-10.3486
ཁུག་	-10.3487
གཙུག་ལག་ཤེས་ཚད་	-10.3487
▁ད་རིས་ཀྱི་	-10.3488
ཝ་ལས་	-10.3495
་དགོཔ་ཐོན་ནུག།	-10.3495
བཞག་འོང་།	-10.3498
་ནུག་	-10.3499
རྩ་ལས་མི་	-10.3499
སོ་སོར་	-10.3501
▁ང་གིས་ཨ་ཕི་འདི་	-10.3502
ཡར་ལོང	-10.3515
དམར་གསད་	-10.3515
དགའ་སྟོན་	-10.3515
སྐུལ་	-10.3517
མགྱོནམོ་	-10.3519
བདེ་ཏོག་ཏོ་སྦེ་	-10.3521
ཨརཝ་བརྐུ	-10.3521
ཟས་སྟོན་འདི་	-10.3522
མེན་པ་ཅིན་	-10.3525
ཀུ	-10.3525
ལྷོད་ནི་ལུ་	-10.3526
དཔལ་མོ་ལུ་	-10.3529
མ་མཐོང	-10.3532
བརྐོ	-10.3532
ཧེམ་	-10.3534
བསུབ	-10.3535
སྤུན་ཆ་	-10.3536
གི་ནང་	-10.3539
ཆོས་རྒྱུགས་འདི་	-10.3545
བདེ་སྐྱིད་ཀྱིས་	-10.3549
སྣུམ་འཁོར་གཏང་	-10.355
▁ག་ཅི་ཅིག་	-10.3551
▁འཆི་མེད་ཀྱིས་	-10.3553
▁སངས་རྒྱས་འདི་	-10.3553
དྲག་ཤོས་ཅིག་	-10.3554
རྒྱལ་ཁ་ཐོབ་མི་	-10.3558
བོ་ཡི།	-10.3559
ཧ་མ་གོ	-10.3566
མི་ག་ར་ལུ་	-10.3568
ནང་ན་འོང	-10.3571
ཕེ་	-10.3571
▁ཁྱོད་ཁྱོད་རའི་	-10.3572
ཅིག་བཟུམ་སྦེ་	-10.3574
སྤྲོད་ཅི།	-10.3574
བྱ	-10.3574
འགྱོ་བའི་ལམ་ཁར་	-10.3575
ཤེས་དགོ་མནོ་ཡི།	-10.3581
ཚོང་བསྒྲགས་	-10.3582
ནང་ལཱ་འབདཝ་ཨིན།	-10.3588
▁ང་གིས་པད་མ་	-10.3589
འགན་ཁག་	-10.3592
འདི་ཁོ་	-10.3593
དགོངས་ཞུ་	-10.36
དེ་འབད་དགོ་མ་མནོ	-10.36
བྱ་ཤ་	-10.3602
ཕོ་སྐྱེས་ཚུ་	-10.3603
སྡོད་སྡོདཔ་འོང་།	-10.3606
འདི་འཛམ་གླིང་ནང་	-10.3606
བསྐྱར་	-10.3609
དོགས་པ་ཟ	-10.3609
▁འོད་ཟེར་གྱིས་	-10.3611
རྩོད་	-10.3621
ཆུ་ཚོད་༢	-10.3621
འབད་གནང་ཟེར་སླབ	-10.3622
▁གནད་དོན་འདི་	-10.3623
གནས་སྐབས་འདི་	-10.3625
ལས་ལྷགཔ་སྦེ་	-10.3625
ནང་བཙུགས	-10.3625
སྡོདཔ་	-10.3627
རྒྱལ་སྤྱིའི་	-10.363
▁ཁྱོད་ཁྱོད་ར་	-10.3636
▁ང་བལྟ་བ་ཅིན་	-10.3636
ཇུ་	-10.3638
་དགོ་ཟེར་	-10.3639
ཁོང་གི་དོན་ལུ་	-10.364
བུད	-10.3644
▁ང་ཨ་ཙི་ཅིག་	-10.3645
་ཁྱོད་ཀྱིས་ཤེས་ག	-10.3657
་ཚུགསཔ་	-10.3658
བྲིས་མི་	-10.366
དེ་འབད་ཚུགས་ཟེར་	-10.3663
ག་སྟེ་	-10.3664
དགའ་འཛོམས་འབད	-10.3664
▁རྒྱལ་མཚན་གྱིས་	-10.3668
ཚུའི་	-10.367
ཐོ	-10.367
ཡར་འཕར་	-10.367
མཐོ་	-10.3672
▁ཁྱོད་ངེ་གི་	-10.368
ལས་མི་	-10.368
གླུ་	-10.3689
བཀག་ཆ་	-10.369
མ་བལྟ།	-10.3691
འབྱུང་ཡི།	-10.3694
▁ད་ཁྱོད་	-10.3699
ཡང་ཡོད།	-10.3701
ཁ་གསལ་སྦེ་	-10.3702
མར་ཕབ་འབད	-10.3702
༦ལུ་	-10.3703
ལས་ཨིན།	-10.3705
བཅད་	-10.3707
བསྐྱེདཔ་ཨིན།	-10.3708
བརྒྱུད་	-10.3708
རེག	-10.3712
ཨིན་ཟེར་སླབ་མས།	-10.3712
འབྲི་ཁྲི་གུར་	-10.3713
སྡོད་པ་ཅིན་	-10.3714
བཟོཝ་	-10.3714
མི་ག་ཡང་	-10.3714
གྱི་དོན་ལས་	-10.3717
རྟགས་མཚན་	-10.3719
དེ་མོ་གིས་	-10.3721
ཤེས་ཟེར་	-10.3725
ལཱ་འབད་སར་	-10.3725
▁རྡོ་	-10.3727
▁གཞུང་གིས་	-10.3729
ཤི་ཡི།	-10.373
སྡོདཔ་སྨོ	-10.3731
ཤུབས་	-10.3731
ཨ་ཕི་འདི་འབད	-10.3731
རེ་བ་བསྐྱེད་ཅི།	-10.3734
འབད་ར་	-10.3735
ཉ	-10.3737
མགྱོགས་ཚད་	-10.3739
དམིགས་བསལ་གྱིས་	-10.3741
མནོ་མི་འདི་	-10.3741
ཅིག་ཨིན	-10.3742
གཞན་གྱི་	-10.3742
ཀི་ལོ་མི་ཊར་	-10.3743
ཤིང་ཚུ་	-10.3745
ཤེས་དགོ་པས།	-10.3745
་ཟེར་དོགས་པ་ཆགས	-10.3747
བཟོ་ཉེས་	-10.3747
ཨིན་ན་ང་གིས་	-10.3749
འགྲེམས་	-10.3749
ཆེ་དྲགས་	-10.3752
རཀ་	-10.3756
འབད་མི་ཚུ་	-10.3758
དེ་ང་གིས་	-10.3761
བཏུབ	-10.3762
ཡོདཔ་བཟུམ་སྦེ་	-10.3762
གསད་	-10.3764
ཤེསཔ་སྨོ	-10.3764
འཕུལ	-10.3765
འདི་ཨ་ཕི་	-10.3766
ལེགས་བཅོས་འབད	-10.3768
ལག་པར་	-10.3771
འགས་	-10.3772
སྟེང་ཐོག་ལུ་	-10.3774
ཨ་ཕི་འབད་ནི་	-10.3774
རྒྱུན་སྐྱོང་	-10.3786
བཤེད	-10.3787
དགའ་མཐུན་	-10.3788
གཉེན་རྐྱབ་སྟེ་	-10.3795
ལཱ་འབདཝ་མས།	-10.3796
རྩ་བར་	-10.38
མཚོ་མོ་གིས་	-10.3804
འབད་བ་ཅིན་ང་	-10.3805
ཚུ	-10.3811
རིམ་པ་	-10.3811
དྲོ་མཛར་ཟ	-10.3814
ཡོངས་ཐོག་	-10.3815
དཀའ་སྡུག་མྱོང	-10.3815
ཁྱིམ་ཅིག་	-10.3817
ངལ་གསོ་ནང་	-10.3817
་དགོ་མནོཝ་	-10.3818
དཔལ་སྒྲོན་ལུ་མོ་	-10.3821
མེདཔ་བཏང་ཡི།	-10.3825
འཛིན་སྐྱོང་འཐབ	-10.3831
མ་གཏང་།	-10.3832
རྒྱལ་རབས་	-10.3834
ལེགས་ཤོམ་མེད།	-10.3836
སྤྲོ་བ་ཅན་	-10.3837
འདོད་པ་	-10.3838
མེདཔ་འོང་།	-10.384
ཨེཆ་	-10.384
གྲོས་ཚོགས་	-10.384
མ་སླབ་པར་	-10.3843
འཐུང་ཡི།	-10.3844
ལཱ་ལེགས་ཤོམ་འབད	-10.3844
བསླབ་བྱ་བྱིན	-10.3845
དུས་རབས་	-10.3847
་ནིའི་རྩིས་རྐྱབ	-10.3847
ཁྱོད་ཀྱིས་འདི་	-10.3847
སྟ	-10.3848
་བཱ་	-10.3853
སྒྲོན་	-10.3854
▁ཁོང་གིས་ང་ལུ་	-10.3854
བཏང་མི་	-10.3855
ཡོད་པའི་ཁར་	-10.3858
སྡོད་ཚུགས	-10.386
གཙང་	-10.386
ོལ་	-10.3861
མགོ་	-10.3864
▁ཀརྨ་གིས་ཁོ་ར་	-10.3865
བཟུམ་སྦེ་མཐོང་མས	-10.387
ཨེབ	-10.3871
གཉིད་ཚོར	-10.3873
ག་ཅི་སྦེ་ཨིན་ན་	-10.3878
ཡར་རྒྱས་འགྱོ	-10.3878
གིས་མོ་རའི་	-10.3878
ཞབས་ཁྲ་རྐྱབ་ནི་	-10.3879
རསི་	-10.3879
སྐྱེས་བའི་ཉིནམ་	-10.3883
▁ང་གིས་ཊོམ་ལུ་	-10.3884
་དེ་ཡོད།	-10.3892
འབད་ནི་མི་འོང་།	-10.3892
ལང་མི་	-10.3896
འཛོལ་སོ་ནུག།	-10.3896
བཱོས་ཊཱོན་ལུ་	-10.3897
ཟླཝ་གསུམ་	-10.3897
གཡིབ	-10.3899
ནཱ་ལུ་སྡོད	-10.3901
སྤྱིར་བཏང་གི་	-10.3901
ཚོང་མགྲོན་པ་ཚུ་	-10.3902
སྐད་རྐྱབ	-10.3903
ལེགས་ཤོམ་འབད་	-10.3904
ཉོ་ནི་ལུ་	-10.3908
ཨིན་ན་ང་གིས་ཤེས།	-10.3911
༧༠	-10.3914
་ལགས།	-10.3914
འདི་དོན་ལས་ར་	-10.3915
དུས་མཐུན་བཟོ	-10.3919
མ་འདྲཝ་ཚུ་	-10.3924
སྦོ	-10.3926
དགའ་འོང་།	-10.3927
འཆར་གཞི་མ་བརྩམས	-10.3928
དབྱིན་སྐད་	-10.3931
▁དུས་ཅི་	-10.3933
▁བསོད་ནམས་འདི་	-10.3938
ལུང་	-10.3938
གྲོགས་རམ་འབད་ནི་	-10.3938
ཅིག་སྡོད་ནུག།	-10.3938
ཁ་ཚིག་	-10.3939
དྲ་དུམ་	-10.3939
ཌར་	-10.394
་པའི་ཤུལ་ལས་	-10.3941
སྐྱེལ	-10.3942
ལས་དྲགཔ་སྦེ་	-10.3944
དྲུང་ཆེན་	-10.3945
ལུ་འགྱོ	-10.3946
▁སློབ་གྲྭ་	-10.3948
མ་མཐོང།	-10.3956
་དགོ་ཟེར་སླབ་ཅི།	-10.3958
དབང་འཛིན་	-10.3959
དང་བསྟུན་	-10.396
ཚེ་གཡོག་	-10.396
གོ་ལ་གྱོན	-10.3964
ལ་དང་	-10.3964
ཚུད་	-10.3969
གནམ་གྲུའི་	-10.3971
སྟོབས་རྒྱས་ཀྱིས་	-10.3975
མི་འོང།	-10.3979
ལུ་ཁྱོད་ཀྱིས་	-10.398
་མི་ཚུགས	-10.3985
ང་ཡང་	-10.3985
ཕོ་སྤུན་	-10.3986
གཉིད་སྡུག་རྐྱབ	-10.3987
་བའི་ཤུལ་ལུ་	-10.3991
ཚི	-10.3993
མཐའ་གཅིག་ཏུ་	-10.3996
ལེགས་བཅོས་	-10.3997
་འོང་ག།	-10.3998
མནོཝ་མས	-10.4007
ཐང་རིལ་རྩེ	-10.4008
འཇམ་ཅུག་ཅུ་	-10.401
ཁྱད་རིག་	-10.401
སྒོར་	-10.4011
་འོང་ཟེར་མ་མནོ།	-10.4011
ཁྱིད	-10.4013
ནང་འཁོད་ལུ་	-10.4013
ལྟ་ཡི།	-10.4015
བཟུམ་གྱི་	-10.4017
▁ང་གིས་ཀརྨ་དང་འཆ	-10.4024
དངུལ་འབྲེལ་	-10.4024
ཆི	-10.4025
་པ་ཅིན་ཁྱོད་	-10.4025
ལུ་དེ་འབད་ཟེར་	-10.4029
དགོཔ་སྦེ་ཨིན་མས།	-10.4032
༩༠	-10.4032
གལ་ཅན་ཅིག་	-10.4033
ཞི	-10.4035
རྩ་འགེངས་	-10.4037
ལས་འགུལ་འདི་	-10.4038
ཁྱོད་རང་	-10.4039
འབད་དགོ་ག	-10.4039
དེ་འབད་མི་	-10.4042
མིན་འདུག་ཟེར་མནོ	-10.4046
ྭ	-10.4048
▁སྐལ་བཟང་དང་	-10.4053
ཨ་རྟག་ཧ་ལུགས་	-10.4054
སྟོནམ་མས།	-10.4055
དཔལ་	-10.4056
ཁོ་གིས་ག་ཅི་	-10.4057
དེ་འབད་བ་ཅིན་	-10.4058
ལུ་ག་དེ་སྦེ་	-10.4059
སླབ་ནི་ཡོད།	-10.406
ཅིག་ཐོབ་ནུག།	-10.4061
ལཱ་འབད་དགོཔ་	-10.4061
སླབ་དགོ་པས།	-10.4063
གཞན་མི་ཅིག་	-10.4067
ངང་ལག་	-10.4067
སླབ་ནི་འདི་	-10.4068
ཕོ་རྒྱས་	-10.407
ཨ་ཅོ་ལྟོ་ར་	-10.407
ོན་	-10.4071
བཞེས་སྒོ་འབད་ནི་	-10.4071
མཛུབ་	-10.4074
གསལ་སྟོན་འབད	-10.4076
མང་ཤོས་ཅིག་ར་	-10.4076
ཨང་རྒས་	-10.4081
དགོངས་ཡངས་	-10.4082
ཁྱབ་བསྒྲགས་འབད	-10.4087
▁ང་ནཱ་	-10.4093
ཆུ་ཚོད་གཉིས་	-10.4094
བསྒུགས	-10.4094
ང་བཅས་ཀྱིས་དེ་	-10.4095
་ཟེར་མ་མནོ་བས།	-10.4096
མ་གྱི་	-10.4097
དབྱེ་	-10.4098
ཁོང་ཁྲོ་	-10.4099
རིང་ལུགས་	-10.4099
སྤྲོད་ཡི།	-10.41
▁ང་གིས་རྣམ་རྒྱལ་	-10.4103
▁ཕར་ལུ་	-10.4107
མ་ཤེས་མི་	-10.4108
ཧེན་	-10.4109
འཛུལ་སྒོ་	-10.4113
ཝིན་	-10.4115
ཝ་ཨིན་ན་	-10.4118
གཞན་མི་ཚུ་	-10.4118
སྟབས་	-10.412
བྱང་ཕྱད་	-10.412
ག་དེམ་ཅི་	-10.4121
ནུམོ་	-10.4122
བཟུམ་མཐོང་ཡི།	-10.4124
བུང་	-10.4125
༣༠ལུ་	-10.4126
མ་ཉལ	-10.4126
རྐྱབ་དེས།	-10.4129
དོན་ལུ་གྲ་སྒྲིག་	-10.413
དགའཝ་མས	-10.4131
མོ་གི་སྐོར་ལས་	-10.4131
ཧར་	-10.4132
▁མི་ནུ་རའི་གིས་	-10.4132
བཙོན་	-10.4132
༢༢	-10.4134
་ནི་འོང།	-10.4135
སྦེ་སྡོད་ནི་	-10.4136
ཆུམ་	-10.4136
པ་གི་	-10.4137
ཨིན་ན་མི་ཤེས	-10.4137
མནོ་བསམ་གཏང་	-10.4141
སྦྱིན་བདག་	-10.4144
སྙིང་རྗེ་	-10.4147
▁དར་རྒྱས་ཀྱི་	-10.4148
འཐུས་ཤོར་	-10.4148
ངལ་རངས་	-10.4152
དྲན་པ་བཏོན་ཏེ་	-10.4158
ཟེར་སླབ་	-10.4159
འབད་བརྩོན་	-10.4162
དངོས་པོ་	-10.4162
གླ་ཁར་	-10.4162
པར་རིས་	-10.4168
འགྲན་བསྡུར་ནང་	-10.417
ཨུ་ཚུགས་བསྐྱེད	-10.4177
་མེན་ན	-10.4181
ཚ་གྱང་ལང་དགོཔ་	-10.4182
་ཚུགས་ག།	-10.4183
སྐྱོ	-10.4184
སྒྲོ	-10.4189
རླུང་འཚུབ་	-10.419
རྡོ་རྗེ་དང་	-10.4191
བལྟ་སྐོར་	-10.4192
འབད་མི་དགོཔ་འོང	-10.4194
ཁོ་རའི་ཨ་པ་	-10.4194
▁དེ་ཁྱོད་ཀྱིས་	-10.4196
ཧང་	-10.4196
ཡུ་ཀེ་	-10.42
▁བྱི་ལི་འདི་	-10.42
ངོས་ལེན་འབད་ཡི།	-10.42
▁ཊོམ་གྱིས་ཁོ་	-10.4201
▁དངོས་གྲུབ་ལུ་	-10.4204
▁འདི་གི་	-10.4212
གནས་སྟངས་ཚུ་	-10.4215
རེ་རེ་	-10.4216
▁ཁ་ཙ་ཕྱི་རུ་	-10.4223
སེམས་ཁར་བཞག།	-10.4224
དཱ	-10.4227
ཱ་	-10.4231
ིས་	-10.4232
འུ་སྡུག	-10.4234
ཡར་དྲག་	-10.4234
བ་ལྷགཔ་སྦེ་	-10.4235
མཐོང་དོ་བཟུམ་	-10.4237
མནོ་བསམ་གཏངམ་མས།	-10.4238
བཀའ་རྒྱ་	-10.4239
ད་རེས་ཁམས་ཅིག་ཁ	-10.4239
ཧ་གོ་མ་ཚུགས།	-10.4239
སྤུབ	-10.424
འཛིན་ཤོག་	-10.4241
དངུལ་ཁུག་	-10.4241
བསྒུག་སྟེ་	-10.4246
མཚེ་མ་	-10.4248
བཞག་ཅི།	-10.4249
མིང་འདི་	-10.4259
ཚོང་འབྲེལ་འཐབ་	-10.426
པི་ཡ་ནོ་	-10.4261
ཁོ་གིས་ང་ལུ་	-10.4262
ཨམ་སྲུ་འདི་	-10.4264
འཕྲལ་ར་	-10.4264
ག་ར་གི་དོན་ལུ་	-10.4266
འབད་ནི་ཨིན་ན	-10.4266
བལྟ་ནིའི་དོན་ལུ་	-10.4266
ལྟ་བཤལ་	-10.4267
མ་ཤི་བར་	-10.4273
བློ་རིག་ཅན་	-10.4279
ལུ་འུ་བཀལ	-10.4279
སྦྱར	-10.428
འདི་ནམ་	-10.4281
ལས་དོན་	-10.4281
གས་ཆོས་སྒྲོན་	-10.4286
གཟུགས་འཁྱུ	-10.4286
འདི་དེ་ཨིན།	-10.4289
ས་ཅི།	-10.429
མི་ཚེའི་	-10.4291
ཉེ་འདབས་ཀྱི་	-10.4294
ང་གིས་ཁོང་ལུ་	-10.4294
རྩོད་གཞི་	-10.4295
ཉེ་འདབས་ལུ་	-10.4296
དྲོད་འབར་	-10.4297
འཛོལ	-10.4299
བློ་འདོད་མེད།	-10.4302
རན་ཏོག་ཏོ་	-10.4303
བཟུམ་ཅིག་ཨིན།	-10.4303
འཐོན་འོང	-10.4304
དང་ཆ་	-10.4304
ཁོ་གིས་འཆི་མེད་	-10.4305
བཟའ་	-10.4306
སྤྱི་ཚེས་	-10.4306
འག	-10.4308
ར་འདུག།	-10.4309
སེམས་སྐྱོ	-10.431
▁ང་བཅས་གཉིས་ཆ་ར་	-10.4311
ག་ཅི་ཨིན་ན	-10.4311
སཱ་	-10.4312
ཁྱོད་ནཱ་ལུ་	-10.4313
བཱོ	-10.4317
ཡོད་མི་ལུ་	-10.4317
ཏི་རུ་ག་ར་	-10.4317
་ནི་དེ་གིས་	-10.4319
གོ་གནས་ཡར་སེང་	-10.4319
རྣམ་རྟོག་	-10.4319
གཉིད་ལམ་མཐོང	-10.432
ལ་གིས་	-10.4322
བར་མཚམས་	-10.4323
འཐོབ་ཚུགས	-10.4324
དཔེ་དེབ་ཅིག་	-10.4325
མར་ཁུ་	-10.4325
འཛིན་གྱིས་	-10.4328
ལྟར་	-10.4329
ཆས་སྒམ་	-10.433
་ཅི་ཟེར་	-10.4332
དགའ་མཐུན་གྱི་	-10.4332
སློབ་སྟོན་པ་	-10.4335
ཚིག་འདི་	-10.4336
▁ཇཱོན་གྱིས་	-10.4337
ཕམ་ཚུ་	-10.4352
▁འདས་པའི་	-10.4355
གྲུབ་འབྲས་འདི་	-10.4356
གློ་བུར་	-10.4358
་ཚར་ཡི།	-10.4363
ཨམ་སྲུའི་	-10.4363
ཁྱོད་རྐྱངམ་གཅིག་	-10.4363
༣ལུ་	-10.4366
གི་ཐོག་ཁར་	-10.4366
ཚིག་ཡིག་	-10.4368
གེ།	-10.4373
▁རོ་	-10.4374
འགྱོ་ཡི་ག་	-10.4374
ཁས་མ་ལེན	-10.4375
ག་དེ་མགྱོགས་མགྱོ	-10.4379
གི་ཆ་རོགས་	-10.4379
མེད་ཟེར་སླབ་མས།	-10.438
ཁ་སྐད་འདི་	-10.4381
རྣམ་འགྱུར་	-10.4381
བརྗེ་སོར་འབད	-10.4381
ལྟདམོ་	-10.4383
བར་རྐྱེན་	-10.439
བཙོངམ་ཨིན།	-10.4391
▁དཔེ་དེབ་	-10.4393
ཞིནམ་ལས་	-10.4394
▁ཉི་མ་གིས་ཁོ་གི་	-10.4395
བརྒྱུད་འཕྲིན་ནང་	-10.4397
སླབ་སྟེ་	-10.4398
་པའི་བསྒང་ལས་	-10.4398
ག་ཅིག་	-10.44
༢༡	-10.44
ལུགས་སྲོལ་	-10.4405
▁གལ་སྲིད་ང་གིས་	-10.4406
རེ་ཆི་བསྐྱེད	-10.4406
མཐོང་སྟེ་	-10.4408
ཟེར་བ་ཅིན་	-10.4409
སྐུ་གཟུགས་བཟང་པོ	-10.441
ནང་བཙུགས་ནུག།	-10.4411
སེར་སྣ་ཅན་	-10.4411
▁ཀརྨ་དང་ཚེ་རིང་	-10.4414
▁པད་མོ་	-10.4415
ཇཱོན་གྱི་	-10.4415
སོང་སྟེ་	-10.4415
ཀྱ	-10.4417
ཁྱོད་ཀྱིས་ཁོ་ལུ་	-10.4418
འུར་སྐད་	-10.4419
འབད་བཅུག་ནི་	-10.442
སྨན་ཁང་ནང་ལུ་	-10.4421
▁རྣམ་རྒྱལ་ལུ་	-10.4423
འདི་གུར་	-10.4425
ཚོང་པ་	-10.4426
ཚ་དྲགས་	-10.4426
▁ང་གིས་སངས་རྒྱས་	-10.4428
མི་དགའ་ཟེར་	-10.4429
ག་ཅི་འབད་དགོ་ག་	-10.443
ཅིག་ཉོ	-10.4431
འདི་དགའ་བས།	-10.4432
འགོ་བཙུགས་གེ།	-10.4438
བྲ	-10.4442
ཉམས་བཅོས་འབད	-10.4443
རེལ་ལི་ནང་	-10.4445
ལྷོ་	-10.4446
བསྐྱི	-10.4448
ཟླཝ་གཅིག་	-10.4449
▁ཁོ་ཨ་རྟག་ར་	-10.445
་དགོཔ་སྦེ་ཨིན་ན	-10.4454
ང་རང་གིས་	-10.4456
འབ	-10.4457
ལུ་དགའཝ་མས།	-10.4457
▁ག	-10.4459
ལྟ་བ་	-10.4463
ཡོད་རུང་བཏུབ་པས	-10.4466
་མི་ལུ་བརྟེན་	-10.4467
རུང་བཏུབ་པས་ཟེར་	-10.4467
ལུ་འགྱོ་ཡི།	-10.4472
ག་ཅི་འབད་མི་འདི་	-10.4475
ཚད་འདི་	-10.4476
▁ང་གིས་ཡང་	-10.448
བསྐྱེད་	-10.4484
ལམ་གྱི་	-10.4485
སྤྲོ་བཤལ་	-10.4486
གཡུས་ཁར་	-10.4486
ལོ་ན་རྒས	-10.4488
ལྟེ་བའི་	-10.4491
བསམ་གཏན་	-10.4499
▁སྒྲོལ་མ་འདི་	-10.4499
་དགོཔ་ཨིན་ན	-10.4499
▁ཨ་པ་	-10.4499
གནམ་དགུན་	-10.4501
ལུ་ཁོ་རའི་	-10.4507
ཚོ	-10.4508
▁རྡོ་རྗེ་གིས་ཁོ་	-10.4508
སྣ་མང་	-10.4509
༢༣	-10.451
▁བཟང་པོ་གིས་ང་	-10.451
འདྲི་ནི་	-10.451
▁ཤུལ་ལས་	-10.4514
དར་རྒྱས་དང་ལེ་ལ་	-10.4516
དྲགཔ་	-10.4516
འབྱིད	-10.4519
སེལ	-10.4521
ཨ་ཕི་དེ་མོ་གིས་	-10.4521
གཡོ	-10.4522
བསམ་པ་	-10.4524
ག་ཅི་འབད་འོང་ག་	-10.4524
འབད་མི་དེ་	-10.4526
སྐད་རྐྱབ་ཅི།	-10.4531
ཇྷོན་	-10.4531
ཅིག་འདུག་ག	-10.4532
ཅིག་ལུ་འགྱུར	-10.4533
ཉིནམ་ཅིག་	-10.4533
འབད་མི་ཅིག་	-10.4533
ཆ་འཇོག་འབད	-10.4537
ཱི་	-10.4538
ཁྱད་རྣམ་	-10.4541
དལ་ཁོམ་	-10.4541
དགོ་ནི་ཨིན་ན	-10.4541
གྱོངས་སོ་ནུག།	-10.4545
འཛུལ་ནུག།	-10.4545
འབད་ཚུགས་འོང	-10.4547
ངར་	-10.4551
ལྟེ་བ་ལུ་	-10.4558
དེ་འབད་མི་བཅུག	-10.4558
ཁྱིམ་ནང་ལྷོདཔ་ད་	-10.4561
རྫ	-10.4561
དང་ལེན་	-10.4562
མ་ཐོབ་པས།	-10.4568
དགོངས་ཞུ་འབད	-10.4574
▁ཡེ་ཤུའི་	-10.4574
འགྱོ་ནི་ཨིན་མས།	-10.4585
▁ངེ་གི་ཆ་རོགས་	-10.4589
ལུ་དགའ་བས།	-10.4592
ག་དེ་དྲག་དྲག་	-10.4593
སྣུམ་	-10.4597
ལྕེ་	-10.4597
ག་དེ་སྦེ་ཤེས	-10.4602
འདིའི་སྐོར་ལས་	-10.4603
བདུན་ཕྲག་གི་	-10.4604
▁འདི་ང་བཅས་ཀྱིས་	-10.4606
ནཱ་ལུ་ག་ཅི་སྦེ་	-10.4607
ལྷབ་སྦྱང་འབད	-10.4608
་བཏུབ་ག	-10.4608
མ་འོངས་པ་	-10.4609
གསོ་	-10.4611
གཡུས་ཚན་	-10.4611
▁འཛམ་གླིང་ནང་	-10.4613
དགོཔ་སྦེ་	-10.4614
སླབ་མི་དེ་	-10.4616
ས་ཡོམ་	-10.4618
ཁྱབ	-10.4621
གསརཔ་ཨིན།	-10.4623
ཚོགས་ཆུང་	-10.4623
གཞུང་གིས་	-10.4627
ག་ཅི་དགོ་མི་འདི་	-10.4633
བྱོན་པ་ལེགས་སོ་	-10.4634
ལེ་ཤ་ཅིག་ཡོད།	-10.4635
▁ཡེ་ཤེས་	-10.4636
ཆ་རོགས་འབད་འོང་ག	-10.4637
་སར་མཐོང་ནུག།	-10.4637
སྤྲོ་བ་ཡོད།	-10.4639
▁ང་ཁོ་	-10.4641
མཆུ་	-10.4643
ངལ་རངས་ཡི།	-10.4646
དཔལ་སྒྲོན་གྱི་	-10.4648
གནམ་གྲུ་འདི་	-10.4648
བཀལ་ཡི།	-10.4651
་ཟེར་མནོ་བསམ་བཏང	-10.4659
ཚུ་ཨིན།	-10.466
ནམ་འབད་རུང་	-10.4667
▁ཀེ་	-10.4668
སློབ་ཕྲུག་ཚུ་ལུ་	-10.4669
སྐྱེལ་སྤྲོད་	-10.4671
གི་ཁ་སྐད་	-10.4672
དུ་པ་	-10.4673
ས་གོ་ནང་	-10.4674
རྒྱལ་ཁ་ཐོབ་ཅི།	-10.4674
ཀཱོ	-10.4675
འགྱོ་འོང།	-10.4677
ནུས་པ་	-10.4685
▁ཁོང་གིས་ཁྱོད་	-10.4686
ཁོ་གི་ཨམ་སྲུ་	-10.4687
ར་མ་	-10.4687
ཕེརེནཆི་སླབ་ནི་	-10.4688
གིས་མོ་ལུ་	-10.4689
མེནམ་འོང་།	-10.4691
ང་བཅས་ཆ་ཁྱབ་	-10.4693
བཏུབ་པའི་	-10.4695
སྲིད་དོན་	-10.4696
རྩ་བར་སྡོད	-10.4697
དེ་ཚུ་ག་ར་	-10.4697
འབད་དོ་བཟུམ་སྦེ་	-10.4699
སེམས་དགའ་འོང་།	-10.4699
གསོག་འཇོག་འབད	-10.47
དྲན་ཐོ་	-10.4702
་ཟེར་མ་ཤེས་པས།	-10.4702
དགོཔ་འོང་།	-10.4702
▁ཁོང་གིས་ཁོ་	-10.4707
ང་ལུ་ག་ཅི་སྦེ་	-10.4709
འདི་ལོ་	-10.4711
ཁོང་གཉིས་	-10.4711
མནོ་བསམ་གཏང་།	-10.4712
ཆ་རོགས་འབད་དགོཔ་	-10.4712
འབྱང་ད་ནུག	-10.4713
བཀབ་	-10.4714
འདྲ་པར་	-10.4715
ལེགས་ཤོམ་འདུག	-10.4717
འདྲ་བས།	-10.4717
རྫས་རླངས་	-10.4718
རྡོ་ཆལ་	-10.4718
ཁོ་གིས་ཁོ་རའི་	-10.4718
ཀརྨ་གིས་སླབ་ནུག།	-10.4719
▁གཞན་	-10.472
ཨོམ་སོ་	-10.4721
བྱིན་ཚུགས་ག	-10.4721
▁སེང་གེ་གིས་	-10.4722
▁ང་ཀརྨ་	-10.4727
བརྡ་འཕྲིན་	-10.4733
འདི་ད་རིས་	-10.4735
བརྒྱུད་ལམ་	-10.4736
ཆ་ཁྱབ་	-10.4739
ཝ་མས་ག	-10.4739
སེམས་གསད	-10.474
ཆང་འགྲངས	-10.4741
འད	-10.4744
དོ།	-10.4745
ཅིག་བྱིན་ནུག།	-10.4747
ཐབས་ལམ་འདི་	-10.4748
▁ཏི་རུ་འདི་	-10.4752
དལཝ་མེདཔ་	-10.4752
ཤེས་འདོད་ཅན་	-10.4753
རྩ་ཅན་	-10.4754
ལུ་ལོག་	-10.4756
འོང་ག་	-10.4756
དང་སྒྲོལ་མ་	-10.4757
གྱོན་ནི་	-10.4758
དཀའ་ངལ་འདི་བསལ	-10.4761
འབག་མི་	-10.4762
▁ང་གིས་ག་ར་	-10.4765
འཕུལ་	-10.4766
ལ་གྱིས་	-10.4768
རྩེད་ཆས་	-10.4768
སྡོད་ནི་མེད།	-10.4769
དག་པ་ཅིག་འདུག།	-10.4772
མནོ་བསམ་མ་བཏང	-10.4777
ཟ་ནི་མེད།	-10.4781
བཀོད་ནུག།	-10.4781
བསིལ་	-10.4782
ལྷོད་ཅི་ག	-10.4782
བཟེད	-10.4783
ཌེན་	-10.4785
དུས་ཚོད་མེད།	-10.4785
ཡིག་ཚང་གི་	-10.4786
ནུ	-10.4788
ཊ་གི་	-10.4789
དོན་གྲུབ་	-10.4789
མངལ་	-10.4796
དབང་ཕྱུག་འདི་	-10.4797
བཞེས་སྒོའི་	-10.4808
གཉེན་རྐྱབ་རྐྱབ་	-10.4809
༨ལུ་	-10.4812
མི་བཏུབ།	-10.4812
ནང་འགྱོ་ཡི།	-10.4813
ཚོང་ཁང་ནང་	-10.4813
ཕྱད་འོང་།	-10.4814
ལྷགཔ་	-10.4814
འཕྲོ་བརླག་གཏང	-10.4815
▁ཚེ་དབང་དང་	-10.4816
▁ཁོ་གིས་ཨ་རྟག་ར་	-10.4817
ཁ་ཟས་	-10.482
སྤྲོད་དགོ།	-10.4824
དཔལ་སྒྲོན་གཉིས་	-10.4827
གན་རྒྱ་	-10.4827
སྤྲོ་སྟོན་ནང་	-10.4827
▁ཀུན་བཟང་	-10.4834
པ་འུནཌ་	-10.4839
ཨ་ཞང་	-10.484
འབྱང་ད་ཡི།	-10.484
ཁྱིམ་ལཱ་འབད་ནི་	-10.4842
དཔྱ་	-10.4844
སློབ་དཔོན་ཨིན།	-10.4851
འཕྱད་ནི་	-10.4852
བསམ་བཀོད་	-10.4852
་ཟེར	-10.4854
བརྗེད་	-10.4855
དྲང་དཔོན་	-10.4855
ས་ཡིག་རྐྱབ	-10.4856
དང་བསོད་ནམས་	-10.4857
▁དཀར་སངས་	-10.4859
གཟབ་གཟབ་	-10.4859
དབང་ཕྱུག་ལུ་	-10.4859
དཔའ་བཅམ་	-10.486
དེ་ཁོ་གིས་	-10.486
ཧིང་སང་ས་བཟོ	-10.4862
དྲནམ་མས།	-10.4863
བྱི	-10.4864
ཡཱ	-10.4864
ཧེང་སྐལ་ར་	-10.4866
བསམ་འཆར་འདི་	-10.4866
དྲག་པོ་	-10.4866
མོ་གིས་ག་ཅི་	-10.4872
སློབ་དཔོན་ལུ་	-10.4873
འདི་ཐད་རི་བ་རི་	-10.4875
གིས་ཁྱོད་ཀྱི་	-10.4876
རྒྱབ་བཤུད་རྐྱབ	-10.4878
▁ཉིམ་	-10.4882
ཧོད་	-10.4883
མ་འདྲཝ་སྦེ་	-10.4884
ས་གནས་ནང་	-10.4888
རྒྱུན་ལམ་	-10.489
མཛོད་ཁང་ནང་	-10.4894
གནས་ཚུལ་ཚུ་	-10.4894
ཊིན་	-10.4896
གཅིག་དང་	-10.4898
མཐོང་ཚུགས་པས།	-10.49
གླ་ཁར་ལེན	-10.49
གྱིས་ང་ལུ་ཁོང་	-10.4902
བལྟ་དེས།	-10.4902
▁ཁང་མིག་	-10.4904
▁ཆོས་གྲགས་ཀྱིས་	-10.4904
མདེའུ་	-10.4905
དགའ་ཤོས་འདི་	-10.4905
ཁོང་གིས་ག་ཅི་	-10.4906
བཞིན་དུ་	-10.4907
ཡངས་	-10.4911
ལ་གྱི་	-10.4913
བློ་སླབ་གེ།	-10.4914
གཙོ་རིམ་	-10.4916
ཕྱད་གེ།	-10.4916
ཉེས་ཁྲིམས་	-10.4918
ཝཱ	-10.4919
ལཱ་འབད་དོ།	-10.4921
བགའ་ནི་	-10.4922
འབད་ཟེར་སླབ	-10.4922
འདྲོག	-10.4922
▁ཨཱ	-10.4923
གནམ་གྲུ་ནང་	-10.4924
ཉན་ནི་	-10.4924
བརྡུངས་ཡི།	-10.4928
▁དབང་ཕྱུག་འདི་	-10.493
▁ད་རེས་ནངས་པ་	-10.4932
སྡོད་འོང་ཟེར་	-10.4932
ཡོད་ཟེར་སླབ་མས།	-10.4932
▁ང་གིས་ག་ཅི་ཡང་	-10.4936
▁ཀ	-10.4939
སྟེ	-10.4941
སྦྱང	-10.4942
ཀ་གི་	-10.4944
་དགོ་པས	-10.4944
▁ས་གནས་	-10.4945
་མེན་ན་	-10.4947
▁འཆི་མེད་	-10.4949
བརྩི་	-10.495
འབད་ནི་དཔའ་བཅམ	-10.4951
ཐོ་ནང་	-10.4957
▁ད་ལས་ཕར་	-10.4958
▁ཆང་	-10.4959
ཆོས་སྒྲོན་ལུ་	-10.4959
ཚ་ངེར་བཏོན་	-10.4959
ཅིག་སྦེ་སྡོད་ཡི།	-10.496
▁རྒྱལ་པོ་	-10.4961
གུག་	-10.4963
ཤེས་པས	-10.4967
རྡོ་རྗེ་ཕ་ལམ་	-10.497
སླབ་པའི་སྐབས་	-10.497
འོང་ནི་མས	-10.4972
མ་འགྱོ	-10.4974
▁འགྱུར་མེད་ཀྱིས་	-10.4975
དབང་མོ་གིས་མོ་	-10.4977
ནང་འགྱོ	-10.498
འབྲེལ་བ་འཐབ་	-10.4983
སྣ	-10.4984
འཕྲུལ་ཆས་འདི་	-10.4985
མི།	-10.4985
བཞུ	-10.4986
གྱིས་ཁོང་གིས་དེ་	-10.4994
ཉམས་བཅོས་	-10.4996
ཧིང་ཚ་སི་སི་	-10.5001
་ཆོག་ཆོ་	-10.5003
ལུ་དཀའ་ངལ་	-10.5004
གྱི་ལཱ་	-10.5007
▁དཀར་སངས་དང་པད	-10.5008
་རི་	-10.5009
ཕོ་ཚོད་	-10.5012
གཉེན་མ་རྐྱབ	-10.5012
ལུ་དགའ་	-10.5013
་དགོ་མ་མནོ	-10.5013
དགྲ་	-10.5014
སྟོན་མས།	-10.5014
ཆརཔ་རྐྱབ་	-10.5016
ཡོདཔ་འོང་ཟེར་	-10.5017
སེམས་ཅན་གླིང་ཀ་	-10.5018
སྔོན་མ་	-10.5019
འཐུས་ཤོར	-10.502
ཁོ་དང་	-10.5021
▁རྒྱལ་ཡོངས་	-10.5021
དྲོ་ཏོག་ཏོ་	-10.5021
དགོཔ་ཟེར་རུང་	-10.5021
▁ཞལ་འཛོམས་འདི་	-10.5023
་དེ་འབདཝ་ལས་	-10.5027
འོང་སྟེ་	-10.5028
སྐད་འདི་	-10.5032
མ་འབད་བའི་ཧེ་མ་	-10.5032
ལོ་ལེ་ཤ་	-10.5034
རྒྱལ་ཁབ་འདི་	-10.5035
ཁོང་གིས་དེ་	-10.5036
གི་ནང་ལུ་	-10.5036
ཧ་མ་ལས	-10.5037
འགྱིབ་	-10.5037
ཙིགཔ་ཟ་ཡི།	-10.5043
འདྲོག་འདྲོགཔ་	-10.5043
མཉམ་རོགས་	-10.5046
▁བཟའ་ཚང་	-10.5047
ཁོ་ལུ་ཆ་རོགས་འབད	-10.505
མི་ཨིན།	-10.505
གཙང་ཏོག་ཏོ་	-10.5052
ལོག་ལོག་ར་	-10.5052
འེ	-10.5053
བཟའ་ཚང་ཚུ་	-10.5054
སྡོད་ཡི་ག་	-10.5055
སྲོ	-10.5055
བརྡ་བརྒྱུད་	-10.5056
ག་ཅི་ཅིག་སླབ་ནི་	-10.5058
རིན་མེད་	-10.5058
སུཊ་	-10.506
ལེགས་ཤོས་	-10.5062
ག་ཏེ་ཡོད་ག་	-10.5062
སྒྲོམ་ནང་	-10.5065
▁ཟླ་བ་གིས་དེ་	-10.5066
ཤི་མི་	-10.5067
འཆམ་	-10.5067
མ་བྱུང་།	-10.5069
མགྱོགས་པར་ར་	-10.5069
་ག་ཟེར་མནོཝ་མས།	-10.5075
སྲ	-10.5076
ཅན་འདུག།	-10.5076
མཚོ་མོ་	-10.5077
ལོག་འགྱོ	-10.5078
༩ལུ་	-10.5081
ནང་ལས་ཕར་	-10.5082
ནོར་བུ་གིས་	-10.5083
ཨམ་སྲུ་ཅིག་	-10.5083
འབད་མིའི་	-10.5085
འབད་ནི་ཨིན་མས།	-10.5087
ཉིན་སྨད་	-10.5089
བལྟ་དགོཔ་	-10.509
་བཏུབ་པའི་	-10.5091
དམ་བཅའ་	-10.5092
▁ག་དེ་འབད་རུང་	-10.5093
གཟུང་	-10.5094
དཔལ་འབྱོར་དང་	-10.5097
སྐ	-10.5098
སྣོད་	-10.5099
ག་ར་གི་	-10.5099
རོ་ཁྱི་ཚུ་	-10.5103
རྨ	-10.5104
▁པད་མ་འདི་	-10.5104
ངེས་གཏན་ཨིན།	-10.5104
ཁོ་གིས་ཨ་ཕི་	-10.5105
་ཆི་ཡི།	-10.5106
ཙ་ལས་	-10.5106
ཁྱིམ་ནང་ལྷོད	-10.5109
སྤྱི་ལོ་༢༠༡༧	-10.511
▁སློབ་དཔོན་	-10.5111
རྒྱ་མཚོའི་	-10.5111
གིས་ང་བཅས་ཀྱི་	-10.5116
ན་ཚ་	-10.5118
རྩིས་ཐོ་	-10.5119
▁པར་	-10.5122
བྲི་	-10.5122
ཐལ་ནུག།	-10.5124
བསྒྱུར	-10.5124
གཏངམ་མས།	-10.5124
ཕོ་ཚོད་དཔག	-10.5125
འུ་སྡུག་	-10.5126
ནམ་དུས་	-10.5132
༢༦	-10.5133
དང་པད་མ་	-10.5135
ཅན་དང་	-10.5136
བཏོན་ནི་	-10.5138
་ཡོད་མི་	-10.5138
ག་ཅི་ཅིག་འབད	-10.5139
ཨེབ།	-10.5139
གྲངས་སུ་འཛུལ	-10.514
བ་ཡང་	-10.5144
ཊ་ལུ་	-10.5145
ཊ་གིས་	-10.5147
ཆུང་ཤོས་	-10.5147
ཧ་སག་འགྱོ	-10.5148
ལྕ	-10.5149
འི་དོན་ལུ་	-10.5149
བཀག་དམ་	-10.5149
འཐོབ་འོང་།	-10.515
རྒྱ་ནག་	-10.515
ཁོདམ་	-10.5151
བཞག་ད།	-10.5152
ཀརྨ་དང་གཅིག་ཁར་	-10.5154
བཙུགས་མི་	-10.5154
་ཟེར་མོ་གིས་མནོ	-10.5156
ཊ་འདི་	-10.5157
མེ་རི་ལུ་	-10.5157
ཉེས་འཛུགས་	-10.5158
གཅིག་ར་	-10.5159
བྱོན་པ་ལེགས་སོ།	-10.5159
སྔར་སྲོལ་	-10.5161
ངལ་འཚོ་	-10.5161
རྫོགས་སོ་ནུག།	-10.5161
▁དཀར་སངས་འདི་	-10.5163
མཐོང་ཚུལ་	-10.5166
རྟིང་བདའ	-10.5169
ཅན་ཨིན་མས།	-10.5169
སྐུལ་སློང་འབད	-10.517
མཆོག་	-10.517
འདི་ག་ཅི་	-10.5172
མཐར་	-10.5173
དྲིས	-10.5173
མིག་འཕྲུལ་	-10.5174
དེ་འབདཝ་ལས་	-10.5174
གྲོས་འཆར་འདི་	-10.5175
▁ང་ལུ་ཏི་རུ་	-10.5175
ཡོན་	-10.5181
ཉེན་བརྡ་འབད་ཡི།	-10.5182
ཚུ་ག་དེ་སྦེ་	-10.5186
ཟ།	-10.5188
སྒོ་ཁར་	-10.5188
བགོ་བཤའ་	-10.5189
འཐོནམ་	-10.5191
་རུང་བཏུབ།	-10.5191
ཨ་ཕི་དེ་ལོག་སྟེ་	-10.5195
འབད་མ་ཚུགསཔ་	-10.5195
ཞུ་ཡིག་བཙུགས	-10.5203
▁ཀུན་བཟང་དང་	-10.5203
ཁོག་ཁོ་	-10.5204
འབད་ནི་ཨིན་ན་ཤེས	-10.5205
ཤུགས་ཅན་	-10.5205
▁ཀུན་ལེགས་དང་	-10.5206
བ་ཅིན་	-10.5206
ཐུག་རྐྱེན་ནང་	-10.5208
ཁ་ཐུག་ལས་	-10.521
སྡོད་དགོ་པས།	-10.5213
སེམས་ཤུགས་བྱིན	-10.5215
འབད་དོ་བཟུམ་	-10.5215
▁དབང་པོ་གིས་	-10.5216
ཆུ་འདི་	-10.5219
དངུལ་འཛིན་	-10.5219
སླབ་མི་ག་ར་	-10.5219
༢ལུ་	-10.5221
་དགོ་	-10.5224
ཀྲིག་ཀྲི་སྦེ་	-10.5224
བཞེས་སྒོ་འདི་	-10.5226
འདི་ཁྱོད་རའི་	-10.5226
གཅིག་ཁར་སྡོད	-10.5228
གོ་ལེ་སྦེ་	-10.5228
▁གནམ་གྲུ་	-10.5228
མིག་ཏོ་ཞརཝ་	-10.5229
ཁུངས་མེདཔ་	-10.5231
▁མཱ	-10.5231
བུཚ་འདི་	-10.5232
འཛོལ་བ་ཚུ་	-10.5236
ཨམ་	-10.5236
བློ་འགྱོད་	-10.5237
ཅིག་ཉོ་ནུག།	-10.5238
སྡེབ་	-10.5246
གིས་སྦེ་	-10.5247
▁ཀུན་དགའ་གིས་	-10.5249
ཁྲིམས་སྲུང་འགག་	-10.5249
གོང་སྦོམ་	-10.525
བརྩི	-10.5251
དང་འཕྱད	-10.5253
▁ང་ཨ་ཕི་	-10.5256
དཀའ་ངལ་ནང་	-10.5257
▁ང་གིས་ལྟ་བ་ཅིན་	-10.5257
སྐར་མ་སུམ་ཅུ་	-10.5258
ཐོ་ཡིག་	-10.5259
ཞན་	-10.5259
་བའི་རེ་བ་ཡོད།	-10.5261
ཟུར་ཁ་	-10.5263
བྱིན་མི་འདི་	-10.5263
ལེ་ཤ་སྦེ་	-10.5264
ཕྱད་	-10.5265
རིག་འཛིན་དཔལ་སྒྲ	-10.5265
གསེར་གྱི་	-10.5267
སྡོད་རུང་	-10.5268
ཅིག་དགོ།	-10.5269
ཐོགས་	-10.527
ཁ་འཆམ་	-10.5271
དོགས་པ་ཆགས	-10.5275
དགོཔ་སྦེ་ཨིན་པས།	-10.5276
ག་དེམ་ཅིག་གི་	-10.5278
འོང་ག་ཟེར་	-10.5279
▁ཇཱ	-10.528
ཉུང་སུ་ཅིག་	-10.528
▁རེལ་ལི་	-10.5281
འ་ནི་	-10.5282
▁དཔལ་འབྱོར་	-10.5284
ཡོད་ག་མེད་ག་	-10.5289
རྩ་རྒས་ཅིག་	-10.5292
ལྟར་དུ་	-10.5293
ཐི་	-10.5295
▁ང་གིས་ཀུན་ལེགས་	-10.5295
ང་ལུ་སླབ་གནང་།	-10.5296
གནས་ཡུན་	-10.5296
དེ་ལོག་སྟེ་	-10.5297
ལྔ་བཅུ་	-10.5299
▁ག་	-10.53
དགའ་བས་ག	-10.53
ལྷ་སྒྲོན་	-10.5303
བགའ་	-10.5304
▁ལམ་	-10.5305
རྐྱབ།	-10.5305
སྤྲོ་བ་བཏོན	-10.5312
མེན་པ་	-10.5313
ཞི་	-10.5314
མ་བཏང	-10.5315
སྦུག་ལུ་	-10.5317
ཉིན་དེབ་	-10.5319
་ཅིག་ཨིན།	-10.5319
མ་གཞི་	-10.5319
སྐྱ་བཏོག	-10.532
དེང་སང་གི་	-10.532
མེདཔ་བཟོ	-10.5323
ང་བཅས་ཀྱིས་ཁྱོད་	-10.5324
འདྲོག་བཅུག	-10.5326
སོའི་དྲུང་འཚོ་	-10.5328
མཛེས་ཆ་	-10.5332
གི་ཁྱིམ་	-10.5332
ཁོ་གིས་དཔལ་མོ་	-10.5334
▁ཁོང་གཉིས་ཆ་ར་	-10.5334
མནོ་དོ་བཟུམ་	-10.5336
་མི་དང་	-10.5336
བློ་འདོད་མེདཔ་	-10.534
ག་དེམ་ཅིག་འདུག	-10.5342
སེམས་མ་དགའ་བས།	-10.5342
སྐྱོན་བརྗོད་	-10.5343
ཤུ	-10.5345
འབྱང་	-10.5346
དགའཝ་སྨོ	-10.5346
ཡོད་པ་ཅིན་ང་གིས་	-10.5348
དགོ་མི་ག་ར་	-10.5349
གནས་སྟངས་ནང་	-10.5349
▁ཁྲོམ་	-10.535
▁ང་ད་རིས་ཕྱི་རུ་	-10.5352
་ནི་བཟུམ་	-10.5353
དོན་གྲུབ་ཀྱིས་	-10.5353
ག་ནི་ཡང་མེད་པར་	-10.5355
པ་འོང་ཟེར་	-10.5356
རྗེས་སུ་འཇུག	-10.5362
རྒྱང་	-10.5364
མགུ་འཐོམ	-10.5364
ལུ་ག་ཅི་སྦེ་	-10.5364
དེ་འབད་མི་འདི་	-10.5365
ཨིནམ་བཟུམ་འདུག།	-10.5366
སེར་	-10.5368
་མི་འདི་ཁྱོད་	-10.5369
རྐ	-10.5372
ཀྱིས་ང་ལུ་	-10.5378
ལམ་ལུགས་འདི་	-10.5379
ིང་	-10.5381
གྱིས་ཁོ་	-10.5381
ལེགས་ཤོམ།	-10.5381
འཆར་གཞི་བརྩམ	-10.5381
བཏོན་བཏང་ཡི།	-10.5383
ཁ་ལུ་	-10.5385
གཉིས་ཆ་ར་ལུ་	-10.5386
བཱི་	-10.5387
▁བདུན་ཕྲག་	-10.5388
་དོ་ཟེར་	-10.539
གལ་སྲིད་ཁོ་གིས་	-10.5392
མ་འབདཝ་སྨོ	-10.5393
ང་ལུ་མ་སླབ།	-10.5394
བཟོ་བའི་	-10.5396
འཐུངམ་ཨིན	-10.5397
▁མི་ཚེ་	-10.5402
▁ཁོ་གིས་ང་བཅས་	-10.5404
མཐར་ཕྱིན་	-10.5405
ག་ཅི་འབད་ནི	-10.5406
ཁོ་རའི་ཆ་རོགས་	-10.5407
ལྦ་	-10.5407
བཙུགསཔ་ཨིན།	-10.5409
ཨཱ་	-10.5413
▁ང་ལུ་ཁྱོད་	-10.5414
ཀཱར་ཅིག་	-10.5415
▁དེ་ཁྱོད་ཀྱི་	-10.5418
རྟིང་	-10.5421
ཎ	-10.5421
ཆོས་འཛོམས་ཀྱིས་	-10.5422
གསརཔ་ཅིག་ཉོ	-10.5422
ཨུ་ཚུགས་	-10.5424
ས་ལས་	-10.5425
ལམ་འགྱོ་ནི་	-10.5426
དགོཔ་ཡོད།	-10.5426
སླབ་ཨིན་ན	-10.5427
བསུན	-10.543
མཆོངས	-10.5431
ཎ་	-10.5432
ནཌ་	-10.5433
ཀིང་	-10.5434
རྒྱུག་རྩེད་	-10.5435
▁ནཱ་ལས་	-10.5437
མེདཔ་བཏང་ནུག།	-10.5438
གཡོ་སྒྱུ་	-10.5439
▁ང་གིས་ཡང་ཅིན་	-10.5442
ཕྱིར་བཏོན་	-10.5443
འཚོལ་ནི་ལུ་	-10.5444
ཚོང་མགྲོན་	-10.5444
རང་གཤིས་	-10.5446
་པས་ཟེར་སླབ་ཅི།	-10.5447
མཁས་དབང་	-10.5448
ནིའུ་	-10.5449
ཁོ་རའི་བཟའ་ཚང་	-10.5452
▁དབང་ཕྱུག་	-10.5455
ཤེས་ཚད་	-10.546
ག་བཟུམ་ཅིག་	-10.5464
འདྲི་	-10.5464
ནི་ན	-10.5465
ཞི་བ་	-10.5465
ལོ་གསུམ་གྱི་ཧེ་མ	-10.5467
འབྲི་མི་	-10.5468
ཡིག་སྣོད་	-10.5469
ཁྲིམས་ཁང་	-10.5469
དུས་རྒྱུན་གྱི་	-10.5471
དྲ	-10.5473
ལས་རིམ་ཚུ་	-10.5475
▁ཁོ་གིས་འདི་	-10.5477
ཀུན་	-10.5478
འཛུལ་ཡི།	-10.5479
འདི་ག་ཅི་ཨིན་ན་	-10.5483
ངོ་ཤེས་མི་	-10.5483
བསྡམས་ནུག།	-10.5484
འདི་གནས་སྐབས་	-10.5486
ངེས་བརྟན་	-10.549
ལུ་སྡོདཔ་ཨིན།	-10.5492
▁འདི་ངེའི་	-10.5494
ཅིག་འབདཝ་ལས་	-10.5494
བསྡམས	-10.5499
ཙིགཔ་ཟ་	-10.5501
▁ག་ཨིན་ན་ཅིག་	-10.5502
མཉེན་ཆས་	-10.5502
འབད་དགོ་ཟེར་སླབ	-10.5504
སྨོ་	-10.5505
▁ང་བཅས་འདི་	-10.5506
འགོ་ཐོག་དང་པ་	-10.5506
ལས་ཐག་རིང་སར་	-10.5509
སྲུང་རྒྱབ་	-10.551
ལས་སྣ་	-10.5513
ཚོན་རིས་	-10.5514
གིས་ང་ལུ་ཁོང་	-10.5516
སྒེར་	-10.5518
ས་སྣུམ་	-10.5519
ཤུལ་མའི་ཟླཝ་ནང་	-10.552
གཞ	-10.552
ཆང་འཐུང་ནི་	-10.5521
སེམས་ཁར་བཞག	-10.5521
དཔྱད་རིག་བཏང	-10.5521
ཡིད་ཆེས་བསྐྱེདཔ་	-10.5522
ཞབས་ཏོག་གི་	-10.5523
མནོཝ་	-10.5524
ཤོག་གྲངས་	-10.5525
གིས་ངེ་གི་	-10.5528
▁ཚིག་	-10.5529
ཀྲི	-10.5529
ཆ་མེད་གཏང	-10.5529
ང་བཅས་གཉིས་ཆ་ར་	-10.5533
འདྲོག་སི་སི་ཅིག་	-10.5534
དབྱེ་བ་	-10.5535
ཅིག་འབད	-10.5536
ལྷག་ལུས་	-10.554
ཁོང་གིས་ཨ་ཕི་	-10.554
ཆ་བཞག	-10.5543
སྤྲོ་ཉམས་	-10.5545
ཉོ་དགོཔ་	-10.5545
ཨིན་སྨོ	-10.555
མི་ལེགས་ཤོམ་ཅིག་	-10.555
བྱིནམ་	-10.5552
ཁོང་ར་གི་	-10.5554
མནོ་བསམ་མ་གཏང	-10.5555
ཡོད་མི་ཅིག་ཨིན།	-10.5556
ིན་	-10.5557
་འོང་ཟེར་མནོཝ་མས	-10.5559
བཟའ་འཐུང་	-10.5562
ཤིང་འདི་	-10.5562
ཧབ་	-10.5567
དད་	-10.5568
སྔོ་ཤིང་	-10.5569
གཅད	-10.5571
ཡལ་འགྱོ	-10.5573
བཙོག་	-10.5579
མི་ལ་ལུ་ཅིག་གིས་	-10.558
ལོང་སྡོད	-10.5583
གཅིགཔོ་འདི་	-10.5584
རམ་	-10.5585
འདྲ་བཤུས་	-10.5588
རེ་བ་བསྐྱེད་དེ་	-10.5588
▁གློག་	-10.5588
ཡང་ཅིན་དེ་	-10.5589
སྡོད་འོང།	-10.559
ཡོད་དོ་བཟུམ་སྦེ་	-10.5591
ཁོ་རའི་ཕམ་	-10.5595
འཆར་སྣང་	-10.5598
ད་ནུག།	-10.5598
ལུ་འགྱོ་ནི་	-10.5602
གནང་མི་	-10.5604
ག་ཏེ་སྡོདཔ་	-10.5609
མེན་པས་ཡ	-10.561
སྡོད་གེ།	-10.5615
ཨིན་པས་	-10.5615
འབད་ཟེར་	-10.5615
རུ་ཏོ་	-10.5617
་ནིའི་ནང་	-10.5621
ཨ་རྟག་གི་	-10.5621
རྒྱབ་ལས་	-10.5622
ཐོན་རིམ་	-10.5623
དགོ་འདོད་	-10.5623
འབད་དགོ་མནོཝ་	-10.5624
ལ།	-10.5625
བཀོ་ནུག།	-10.5625
རླབས་	-10.5627
མ་གཏང	-10.5628
ཨའི་གིས་	-10.5629
གསརཔོ་	-10.563
བློ་སྤོབས་	-10.5631
ལྷབ།	-10.5631
ཐོཝ་	-10.5632
ལུ་བློ་གཏད	-10.5632
ལུ་མི་	-10.5633
མ་ཤེས	-10.5636
ག་གིས་འབད་ཡི་ག་	-10.5636
རྟ	-10.5638
བཏེག	-10.5639
རྒྱལ་སྤྱི་	-10.5639
མཛུབ་དཀྱི་	-10.5639
མཚོའི་མཐའ་མར་	-10.564
མགུ་འཐོམ་	-10.5641
མཆོང	-10.5641
ཁོ་ལས་	-10.5641
▁དཱན་གྱིས་	-10.5643
གཡང་ཟ	-10.5643
རྡོག་	-10.5644
▁ལྷག་པ་	-10.5644
ཟད་འགྲོ་གཏང	-10.5648
འཕྲལ་འཕྲལ་སྦེ་ར་	-10.5649
དགོས་དོན་	-10.5649
▁ལས་སྐྱིད་ཀྱིས་	-10.5651
ཕེརེནཆི་ལྷབ་	-10.5651
འདི་མཇུག་བསྡུ	-10.5656
ཤེས་ནི་	-10.5656
སྐྱབས་	-10.5664
ཤོག་གུ་	-10.5665
གིས་མོ་གི་	-10.5668
ལག་ལེན་འཐབ་མས།	-10.5668
ལས་དྲག	-10.567
ཇཱོན་ལུ་	-10.5675
ཨ་ཕི་འདི་འབད་ནི་	-10.5675
ཁྱད་མེད།	-10.568
འབྲུག་པའི་	-10.5682
ཡོངས་འབྲེལ་ནང་	-10.5686
མ་འབག	-10.5694
ཚར་རེ་	-10.5696
འདུག་དེ་འབདཝ་ད་	-10.5698
སྤྱ་རྩི་པེམ་འབར་	-10.5698
གིས་ཁོང་གི་	-10.5699
བརྙན་འཁོར་	-10.5699
མཐོངམ་མས	-10.5699
་དེས་ག	-10.5701
▁དབང་མོ་	-10.5702
ཟ་ཚང་	-10.5702
▁ང་བཅས་ཀྱིས་ཀརྨ་	-10.5702
ཤུགས་ཚད་	-10.5707
གནད་དོན་ཚུ་	-10.5708
▁ང་མོ་	-10.5708
ཟ་ཁང་འདི་	-10.571
▁ཉིམ་འདི་	-10.5712
ལོ་རྒས	-10.5714
བཏོགས	-10.5715
གདམ་ཁ་རྐྱབ་ཅི	-10.5715
སྐར་	-10.5721
འབད་འབདཝ་ཨིན།	-10.5723
སླབ་དོ་བཟུམ་	-10.5724
གྲུ་བཞི་	-10.5724
ཕར་ཚུར་	-10.5729
འབྲེལ་བ་འཐབ་ནི་	-10.5733
སེམས་ཀྱི་	-10.5734
རྩོམ་སྒྲིག་པ་	-10.5735
▁ང་སྨིན་དྲུག་	-10.5738
དེ་གིས་སྦེ་	-10.5738
་ནི་གི་དཔའ་བཅམ་	-10.5738
མེ་རྐྱེན་	-10.574
▁ཁྱེད་	-10.5741
བཟོ་མི་འདི་	-10.5742
ལྷན་ཐབས་	-10.5746
སྐད་སྒྱུར་འབད	-10.5749
འབྲི་ཤོག་	-10.5758
དེ་འབད་དགོ	-10.5758
ངོ་སྤྲོད་	-10.576
སླབ་ནིའི་	-10.5762
མཐོང་ཚུགས	-10.5763
འཐོན་འོང་ག	-10.5767
བཙབས་རིས་	-10.5767
བློ་བདེ་པག་པ་	-10.5767
རྒྱུ་སྐར་	-10.5767
▁གནམ་གྲུ་འདི་	-10.5769
ག་ནི་ཡང་མ་སླབ	-10.577
ཐོན་ཏེ་	-10.5775
འགྲུལ་འཕྲིན་གཏང	-10.5778
༥ལུ་	-10.578
འཁྱིད་ཤོག	-10.5782
ད་ཚུན་	-10.5784
ཞབས་ཁྲ་འདི་	-10.5785
ཚལ་མ་ནང་	-10.5785
ཌབ་ལུ་	-10.5787
སྡོད་སྦེ་	-10.5788
ཊསི་	-10.5789
འཚོལཝ་	-10.579
གྲལ་གཏོགས་འབད	-10.5791
བཱསི་འདི་	-10.5792
བློ་སླབ་ནི་ལུ་	-10.5793
་མི་འདི་ཨིན།	-10.5793
་པ་ཅིན་ང་	-10.5794
ལོགས་	-10.5797
འགོ་དཔོན་གྱིས་	-10.5798
ཱན་	-10.5799
མང་ཤོས་ཀྱིས་ར་	-10.5802
ཁེ་ཀོ་	-10.5803
ངོ་ཤེསཔ་	-10.5805
▁ཁྱོད་ནཱ་	-10.5806
སེམས་ཤོར	-10.5808
འཐབ་འཛིང་འབད	-10.5809
ངོ་ཚ་ནུག།	-10.581
ལྟ་རྟོག་	-10.581
སྣང་མེད་སྦེ་བཞག	-10.581
གཏན་འཁེལ་	-10.5812
ྭ་	-10.5812
དགའ་འོང་ཟེར་	-10.5812
ག་ཅི་འབད་ནི་གི་	-10.5814
འཆར་གཞི་བརྩམས་ཅི	-10.5816
ཞལ་	-10.582
འདི་ང་བཅས་ཀྱིས་	-10.5822
བཟུམ་མ་མཐོང་།	-10.5827
▁དྲི་བ་	-10.5828
ཕྱད་པར་	-10.5831
▁ཤེས་རབ་	-10.5833
བྱང་ཉེས་	-10.5838
ལྷོད་པའི་སྐབས་	-10.5841
བཏགས་ནུག།	-10.5843
ཕོ་རྒས་	-10.5844
འཐོབ་ནི་ལུ་	-10.5844
རྒྱལ་ཁ་མི་འཐོབ	-10.5844
ཚ་གྱང་ལང་ནུག།	-10.5846
ཚ་ངེར་བཏོན་ཏེ་	-10.5847
ཁ་ཉེས་བཀལ	-10.5847
་ནི་མི་འོང།	-10.5848
གནས་སྐབས་ཀྱི་	-10.585
ངོ་ཚ་	-10.5851
དག་པ་ཅིག་ཉོ	-10.5856
རྒྱ་ཚད་	-10.5859
རྒྱ་གར་གྱི་	-10.586
ཞེན་	-10.5861
འགོ་མ་བཙུགས	-10.5863
གནས་སྟངས་ཀྱི་	-10.5864
ཡེ་	-10.5869
སྡོད་འོང་ག	-10.5869
ག་ཅི་ར་འབད་རུང་	-10.587
བཞག་གནང་།	-10.587
ད་གཅིག་ཁར་	-10.587
ལྟེ་བ་འདི་	-10.5875
ཁྲོམ་ཚོགས་	-10.5876
་ཟེར་ཁས་བླངས་འབད	-10.5876
ཚུ་གིས་ཁོང་རའི་	-10.5877
བཅག་	-10.5877
བཟུམ་འདུག	-10.5877
▁ཀཱར་འདི་	-10.5878
་ནི་གི་མནོ་བསམ་	-10.5879
བཀོ་ཡི།	-10.5882
ཡོདཔ་མ་ཚད་	-10.5883
སྤྱོད་ངན་	-10.5884
ཐམ་	-10.5884
དཔེ་སྐྲུན་	-10.5886
ཛ་	-10.5886
ཧེ་མ་གི་	-10.5887
འཚོལ་ཐོབ་ཅི།	-10.5889
▁དཔལ་ལྡན་གྱིས་	-10.5891
གུ	-10.5892
་རུང་ང་གིས་	-10.5892
རྟིང་བདའ་	-10.5893
འདི་འབད་ནི་ལུ་	-10.5893
རྫོགསཔ་	-10.5897
སྲིད་དོན་གྱི་	-10.5898
▁ང་གིས་མོ་གི་	-10.5899
མ་བྱིན	-10.5901
མོ་རའི་ཨའི་	-10.5907
ལུ་བཀའ་དྲིན་བསམ	-10.5907
ཀརྨ་དབང་མོ་གིས་	-10.591
ོད་	-10.5911
▁སྤེན་པ་གིས་	-10.5913
དེ་མི་འབད་ཟེར་	-10.5913
བཀག་འཛིན་	-10.5917
རྒ	-10.5918
▁ཁྱོད་ར་གིས་	-10.5918
ཡུན་རིང་	-10.5918
དཔེ་རིས་	-10.5921
བསྐྱེད་བཅུག	-10.5921
འཐབ་ནི་	-10.5921
འགྱོ་ནི་ཨིན་ན་	-10.5922
▁ད་ང་བཅས་	-10.5926
མ་བྱུང	-10.5929
་ག་ཤེས	-10.5929
སེལ་ཐབས་	-10.593
དོམ་	-10.5931
བཙ	-10.5938
་ནི་ལུ་གྲ་སྒྲིག་	-10.5939
ཆུ	-10.594
གཞན་དང་མ་འདྲ་བ	-10.5942
གནང་ནུག།	-10.5943
རྐྱངམ་ཅིག་ཨིན།	-10.5944
་དོ་བཟུམ་སྦེ་ར་	-10.5945
མ་བརྗེད	-10.5948
མཐའ་དཔྱད་	-10.5949
དྲིས་ནུག།	-10.5951
འབད་ནི་སྨོ	-10.5952
ངོ་མ་ཨིན།	-10.5955
མ་ཤེས་ཡ	-10.5956
བདུན་ཕྲག་ནང་ལུ་	-10.596
བལྟ་བར་འགྱོ	-10.5961
ཨ་པའི་	-10.5961
ལྷོད་ཅི	-10.5961
གྱི་ཤུལ་ལས་	-10.5964
ཨིན་ཟེར་སླབ	-10.5964
གི་རྩ་བར་	-10.5966
གཡིབ་བཞག	-10.5971
སྒུག་	-10.5972
▁ང་གིས་ཟླ་བ་འདི་	-10.5972
སྙན་	-10.5975
ཤེས་ས་མཐོང་ས་	-10.5977
༧ལུ་	-10.5978
ང་བརྟན་བརྟན་ཨིན།	-10.5981
གོངམ་	-10.5982
་ནི་ཨིན་ན་སྟོན	-10.5983
སློབ་ཁང་ནང་ལུ་	-10.5987
༠༠	-10.5988
བཏུབ་སྦེ་	-10.5989
སི།	-10.5991
ཧེ་མ་བཟུམ་སྦེ་	-10.5992
▁ཀཱར་	-10.5992
ཆུ་ཚོད་དྲུག་	-10.5995
སྦེ་མཐོང་ཡི།	-10.5998
རྐང་སྟོང་སྦེ་	-10.6
ཅིག་ཨིན་མས	-10.6002
ལྷོད་དེ་	-10.6004
གལ་	-10.6005
བལྟཝ་ཨིན།	-10.6008
མི་སྔུ	-10.6009
་ཟེར་ང་	-10.6009
གི་ནང་འཁོད་ལུ་	-10.6012
་ཐངས་འདི་	-10.6012
པུས་མོ་	-10.6013
ཀརྨ་རྐྱངམ་གཅིག་	-10.6014
ཁ་ཤགས་	-10.6014
རིསི་	-10.6015
ཤེས་ཤེསཔ་	-10.6015
རན	-10.6016
བསྲུང	-10.6017
སངས	-10.6019
སེམས་དགའ་ནུག	-10.6019
ཁ་ཤགས་རྐྱབ	-10.602
▁ཁྱོད་ང་	-10.6022
ཐོབ་པའི་	-10.6022
བློ་སླབ་སྟེ་	-10.6024
གིས་ཨ་རྟག་ར་	-10.6025
ལུ་ཀྲོབ་མདའ་རྐྱབ	-10.6025
ར་སྡོད་ཡི།	-10.6026
དོ་བཟུམ་མཐོང་མས།	-10.6028
་འོང་ག་	-10.603
མོ་གིས་ཨ་ཕི་	-10.6031
་ནི་དགའ།	-10.6033
པད་མོ་གིས་	-10.6034
▁འདི་གིས་ང་	-10.6034
སྒྲིང་ཁྱིམ་འདི་	-10.6035
མཁས་མཆོག་ཅིག་	-10.6035
གདངས་	-10.6038
▁བུཚ་	-10.6041
འབག་འོང་	-10.6042
ངམ་	-10.6043
ནི་གི་	-10.6045
ལྷབ་ནི་ལུ་	-10.6045
ག་ཏེ་ཡོད	-10.6059
གོ་དོན་	-10.6059
རིང་ཤོས་	-10.606
ཆ་རོགས་ཀྱི་	-10.6064
ལྗིད་ཅན་	-10.6064
ཉི་མའི་ལྟོ་ཟ	-10.6064
འགལ་	-10.6066
མངར་	-10.6068
འདི་བཟུམ་མའི་	-10.607
་བའི་བསྒང་	-10.607
སྣང་མེད་བསྐྱུར་	-10.607
▁ཁ་	-10.6071
ཁ་རྗེ་བཟང་ནུག།	-10.6071
བྱིན་ཏེ་	-10.6074
▁ཕུན་ཚོགས་ཀྱི་	-10.6075
གྲ་སྒྲིག་ཡོད།	-10.6078
འགྱོ་འགྱོཝ་	-10.6078
▁གློག་རིག་	-10.6079
▁བདེ་སྐྱིད་	-10.6079
འབད་མི་བཅུག།	-10.608
པུ་	-10.608
ང་ནཱ་ལུ་	-10.6082
▁ཁོ་རའི་	-10.6085
གི་དཀའ་ངལ་	-10.6086
▁བུམོ་འདི་	-10.6088
བཙན་སྐྱོགས་རྒྱལ	-10.6088
ཌ་ལུ་	-10.6089
༡༩༩	-10.609
དག	-10.6093
ཚུལ་མཐུན་	-10.6094
ཅིག་མཐོང་ཡི།	-10.6095
སོ་བཏབ	-10.6095
ནའི་	-10.6098
ལེ་ཤ་གི་	-10.61
སྤྱོད	-10.61
རྒྱང་བསྒྲགས་	-10.6101
ཊན་	-10.6103
རྩེད་ནི་	-10.6104
ཨིནམ་མ་ཤེས།	-10.6104
ལུ་དགའ	-10.6105
ཁོའི་	-10.6106
མི་ལྷོད	-10.6108
བསླབ་སྟོན་	-10.6109
མང་ཤོས་ཅིག་གིས་	-10.6109
རོ་ཁྱི་ལུ་	-10.6109
ཟོ	-10.6111
▁གནད་དོན་	-10.6112
ད་ང་	-10.6114
་ནི་གི་རྩིས་རྐྱབ	-10.6115
ཁལ་གཅིག་	-10.6116
འབད་ནུག་ཟེར་	-10.6117
ག་ཅི་དགོཔ་ཨིན་ན་	-10.6121
ཁྲིམས་སྲུང་	-10.6121
སྤྱི་ལོ་༢༠༡༣ལུ་	-10.6121
བློ་འདོད་མེད	-10.6126
སོ་ནམ་	-10.6127
▁ན་ཧིང་	-10.6128
དབྱངས་སྐྱིད་ལུ་	-10.6129
དེ་གི་དོན་ལུ་	-10.6129
འགྱོ་རུང་	-10.6129
▁དབའི་	-10.613
ང་བཅས་གཉིས་	-10.6131
མོ་རའི་རྨགཔ་	-10.6131
ཁྱེད་	-10.6131
་ཞིན་ན་	-10.6133
ཟླ་བ་ལུ་	-10.6136
ཅིག་འབག	-10.6137
དཔེ་སྐྲུན་འབད	-10.6139
ཨིང་ལིཤ་ནང་	-10.614
ག་ཅི་ལུ་ཡང་	-10.6141
རིན་ཐང་	-10.6149
སྦྱིན་པ་	-10.6151
▁ཀ་	-10.6153
་འོང་ཟེར་ཤེས་ཅི།	-10.6154
་ཟེར་ཁོ་གིས་	-10.6159
ཀ་ལུ་	-10.6162
▁ཁྲོམ་འདི་	-10.6163
ཁོ་གི་ཨ་པ་	-10.6166
་པས་	-10.6167
ནང་འགྱོ་ནི་	-10.6167
འདི་མོ་གི་	-10.6169
གཞི་བཙུགས་	-10.617
ཁོ་རའི་མི་ཚེ་	-10.617
ཁྲལ་གྱི་	-10.6171
འདྲེན་སྐས་	-10.6176
་ཟེར་ཤེས་པས།	-10.6181
▁འཛམ་གླིང་གི་	-10.6182
ཨིན་ན་བརྟན་བརྟན་	-10.6183
འཇིགས་	-10.6185
དམར་	-10.6188
རྒྱ་ནག་ལུ་	-10.6188
་ལི་	-10.619
སྐརམ་	-10.6191
ལོ་བསྟར་བཞིན་དུ་	-10.6192
འབྱིད་	-10.6192
མོ་གིས་ང་ལུ་	-10.6192
ཕགཔ་	-10.6195
སྨོན་ལམ་བཏབ	-10.6196
ཅིག་འོང་།	-10.6197
དགའ་ཚོར་	-10.6197
བློ་གཏད	-10.6198
▁འཇམ་དབྱངས་ཀྱིས་	-10.6211
ཨང་དང་པ་	-10.6213
མེ་ལོང་	-10.6217
འབད་དགོ་མནོ	-10.6218
ཆ་རོགས་འབདཝ་ཨིན།	-10.6221
བཏོན་བཏང་ནུག།	-10.6221
ཤེས་ཟེར་མནོཝ་མས།	-10.6224
་འོང་ག་ཟེར་	-10.6225
ཧ་གོ་ནི་ལུ་	-10.6226
མ་ཤི་བར་སྡོད	-10.6226
གོ་སྐབས་འདི་	-10.6228
ཁོ་འདི་	-10.6229
འབྲེལ་བ་འཐབ།	-10.623
སྟག་	-10.6231
དགོ་ནི་སྨོ	-10.6234
▁ང་གིས་འབདན་	-10.6236
ཅིག་གི་དོན་ལུ་	-10.6237
གྱང་གུར་	-10.6237
རྩལ་རྐྱབ་པར་	-10.6239
རེལ་	-10.6239
ཉེན་ཅན་	-10.6244
མི་ཚེ་གི་	-10.6244
རཌ་	-10.6245
ཀརྨ་དང་དཔལ་མོ་	-10.6245
བཏབ་ཅི།	-10.6246
བཟང་མོ་ལུ་	-10.6247
དུས་ལུ་	-10.6247
ནམ་ཡང་མ་	-10.6248
་དེ།	-10.6249
མཁའ་འགྲོ་	-10.625
འབད་དགོཔ་ཡོད།	-10.6252
སྐབས་ཅིག་	-10.6252
ག་ཨིན་རུང་	-10.6254
ཁྱོད་ཀྱིས་ཤེས	-10.6256
ཡིག་ཚང་ནང་ལུ་	-10.6257
དཔའ་ཉམས་	-10.626
ཚེ་རིང་འདི་	-10.6264
དགོ་ཟེར་མནོཝ་མས།	-10.6266
ལོ་བསྟར་	-10.6267
བདུན་ཕྲག་གཉིས་	-10.6269
ལཱེ་	-10.6271
སྦ་བཞག	-10.6272
▁ཨོ་རྒྱན་	-10.6273
བསྒྱིར།	-10.6277
▁ང་ད་	-10.6278
སྒར་	-10.6279
ཟས་སྟོན་ནང་ལུ་	-10.6279
མཐོ་རིམ་	-10.628
་ཏེ་ཡོད།	-10.6281
ཨའི་གི་	-10.6284
འདྲན་འདྲ་	-10.6286
གསུམ་གྱི་རིང་ལུ་	-10.6287
གིས་ག་ཅི་	-10.6291
▁ཨེན་	-10.6293
ཤོབ་ཟེ་	-10.6294
་ཡི་ར་	-10.6297
འདི་འབད་ནི་	-10.6304
ལྷག་ཅི།	-10.6307
ལོ་ཨ་རྟག་ར་	-10.6308
ཐུག	-10.6309
བསྒྲིག	-10.6315
སེམས་མ་དགའཝ་	-10.6319
རྒྱལ་ཁ་འཐོབ་ཚུགས	-10.6322
བིརི	-10.6324
ཡོདཔ་ཨིནམ་	-10.6325
ཁྱོད་ཀྱིས་མོ་ལུ་	-10.6326
བཀོ་བཞག་	-10.6328
▁དེ་གི་སྐོར་ལས་	-10.6331
ཐག་རིང་ས་	-10.6332
ན་ལོན་	-10.6332
འགོ་བཙུགས་མི་	-10.6335
ཁྲི་འཛིན་	-10.6336
སྦལཔ་	-10.6336
བླུན་པོ་	-10.6337
ང་འདི་	-10.6338
མགུ་རྙོག་དྲགས་	-10.6338
ཅུང་གིས་	-10.6338
བློ་སླབ་དགོ་པས	-10.6339
ཚོགས་སྟོན་	-10.6342
མེ་སྦྱང་	-10.6343
ཐུག་རྐྱེན་བྱུང	-10.6343
གསོལ་རས་	-10.6345
ཟེར་འབོ	-10.6345
ཁོང་གིས་ཁོང་རའི་	-10.6346
▁ཨོ་རྒྱན་དང་	-10.6346
རྫམ་	-10.6347
▁སེངྒེ་	-10.6347
མཱོན་	-10.6348
པའི་ནང་	-10.6349
▁ཁྱོད་ཨ་རྟག་ར་	-10.6349
སྐྱེས	-10.6349
ལཱ་འབད་དེས།	-10.635
ཉོ་ཚོང་	-10.635
མི་འཐོབ།	-10.6352
མགྱོནམ་	-10.6352
་ང་གིས་	-10.6353
▁བཟང་མོ་གིས་	-10.6353
བཞག་མི་ཚུགས།	-10.6354
གི་སྐབས་ལུ་	-10.6355
ཚར་གཅིག་གུ་	-10.6355
འཐོབ་མི་	-10.6357
བུམ་པ་	-10.6359
འཚེར་ཁག་ཁ་	-10.636
ཤར	-10.6363
▁མི་ལ་ལུ་ཅིག་	-10.6363
ཊཱ	-10.6364
གྲོས་ཐག་ཆོད	-10.6365
ག་ཡང་མེད།	-10.6365
▁འཆི་མེད་དང་	-10.637
གཟའ་	-10.6371
ནི་ཡོད།	-10.6376
སེམས་མ་དགའ	-10.6377
▁གོང་ཚད་	-10.6378
འཁྲབ་	-10.6381
་མ་ཚུགས་པར་	-10.6384
ལང་ཤོར་	-10.6385
▁ང་གིས་བཀྲ་ཤིས་	-10.6387
བྱུང་མི་	-10.639
རྒྱ་མཚོ་འདི་	-10.6393
▁འ	-10.6396
འགྱོ་ནི	-10.6397
ཕྱི་རུ་གི་ལྟོ་	-10.6397
སྙན་ཆའི་སྡེ་ཚན་	-10.6398
▁ཀུན་ལེགས་	-10.6399
▁བདེ་ཆེན་	-10.6399
ཌ་གིས་	-10.64
མེད་ཟེར་སླབ	-10.6401
ཊོ་ཀི་ཡོ་ལུ་	-10.6402
་མས་ཟེར་	-10.6404
ཟཝ་མས།	-10.6404
མཐོང་པ་ཅིན་	-10.6406
ཀིའུ་	-10.6406
སྟུག་པག་པ་	-10.641
ཧོ་སྒྱེ་	-10.6411
ཕྱི་ཁའི་	-10.6411
ཤོབ་རྐྱབ་ཅི།	-10.6411
ཁྲིམས་ཀྱི་	-10.6413
རྒྱན་ཆ་	-10.6414
་དོ་འོང།	-10.6415
ཅིག་འཐོབ	-10.6415
མ་ལྷོད་པའི་ཧེ་མ་	-10.6416
རིངམོ་ཅིག་	-10.6416
ཁོང་ཚུ་གིས་	-10.6416
་ནིའི་མནོ་བསམ་	-10.6416
་ནིའི་ཐབས་ལམ་	-10.6417
་ནི་མ་བརྗེད།	-10.6417
ཕྲངམ་	-10.6419
འོང་སྦེ་	-10.642
བཟུམ་ཚོར་ཡི།	-10.6421
འགྱོ་འོང	-10.6422
འཇམ་དབྱངས་	-10.6423
ཁྲུས་ཁང་ནང་	-10.6424
སྙོམས་	-10.6425
འཆར་གཞི་བརྩམ་ནི་	-10.6426
མ་དགའ་མི་	-10.6427
སླབ་འོང།	-10.6429
་ནིའི་རེ་བ་	-10.643
མགུ་ཏོག་	-10.6431
བོས་ཊོན་ནང་	-10.6432
ཁྲུས་	-10.6432
ཡོད་ཡ	-10.6434
གིས་གང་ནུག།	-10.6434
གདམ་འཐུ་འབད	-10.6435
ཧའི་	-10.6437
འཐོར་གཏམ་	-10.6439
བཟོད་	-10.645
▁མར་	-10.6452
མི་ཟ	-10.6453
ཕྱག་ཞུ	-10.6453
གྲོ	-10.6453
གཟའ་ཟླཝ་	-10.6454
༦༥	-10.6454
འབདཝ་མས	-10.6456
གཡུག	-10.6456
བརྟག་	-10.6456
དུས་ཚོད་ནམ་	-10.6458
གཟུགས་ཁམས་ལུ་	-10.6459
མ་ཚུགས།	-10.6459
ཁོག་	-10.6462
གྱིས་དཔལ་འབྱོར་	-10.6464
འུར་སྒྲ་	-10.6467
བསམ་གྲུབ་	-10.6467
བཟང་པོ་ལུ་	-10.647
འདི་བཟུམ་གྱི་	-10.6473
▁ཆོས་	-10.6475
འགོ་དང་པ་ར་	-10.6476
ཡོན་ཏན་གྱིས་	-10.6478
ངག་	-10.6479
▁རིག་བཟང་གིས་	-10.6479
བསྒྱིར་	-10.6479
འཛོལ་བ་ཅིག་	-10.648
འབྱིན	-10.6481
ཐུརམ་	-10.6486
▁ཁྱོད་ཡང་	-10.6488
འདི་ང་བཅས་	-10.6488
་རུང་བཏུབ་པས།	-10.6491
ནུག་ཟེར་	-10.6491
ཟིན་ཐོ་	-10.6491
གཡང་	-10.6493
ལུ་བལྟ་ཡི།	-10.6494
དགའཝ་མས་ག	-10.6495
གློ་བུར་གྱི་	-10.6497
ཨིན་རུང་ང་	-10.6498
རོལ་	-10.65
ལེགས་ཤོམ་དང་	-10.65
ཕྱད་ནི་	-10.6506
▁ཀུན་དགའ་	-10.6508
འབད་དགོ་མ་མནོ་བས	-10.6508
གཉིས་ལྟབ་	-10.6509
བསྒུགས་ཏེ་	-10.6511
ཆ་གནས་	-10.6514
ཁུ་སིམ་སི་སྡོད	-10.6516
༠༠༠	-10.6516
སྤྱི་ཟླ་བདུན་པ	-10.6521
ཁོང་ལུ་ཆ་རོགས་	-10.6522
༢༨	-10.6524
སྒྲུབ་	-10.6525
རེ་རེ་བཞིན་	-10.6528
ཆ་རོགས་འབད་ཚུགས།	-10.6531
དང་གཉེན་རྐྱབ	-10.6532
ཧ་ལས་སི་སི་སྦེ་	-10.6534
་པའི་ཤུལ་ལུ་	-10.6535
མཱན་	-10.6536
བུམོ་འཇའ་རིསམོ་	-10.6538
ལིསི་	-10.654
གིས་ཨ་ཕི་	-10.654
ཉེན་སྲུང་དང་ལྡནམ	-10.6547
མོ་གིས་ཁོ་ལུ་	-10.6547
རྒྱུ་ཆ་	-10.6548
▁འདི་ནང་	-10.6548
ཁ་ཙ་ནུབ་མོ་	-10.6552
རྗེ་	-10.6555
ཨ་ནཱི་བཟུམ་	-10.6558
▁གསེར་	-10.6559
▁རོ་བརཊ་གིས་	-10.656
ང་གིས་ཡང་	-10.656
སྤྱང་དྲགས་	-10.6563
ག་ཅི་འབད་དགོ་མནོ	-10.6565
དབྱེ་དཔྱད་	-10.6568
གོཝ་ད་	-10.6568
འཕར་	-10.6574
▁མིས་ཊར་	-10.6576
▁མི་སྡེ་	-10.6577
ལྷབ་ཅི	-10.6578
པ་ཨིན་ན་	-10.6579
ཉུང་སུ་སྦེ་	-10.6582
ཞབས་ཁྲ་ལེགས་ཤོམ་	-10.6586
▁ང་ལུ་ཆ་རོགས་	-10.6587
མི་ཤེས་ག	-10.6591
▁འབྲུག་	-10.6592
▁ངེའི་ཨམ་སྲུ་	-10.6596
བང་	-10.6598
གསལ་སྒྲོན་ལུ་	-10.66
ག་ཅི་ཡོདཔ་སྨོ	-10.66
▁ཏི་རུ་	-10.6604
གིས་དོན་ལུ་	-10.6607
ལུ་ཁོང་	-10.661
ལཌ་	-10.6611
འཇམ་ཏོང་ཏོ་ཅིག་	-10.6611
གཅེས་པའི་སེམས་ཅ	-10.6617
སྟོབས་	-10.6618
ཆགས	-10.6622
སྐྱིད་ཀྱིས་	-10.6622
འབྲས་	-10.6623
ཇེན་	-10.6624
བསྟུན་གྲོས་	-10.6625
ཚན་རིག་གི་	-10.6626
འདྲོགས	-10.663
▁ངེ་གི་ཨའི་གིས་	-10.663
ཁྲིམས་རྩོདཔ་ཅིག་	-10.6635
ངལ་རངས་ཏོག་ཏོ་	-10.6636
གནམ་པང་	-10.6636
དགའ་ཡི	-10.6638
སླབ་ཅི་ཟེར་	-10.664
་མི་ལས་	-10.6641
་བ་ཅིན་ཁྱོད་	-10.6641
མཐུད་འབྲེལ་	-10.6641
▁ང་གིས་ནངས་པ་	-10.6642
འུ་སྡུག་སྟེ་	-10.6643
ཧ་གོ་ནི་	-10.6644
ཟིམ་ཁྲུས་	-10.6646
▁ང་གིས་ཧེ་མ་	-10.6646
ལེགས་ཤོམ་འོང་།	-10.6649
མ་ཅིག་	-10.6652
པད་	-10.6657
རྐྱང་པ་	-10.6657
པའི་སྐབས་	-10.6657
བརྟན་ཏོག་ཏོ་	-10.6659
ཚོད་དཔག་	-10.666
འཕྲུལ་ཨམ་	-10.6663
▁ཨི	-10.6664
ཨིས	-10.6664
ཀཱ་ཕི་ཕོརཔ་གང་	-10.6665
ལྷོད་པའི་	-10.6666
ཌན་	-10.6667
་ཟེར་མ་མནོ	-10.6668
མི་གཏང་།	-10.6672
གཉེན་རྐྱབ་ཅི	-10.6673
▁ཁོ་གིས་ཁྱོད་ལུ་	-10.6673
ངོ་ཚ་སི་སི་	-10.6675
གླ་འཁོར་ཅིག་	-10.6676
འགྲོ་སོང་	-10.6676
འབགཔ་ཨིན།	-10.6676
མཁས་	-10.6678
ནང་ཨིན།	-10.668
ཆུ་ཚོད་དག་པ་ཅིག་	-10.6682
ཤེས་པ་ཅིན་	-10.6682
འཇམ་ཏོང་ཏོ་འདུག།	-10.6682
དང་བཀྲ་ཤིས་	-10.6683
དཔེ་ཆ་ལྷབ་	-10.6684
ག་གིས་སླབ་ཅི	-10.6686
བདེན།	-10.6687
ཧང་ཏོམ་མར་	-10.6688
ཆ་རོགས་ཨིན།	-10.6688
འདི་བཀོ་བཞག	-10.669
གྷ	-10.6691
ཨརཝ་བརྐུ་མི་	-10.6693
་གནང་ལགས།	-10.6694
ེམ་	-10.6695
སྨོ་ཡང་ན་	-10.6699
ལས་འཛིན་	-10.6699
འབད་ནི་དོན་ལུ་	-10.67
ཚོན་གཏང	-10.6702
འགྱུར་ནུག།	-10.6702
▁ཌ	-10.6702
ཅིག་ཡོདཔ་ཨིན།	-10.6704
གི་ཉིནམ་	-10.6704
ཚོགས་པའི་	-10.6707
ལུ་གནོད་པ་	-10.6708
ཡར་དྲག་གཏང	-10.6709
འཕྱི	-10.6709
ཚོགས་རྒྱན་བསྐྱུར	-10.671
▁མའི་ཀཱལ་གྱིས་	-10.671
སྡེ	-10.671
དམིགས་བསལ་དུ་	-10.6711
འཚོ་བའི་	-10.6712
མེ་བཏེག	-10.6714
རིག་འཛིན་ལུ་	-10.6717
བ་ལུ་	-10.6718
དཔེ་ཆ་ལྷབ་ནི་	-10.6721
འཕྲིན་	-10.6723
ཚིག་མཛོད་འདི་	-10.6723
ང་རྐྱངམ་གཅིག་	-10.6724
མཱེ་རི་	-10.6724
ཟུར་ཕོགས་	-10.6724
དགའ་ཤོས་ཅིག་ཨིན།	-10.6725
གྲུ་ཆུང་	-10.6727
ཕེརེནཆི་ལྷབ་ནི་	-10.6728
ནཱ་ལུ་འོང	-10.6728
སྒྲིག་གཞི་	-10.673
འཁྱིད་འོང	-10.6731
གང་ནུག།	-10.6731
ཉག་ཉོག་	-10.6732
བསྐོ་བཞག་	-10.6733
དྲན་ཚོར་	-10.6733
དང་གཅིག་ཁར་འགྱོ	-10.6737
ལས་རིམ་ནང་	-10.6741
་ག་ང་གིས་མི་ཤེས།	-10.6743
མ་ཚོར།	-10.6745
ལགཔ་གིས་	-10.6746
ཐག་རིང་	-10.6748
ཁྱོད་ཀྱི་དོན་ལས་	-10.675
གསལ་རི་རི་	-10.6751
གློག་བརྙན་ཅིག་	-10.6752
་ད	-10.6755
དེ་འབདཝ་	-10.6761
བཟོད་པ་	-10.6761
▁སྒོ་འདི་	-10.6763
འགྱོ་ཡི་ཟེར་	-10.6763
▁ལེ་ལཱ་གིས་	-10.6768
ཁོ་གཅིག་ཁར་	-10.6772
ེག་	-10.6773
མེདཔ་ཨིན་ན	-10.6774
བཀལ་ནི་	-10.6775
ུལ་	-10.6775
▁ཁོ་གིས་ངེའི་	-10.6779
མནམ་མས།	-10.6779
འཆམ	-10.6784
▁ཉིནམ་འདི་	-10.6785
ཟས་བཅུད་	-10.6786
སློབ་རིམ་	-10.6788
་མི་འདི་ཀརྨ་	-10.6788
ཨིན་ན་སྟོན་བྱིན	-10.6789
་མས	-10.679
ངེའི་ཨ་པ་	-10.6791
ག་ཏེ་འབད་རུང་	-10.6792
མི་ཚུགས་པས།	-10.6794
མི་གཞན་	-10.6796
རྩེད་སློབ་	-10.6797
ངེ་གི་སྐོར་ལས་	-10.68
▁ནོར་	-10.68
ལུ་དགའ་ག	-10.68
གཉེན་སྦྱོར་གྱི་	-10.6801
ཕེརེནཆི་སླབ་ཚུགས	-10.6803
▁ཁོ་གིས་ངེ་གི་	-10.6805
གཞིས་ཁང་	-10.6807
རིན་འཛིན་དཔལ་སྒྲ	-10.6811
ཤི་འོང་།	-10.6813
ཟ་ནི་གི་	-10.6813
ནང་དོན་	-10.6814
བསྐྱེད་མི་	-10.6814
ེཊ་	-10.6815
▁ང་ང་ར་	-10.6816
་བྱིན་འོང་ག	-10.6818
འདོད་སྤྱོད་	-10.6819
ག་ཅི་སྐོར་ལས་	-10.682
གཉིད་མ་ལོག་པར་	-10.6822
ཁྲོམ་དཔོན་	-10.6823
ཐབས་ཤེས་འདི་	-10.6824
གི་བློ་འདོད་ཡོད	-10.6824
བློ་སླབ་མི་	-10.6824
་ཞིནམ་དང་	-10.6826
འོངམ་མས།	-10.6826
▁བི	-10.6826
སྙན་ཞུ་འབད	-10.6826
འབད་སྡོད་ཅི།	-10.683
རྒྱུག་འགྲན་	-10.6831
གནམ་གཤིས་འདི་	-10.6832
▁ད་ང་གིས་	-10.6832
▁མེ་འདི་	-10.6834
ཁྱོད་ཀྱིས་ཨ་ཕི་	-10.6835
་དགོ་ནི་མས།	-10.6836
ལས་འགོ་བཙུགས་	-10.6836
བྱམས་	-10.6838
བཞག་དགོཔ་	-10.684
མཐར་ཐུག་ལུ་	-10.6841
རོ་ཁྱི་ཅིག་	-10.6842
་མ་ཚུགས་པ་ཅིན་	-10.6843
བཀོ་བཞག་ནི་	-10.6844
དགོངས་ཡངས་གཏང	-10.685
▁བཞེས་སྒོ་འདི་	-10.685
ཞུ་བ་འབད	-10.6856
དུས་ཡུན་ཆུ་ཚོད་	-10.6857
འོངམ་	-10.686
བྱིན་དགོ།	-10.6861
ཧན་ཏོང་ཏོ་	-10.6863
གཞོན་	-10.6863
ཨར་རྐུན་	-10.6863
སྙིང་	-10.6864
གཉེར་	-10.6865
ཡོད་དེ་འབདཝ་ད་	-10.6867
མངར་རྫས་	-10.6867
སྐོར་རྒྱབ་	-10.6868
གོང་ཚད་འདི་	-10.6869
དཔྱད་རིག་གཏངམ་མས	-10.6869
སླབ་སླབ་	-10.6871
ཛི་	-10.6871
་ཟེར་ཀརྨ་གིས་	-10.6872
་རུ་	-10.6874
ཉེས་སྤྱོད་	-10.6874
དེ་འབད་བཅུག	-10.6876
བཀོད་དེ་	-10.688
▁ཁོ་ངེ་གི་	-10.688
དངུལ་འབྲེལ་གྱི་	-10.6881
ནུ་གཅུང་	-10.6882
་ཚུགསཔ།	-10.6883
འཛིན	-10.6884
དཔེ་མཛོད་ཁང་	-10.6886
འགས	-10.6888
ནུབ་ཕྱོགས་	-10.6888
སྒྱིད་ངན་	-10.6889
མ་སླབ་ག	-10.6891
མེད་མི་ཅིག་	-10.6892
ག་དེ་སྦེ་གཏང་ནི་	-10.6894
སྦེ་མཐོང	-10.6894
ྲ	-10.6894
སླ	-10.6896
མ་བཀལ།	-10.6899
མི་སླབ་པས།	-10.6899
མལ་ཆ་ནང་	-10.6903
ཙིགཔ་ཟ་བཅུག	-10.6904
སླབ་མི་ཚུགས་པས།	-10.6908
ད་རེས་ནངས་པ་	-10.6908
་ཟེརཝ་ད་	-10.6912
བཀོད་མི་	-10.6913
བཞེས་	-10.6913
▁རྟ་མགྲིན་དང་	-10.6914
ཤེས་པས་ཟེར་	-10.6915
▁ཚོང་འབྲེལ་	-10.692
མོན་	-10.6922
སྒྱེན་མོ་སྦེ་	-10.6922
བཱོསི་ཊོན་ལས་	-10.6923
ནང་འཁོད་ཀྱི་	-10.6923
ཕྱག་ལྟག་	-10.693
གནམ་གྲུ་ཐང་	-10.693
འབད་དགོ་	-10.6931
རྒྱབ་ཁའི་	-10.6931
ཤོས་ཅིག་ཨིན།	-10.6931
▁མོ་གིས་མོ་	-10.6931
གྱིས་ཨ་ཕི་དེ་	-10.6932
གཞོང་	-10.6933
མེན་པས་ཟེར་	-10.6934
▁ང་འ་ནཱི་	-10.6934
གཏེར་	-10.6937
མ་འོངས་	-10.6937
འ་ནཱི་བཟུམ་	-10.6943
རྒྱབ་རྟེན་	-10.6943
ཁྱོད་ཀྱིས་ཤེས།	-10.6943
ཡུ་རོབ་ལུ་	-10.6946
རྒྱལ་ཁ་འཐོབ་	-10.6947
ཉེན་ཁ་འབག	-10.6947
འཛམ་གླིང་ནང་ལུ་	-10.6948
གསོལ་	-10.6955
དེ་དོན་ལས་ར་	-10.6956
གི་ཉམས་མྱོང་	-10.6956
འབད་ཚུགས་མི་འདི་	-10.6957
མགྱོགས་པར་སྦེ་	-10.6959
ནིའི་དོན་ལུ་	-10.6962
འཐོབ་ག	-10.6962
སོང	-10.6962
ཙ་	-10.6963
དབང་མོ་གིས་ཨ་ཕི་	-10.6964
ཅིག་བྱིན	-10.6964
དགོ་ཟེར་སླབ་ཅི།	-10.6965
ཅིག་གྱོན་ནུག།	-10.6965
་ནིའི་དུས་ཚོད་རན	-10.6967
ནགས་ཚལ་ནང་	-10.6968
བཞེངས	-10.6969
ཁེ	-10.697
འཛོམས	-10.6971
གི་ཕྱི་ཁར་	-10.6971
▁ངག་དབང་གིས་	-10.6973
ཧིང་སང་ས་སྦེ་	-10.6973
འདི་རྩ་ལས་	-10.6975
བལྟཝ་མས།	-10.6981
༡ལུ་	-10.6981
མི་འོང	-10.6983
སྣ་ཚང་ཚོང་ཁང་	-10.6983
་རུང་ཁོ་གིས་	-10.6985
པོ་གིས་	-10.699
བརྗེ་སོར་	-10.6994
འགྱོ་ས་	-10.6994
མདུན་	-10.6995
སྔ་གོང་ལས་	-10.6995
▁ངེའི་ཨའི་	-10.6995
བཅུ་གཉིས་	-10.6996
འདི་ཉེན་ཁ་ཅན་	-10.6997
ག་ནི་བ་	-10.6999
ཉེན་ཁ་ཅན་ཅིག་	-10.6999
▁དུས་	-10.7
གཅིག།	-10.7001
སྦྱོང་	-10.7005
བཤད་ཅི	-10.7006
ག་ཏེ་ཅིག་ལུ་	-10.7007
འདུག་ཟེར་མནོ	-10.7008
ཆུ་ཚོད་བཅུ་ཐམ་	-10.7011
ར་གྱིས་	-10.7014
སྐྱིད་ཏོང་ཏོ་	-10.7018
འཛོམས་དཔང་	-10.7019
བྱ་རྡུགས་	-10.7019
བཟོ་དེས།	-10.702
འབད་ཚུགས་	-10.7021
གྲོགས་རམ་འབད་མི་	-10.7023
སྐྱོད་ཐམ་	-10.7023
▁ཇོ་སིབ་ཀྱིས་	-10.7027
ལས་འབད་བ་ཅིན་	-10.7027
▁མ་པ་	-10.7028
▁འཇམ་དབྱངས་	-10.703
སྤྲོ་བ་ཅན་ཅིག་	-10.7032
མ་ལྷོད	-10.7032
རྣ	-10.7033
འབད་འོང་	-10.7034
དམག་སྡེ་	-10.7035
ཕོརཌ་	-10.7035
ཏེ	-10.7035
ཕད་ཅུང་འདི་	-10.7037
དྲག་རྒོལ་	-10.7037
དབུགས་འགམ	-10.704
ཀྱི་བར་ན་	-10.7043
མཐོངམ་ཅིག་	-10.7044
འོང་ནི་གི་	-10.7044
རེ་བ་བསྐྱེདཔ་མས	-10.7045
བང་སྒྲོམ་	-10.7048
སྙན་ཆ་སྐྲོག་མི་	-10.7049
ཌ་འདི་	-10.705
བཙན་སྐྱོགས་འདི་	-10.7052
ལུ་ང་བཅས་	-10.7052
ནམ་ཡང་མི་	-10.7052
སྡུག་	-10.7053
་ནི་དཔའ་བཅམ་ནུག།	-10.7053
ལག་ཤུབས་	-10.7054
འབད་བ་ཅིན་དེ་	-10.7059
ནང་མི་	-10.7059
ལྕགས་ཀྱི་	-10.706
མ་ཨིན་ན	-10.7061
ལྡེ་མིག་བུ་ཚུ་	-10.7062
འབད་ནིའི་རེ་བ་	-10.7065
ལྷབ་སྦྱང་	-10.7066
འོས་ལྡན་	-10.7068
གཡུ་སྒྲོན་	-10.7071
དྲན་མེད་	-10.7073
བསྒྲུབ	-10.7075
ང་གིས་མི་ཤེས་པས།	-10.7075
ལས་ཕྱི་ཁར་	-10.7075
ཨིནམ་བཟུམ་	-10.7076
ཱོན་	-10.708
ལུ་ངོ་སྤྲོད་འབད	-10.7081
མི་དགའ་བས	-10.7082
▁ཕྱི་ཁར་	-10.7083
▁ཀོ་	-10.7083
ནཱ་ལུ་ཡོད།	-10.7085
ཚ་གྱང་ལངས	-10.7087
ཐེ	-10.7088
རྒྱབ་ཁ་	-10.7088
གི་བཞེས་སྒོ་	-10.7089
▁ཁྱོད་ཁ་ཙ་	-10.709
དར་རྒྱས་	-10.7092
▁ལས་སྐྱིད་	-10.7094
༢༧	-10.7096
འགྱོ་མི་དགོ།	-10.7096
ཁོ་གི་ཁྱིམ་	-10.7097
ཆུང་ཀུ་ཚུ་	-10.7097
ཚོགས་ཕྲན་	-10.7097
སྦོམ་ཆུང་	-10.7098
ད་རིས་ནུབ་མོ་	-10.7098
སོ་ནམ་པ་	-10.71
བཞུ་ཟས་	-10.71
▁དེ་གིས་སྦེ་	-10.7102
དུས་ཚོད་ཀྱི་	-10.7104
པར་བཏབ་མི་	-10.7105
འབད་དགོཔ་ཨིན	-10.7106
དཔའ་བཅམ་ཅི།	-10.7106
བཞག་ས་	-10.7107
ཉོ་ཚུགས	-10.7107
༤ལུ་	-10.7108
་མི་ཚུགས་ཟེར་	-10.7112
ཕྱི་རུ་ཨ་རྟག་ར་	-10.7114
▁ཚོང་སྡེ་	-10.7118
ཁྱོད་ཀྱི་མིང་	-10.7121
སྔོ	-10.7121
ཁོ་རའི་བུ་	-10.7122
འཕྱིས་	-10.7123
ཁག་འབག་	-10.7123
ལུ་ཏི་རུ་ལེ་ཤ་	-10.7123
▁འདི་ང་ལུ་	-10.7123
གསང་བ་འདི་	-10.7124
ལས་ལེ་ཤ་གིས་	-10.7125
▁ལེ་ལ་	-10.7125
▁མེན་	-10.7127
གཡང་ཟ་	-10.7129
སྤྱི་ལོ་༢༠༡༣	-10.713
བཟོ་ཡི	-10.713
འབག་འགྱོ	-10.7132
▁ཁོ་མི་	-10.7134
བལྟ་བར་	-10.7135
འོང་པ་ཅིན་	-10.7136
▁ཨར་	-10.7136
རྫུན་མ་	-10.7137
དུས་ཚོད་ནང་	-10.7137
ཟླ་ངོ་	-10.7137
ལྷུ	-10.7141
ཚེ་རིང་དང་	-10.7142
བམ་	-10.7142
དང་འདོད་	-10.7143
འདི་ཨ་ནཱི་	-10.7146
ག་ནི་ཡང་མ་	-10.7149
དཔེ་མཛོད་	-10.7149
་ཟེར་མནོ་བསམ་གཏང	-10.7153
མཆོག་གྱུར་	-10.7154
ར་མིན་འདུག།	-10.7154
རང་གིས་	-10.7154
▁བརྡ་དོན་	-10.7155
སྔུ་ནི་འགོ་བཙུགས	-10.7155
སླབ་དེས་ག	-10.7162
▁ཁྱོད་ཨ་ནཱི་	-10.7162
འདི་ཧ་ཅང་གིས་	-10.7166
གློག་ཐག་	-10.7171
མཐོང་ཅི	-10.7172
ཚོང་སྡེ་འདི་	-10.7174
འགྱོ་དགོ་མནོ་ཡི།	-10.7176
▁ད་ལྟོ་ཚུན་ཚོད་	-10.7177
གོ་མཚོན་	-10.7178
འབད་ལྟ	-10.7182
རྟག་བུ་ར་	-10.7183
སྦོམ་ཨིན།	-10.7183
་འོང་མནོ་བའི་	-10.7184
བཟའ་ཁང་	-10.7184
ལུ་རག་ལས	-10.7185
དགའ་དོ་བཟུམ་	-10.7186
བླམ་	-10.7191
མཐོ	-10.7193
དགའ་འོང་ག	-10.7193
▁ཁྱོད་ཀྱི་ཨ་པ་	-10.7195
རྟ་མགྲིན་	-10.7196
ལྷབ་དགོ།	-10.7198
ཞབས་ཏོག།	-10.7198
བཞགཔ་མས།	-10.7199
ཧ་གོ་	-10.7204
གྲ་སྒྲིག་ཨིན་ན	-10.7206
དགའ་འབྲེལ་	-10.7208
འབོལ་ཁྲི་	-10.7208
སྡོད་ནི།	-10.7209
ཐེ་ཚོམ་ཟ་ཡི།	-10.7209
▁ཁྱོད་ག་ར་	-10.721
ཞུ་ཡིག་འདི་	-10.7211
བཙོང་མི་	-10.7213
ཊཱོན་	-10.7213
▁ཞབས་ཏོག་	-10.7215
མགྱོགས་སུ་སྦེ་	-10.7216
ས་གནས་འདི་	-10.7216
ལྷོ་ཕྱོགས་	-10.7217
སྤེལ	-10.7218
སཔ་	-10.7218
ཉལཝ་ཨིན།	-10.7222
ཊཱན་	-10.7222
དཀའ་ངལ་གྱི་	-10.7222
དཔལ་མོ་འདི་	-10.7226
གི་ཆ་ཤས་	-10.723
མཁན་	-10.7232
འབད་ཡི་	-10.7232
གཉེན་སྟོན་	-10.7233
སྤྲོས་	-10.7233
ཆ་རོགས་དག་པ་ཅིག་	-10.7234
མི་འབད་ནི་	-10.7235
ད་ཅི་ལས་	-10.7235
ཆུང་ཀུ་འདི་	-10.7237
▁རྟ་མགྲིན་	-10.7237
གི་སྐོར་	-10.7238
འབད་མི་བཅུག	-10.7239
ཨིན་རུང་ཁོ་གིས་	-10.7239
དངུལ་གྱི་	-10.7241
་ནི་གི་ཐབས་ལམ་	-10.7242
འུ་མ་བཀལ	-10.7242
འ་ནཱི་བཟུམ་གྱི་	-10.7242
སྡོད་ཡོདཔ་	-10.7242
▁ང་གིས་དཔེ་དེབ་	-10.7243
སྙིང་རྗེ་ཅན་	-10.7243
འཕྱད་པར་	-10.7243
དབང་ཕྱུག་དང་	-10.7246
ཆ་ཚང་སྦེ་	-10.7246
ཁོང་རང་	-10.7248
ལུ་ངོས་ལེན་	-10.7248
བཀོ་མ་བཞག།	-10.7251
ག་ར་ལེགས་ཤོམ་	-10.7251
རྒྱ་སྐྱེད་	-10.7252
གཉེན་སྒྲིག་	-10.7253
འདི་གི་དོན་ལུ་	-10.7253
▁ཕམ་	-10.7254
འདི་བདེན་པ་	-10.7254
དཔྱད་རིག་མི་གཏང	-10.7255
ཀེ་ན་ཌ	-10.7256
▁དཀའ་ངལ་	-10.7256
ཁྱད་དུ་འཕགས་པ་	-10.7257
གྱོན་ཆས་འདི་	-10.7257
་ཚུགསཔ་ག	-10.7257
་པ་ཅིན་དྲག་འོང་།	-10.7259
▁ཁྱོད་ཀྱི་ཨའི་	-10.726
ཁྲིམས་ལུགས་ཚུ་	-10.7263
ཌ་གི་	-10.7264
▁ཇི་	-10.7265
་ཡ།	-10.7266
གཞི	-10.7267
བར་ཆད་	-10.7268
ཨ་ནེ་	-10.7268
སྡོད་ནི་ཨིན།	-10.7268
མཐོངམ་	-10.7275
ལྷག་མི་	-10.7277
ཚ་གྱང་ལངས་ནུག།	-10.7277
▁ཁོ་གིས་མོ་གི་	-10.7279
སྦེ་བརྩི	-10.728
ལས་གཡོགཔ་ཚུ་	-10.7281
▁ཕུར་པ་གིས་	-10.7286
▁དཔྱལ་ཐེ་	-10.7286
ཤེས་དོ་བཟུམ་	-10.7287
སངས་རྒྱས་ལུ་	-10.7287
ཆད	-10.7288
བློ་འདོད་ཡོད་མི་	-10.729
ལོ་གཉིས་	-10.7291
དཀའ་ངལ་ནང་ཚུད	-10.7291
ང་བཅས་ལས་	-10.7291
བདག་སྐྱོང་	-10.7291
གསུང་	-10.7292
ཆོས་རྒྱུགས་ཀྱི་	-10.7294
དྲི་བའི་ལན་	-10.7295
ཤོང	-10.7296
་སི་སི་ཅིག་	-10.7298
ཀྱིས་ཁོ་	-10.7301
ཀ་འདི་	-10.7301
གྲུབ་འབྲས་ཚུ་	-10.7301
ག་རའི་	-10.7301
▁ཨོ	-10.7303
བཤུད་པང་	-10.7305
ནཱ་ཡོད།	-10.7305
ཕན་ཚུན་	-10.7307
འབད་དགོ་མ་མནོ།	-10.7307
གྱིས་དེ་	-10.7308
བྱོན་ཞུ་	-10.7312
འགྱོ་བཅུག།	-10.7313
དགའ་སྤྲོའི་	-10.7313
བླུགས་	-10.7313
བཱེ	-10.7314
གི་འཆར་གཞི་བརྩམ	-10.7315
རྒྱུག་རྩེད་རྩེ	-10.7319
རྙིངམ་ཚུ་	-10.7319
▁འགྱོ་སྦེ་	-10.732
མ་དང་	-10.7321
དཔྱང་	-10.7323
གྲོས་བསྟུན་	-10.7324
འགྲན་	-10.7325
མ་རྐྱབ	-10.7326
བསྒུག་ནི་	-10.7329
▁ང་གིས་ཁོང་ཚུ་	-10.7332
་ནི་ལས་	-10.7333
སྨན་བཅོས་ཀྱི་	-10.7333
▁ད་རེས་ཀྱི་	-10.7333
ག་ཅི་ཡང་མ་སླབ།	-10.7334
ཐོག་ཚད་	-10.7336
ཁྱབ་སྤེལ་	-10.7338
ཐངས་	-10.7338
སྡེ་ཕྲན་	-10.7338
▁དངོས་གྲུབ་དང་	-10.7339
ནིའི་དཔའ་བཅམ་ཅི།	-10.734
གཉིད་ལོག་ནུག།	-10.7343
དགོཔ་ཨིན་ན	-10.7344
སྡོད་བཅུག	-10.7345
དེ་ཁྱོད་ཀྱིས་	-10.7353
སླབ་རུང་	-10.7353
དམིགས་	-10.7355
འོངས	-10.7355
དངོས་མཐོང་	-10.7356
མ་སྦེ་	-10.7357
ཟླཝ་དག་པ་ཅིག་	-10.7362
རྒེད་འོག་	-10.7363
ཧ་ལས་	-10.7364
གནས་གོང་	-10.7364
བསྐྲོག་ནི་	-10.7365
འབྲེལ་ཡོད་	-10.7365
▁ཟླ་བ་ལུ་	-10.7366
འབད་ཚར་ཡི།	-10.7366
དངུལ་ཁང་གི་	-10.7367
སྒོ་བསྡམས་ནུག།	-10.7373
ཐུང་ཀུ་ཅིག་	-10.7374
ཐུན་	-10.7374
ག་ཅི་འབྱུང་འོང་ག	-10.7375
▁ཡོངས་འབྲེལ་	-10.7375
་ནི་ལས་བཀག	-10.7379
▁དེ་ང་ལུ་	-10.7379
ལྟག་ལུ་	-10.7381
མ་བདེ་ཁག་ཁ་	-10.7384
གཙོ་འཛིན་	-10.7384
༡༠༠༠	-10.7386
སྨོན་ལམ་	-10.7388
ཧཱ་	-10.7392
▁ཟླཝ་	-10.7393
སྲུང་རྩོམ་	-10.7394
བཟང	-10.7395
ཕྱིས	-10.7395
དམ་དམ་	-10.7399
བྷོས་ཊོན་ལུ་	-10.7404
ཚོརཝ་	-10.7405
ཁོ་གིས་རིག་འཛིན་	-10.7407
འགོ་བཙུགསཔ་ད་	-10.7408
བཏང་ཡི	-10.741
འབད་ནི	-10.7411
ནི་སྦེ་ཐག་བཅད་ཅི	-10.7412
་ནི་ཟེར་སླབ་ཅི།	-10.7414
▁ལྷ་གིས་	-10.7415
ལུས་འབྲེལ་	-10.7418
ར་གྱི་	-10.7418
བགྲེསཔ་	-10.7418
▁ཉི་མ་གིས་པད་མ་	-10.742
བཟང་ཚང་	-10.7421
སྐྱ་ཐལ་	-10.7421
འཐོབ་ཚུགས་ག	-10.7422
ཁྱད་དུ་འཕགས་པའི་	-10.7423
སྦེ་བཟོ	-10.7423
ལས་སོ་སོ་	-10.7424
་ཚུགས་ནི་	-10.7427
▁མི་གིས་	-10.7427
ལེའུ་	-10.7431
ཚོང་སྡེ་གི་	-10.7432
་ཡི་ཟེར་མནོཝ་མས།	-10.7432
▁ཀརྨ་གིས་པདྨོ་	-10.7439
བཟོད་སྲན་ཅན་	-10.7439
ངེ་གི་ཨིན།	-10.7441
གྲོས་	-10.7442
ནང་སྡོད་ནུག།	-10.7444
ཉེན་སྲུང་གི་	-10.7446
དེ་འབད་ཟེར་སླབ	-10.7447
འཐོན་ཡི།	-10.7447
ཡོངས་སུ་རྫོགསཔ་	-10.7448
གྱི་བར་ན་	-10.745
ཅོག་ར་འཐདཔ་	-10.7454
་དེས	-10.7454
མ་ཤེསཔ་	-10.7454
▁ང་གིས	-10.7458
དབང	-10.7458
སློབ་དཔོན་གྱི་	-10.746
མ་ཟ་བའི་ཧེ་མ་	-10.7466
▁སྐར་མ་	-10.7468
མོ་དང་	-10.747
▁དབྱངས་སྐྱིད་	-10.7472
མཚུངས་	-10.7473
མཛར་ཅུམ་	-10.7475
་ནི་མས་ཟེར་	-10.7475
གདམ་	-10.7476
▁ནང་ན་	-10.748
བྱེལ་སྐད་ཤོར	-10.748
དང་རིག་འཛིན་	-10.748
ཡུ་རོབ་	-10.748
▁ང་བཅས་ར་	-10.7485
གྱི་སྐབས་ལུ་	-10.7486
པད་མ་དང་གཅིག་ཁར་	-10.7489
་ཅི་དེ་འབདཝ་ད་	-10.7491
རྩ་བ་	-10.7492
ཡིག་ཆ་འདི་	-10.7494
ལོག་སྟེ་རྩ་ལས་	-10.7496
ཀརྨ་གིས་མོ་ལུ་	-10.7497
འགྱེལ་ཏ་རྐྱབ་	-10.7501
ད་རུང་ཚར་གཅིག་	-10.7501
འོན་	-10.7501
▁པི་	-10.7504
གསང་བ་སྦེ་བཞག	-10.7504
ངོ་ཤེས་ཅི།	-10.7504
མི་སྡོད	-10.7504
ཁྱེད་རའི་	-10.7508
▁དྲུང་འཚོ་	-10.7508
བསྐྱར་གསོ་འབད	-10.7514
བསྐྱེད་ཅི།	-10.7514
གྱུར་ནུག།	-10.7517
འུ་བཀལ་ཡི།	-10.7518
སྡོད་པའི་བསྒང་	-10.7519
ད་རེས་ཕྱི་རུ་	-10.7519
ཀི་དེབ་འདི་	-10.7521
ཁང་ཚན་ནང་	-10.7522
འཇལ	-10.7523
ཇཱོན་དང་གཅིག་ཁར་	-10.7524
ཨ་ལུ་ཚུ་གིས་	-10.7527
ཆོས་གྲགས་	-10.753
་ཟེར་སླབ་དགོ	-10.7534
བྱང་ཁོག་	-10.7534
ཕོ་རབས་	-10.7535
▁ད་རིས་ང་	-10.7535
མི་ཚེ་གཅིག་	-10.7536
འབད་བཏུབ།	-10.7537
སི་ཊར་	-10.7537
འཇུག་	-10.7541
དཔེ་སྟོན་	-10.7542
ཨིནམ་མས།	-10.7545
འབད་མི་ཚུགས་ནི་	-10.7547
ཕད་	-10.7547
ཕྱིའི་	-10.7547
▁ཚེ་རིང་གིས་ཁོ་	-10.7553
རྨ་བཏོན་ནུག	-10.7554
ཆ་རོགས་འབད་བར་	-10.7554
དཔེ་ཆ་རྩ་འགེངས་	-10.7556
་གནང་ཟེར་སླབ	-10.7557
རེ་བ་བསྐྱེདཔ་	-10.7559
སྙན་གྲགས་	-10.7559
སྐམ	-10.7559
སྦོ་	-10.7563
བཟོ་ཡོད་པའི་	-10.7563
དམིགས་གཏད་བསྐྱེད	-10.7563
རྩིགཔ་ཟ	-10.7563
འཇའ་ཆི་ཆི་ཅིག་	-10.7564
དགོ་ནི་ཨིན་པས	-10.7565
་ཡི་ཟེར་ང་ལུ་སླབ	-10.7565
་བཅུག་འོང་།	-10.7566
▁ཕར་	-10.7569
ཆ་རོགས་འབད་	-10.7572
དཔེ་ཆ་བལྟ	-10.7573
བ་དམ་	-10.7574
ཨ་ཕི་དེ་ད་རིས་	-10.7575
གང་རུང་ཅིག་	-10.7576
རྩེད་སྡེ་	-10.7576
ཅོག་ར་འཐདཔ་སྦེ་	-10.7577
▁ཧེ་མའི་	-10.7578
འོང་ཟེར་སླབ་དེས།	-10.7578
འཕྲོ་	-10.7579
▁ང་རའི་	-10.7581
ལེགས་ཤོམ་སྦེ་འབད	-10.7582
མི་བསྐྱེད་པས།	-10.7582
ལངམ་ད་	-10.7583
འདི་ཨ་ཙི་ཅིག་	-10.7584
ཟ་ནི་ལུ་	-10.7584
▁ང་བཅས་ད་ལྟོ་	-10.7585
ནཊ་	-10.7587
འདི་དུས་ཚོད་	-10.759
ཆུ་དུང་	-10.7592
སློབ་གྲྭ་ཆེ་བའི་	-10.7593
དེ་ལོག་སྟེ་འབད	-10.7593
སྐར་ཆ་གཅིག་	-10.7599
ཁྲིམས་ཁང་ནང་	-10.76
གི་སྒོ་ལས་	-10.7601
ངོ་ཤེས་	-10.7603
རྩ་ལས་མ་སླབ	-10.7603
རེ་ལི་	-10.7603
ང་གིས་བརྟན་བརྟན་	-10.7604
འཚོལ་ཞིབ་	-10.7605
་ཡོདཔ་ལས་	-10.7605
ཁེབས་	-10.7607
སྦོམ།	-10.7609
ལྷོད་དགོ།	-10.7613
▁ད་ལྟོ་ང་	-10.7615
▁བེ	-10.7617
བློ་འདོད་མ་སྡོད	-10.7618
སྟོན་བྱིན	-10.7618
ལྟབ་	-10.762
ཱེན་	-10.7625
བྱམོ་	-10.7625
▁ཁྱོད་ནངས་པ་	-10.7626
བོསི་ཊཱན་ལུ་	-10.7626
ལོ་ཐོག་	-10.7628
གལ་ཆེ།	-10.7629
ཆང་གིས་	-10.7629
འདི་ག་དེམ་ཅིག་	-10.763
གཉིས་དང་	-10.7631
བྱོག་	-10.7632
ལེན་པར་	-10.7632
གིརི	-10.7632
་ག་ཟེར་ཐེ་ཚོམ་ཟ	-10.7632
མ་བ	-10.7637
གྱོན་ཏེ་	-10.7638
དྲནམ་བཏོན	-10.7642
ཟླཝ་དྲུག་	-10.7644
སློབ་གྲྭ་ལུ་	-10.7644
གཞན་གྱིས་	-10.7645
་འདུག།	-10.7645
ཕྱི་མི་	-10.7645
ཕྲང་སྟེ་སླབ	-10.7646
▁དེ་ག་ར་	-10.7648
ཕངམ་བཏབ	-10.7648
གདམ་འཐུ་	-10.7648
དུ	-10.7649
རོ་ཁྱི་གིས་	-10.7649
ལ་ལུ་གིས་	-10.7654
འི་སྐོར་ལས་	-10.7655
སྤྲོ་ལཱ་	-10.7655
ངེ་གི་མི་ཚེ་ནང་	-10.7659
ང་ཧ་ལས་ཡི།	-10.7662
གི་ཧེ་མ་ལས་	-10.7666
▁ཝི་	-10.7666
རྒྱལ་ས་ལྟེ་བ་	-10.7666
གུས་སྤྱོད་ཅན་	-10.7666
རྒྱང་རིང་	-10.7667
རེ་འདོད་ཅན་	-10.7668
བརྒྱ་ལམ་རེ་	-10.767
ཱན་གྱི་	-10.7671
མཐར་མ་འཁྱོལ	-10.7673
བལྟ་ནི་འདི་	-10.7677
འདུ་འཛི་སྦེ་	-10.7679
ཚེ་དབང་	-10.7679
གྲངས་སུ་	-10.7683
▁དབང་མོ་འདི་	-10.7684
ལེགས་ཤོམ་ཨིན་མས།	-10.7686
ཁ་འབྱལ	-10.7689
སྡོདཔ་ཨིན	-10.7689
གི་ཐད་ཁར་	-10.7689
སྦེ་མ་སྡོད།	-10.769
ཅིག་ཨིནམ་	-10.769
▁རྟ་	-10.7693
བཟོད་གསོལ་ཞུ	-10.7696
བྱོན	-10.7697
མེན་དེ་འབདཝ་ད་	-10.7699
བོསི་ཊན་ལུ་	-10.77
་བས་ཟེར་	-10.7703
༣༦	-10.7704
▁བསམ་གཏན་གྱིས་	-10.7704
གཅིག་ལས་	-10.7704
གཉིས་འདུག།	-10.7705
ག་ཅི་འབད	-10.7707
བཏོན་གཏང་ནི་	-10.7708
བདེ་སྒྲིག་	-10.7708
▁བཱསི་	-10.7708
▁ད་རིས་དྲོ་པ་	-10.771
དྲ་	-10.771
ཇིན་	-10.7712
ལས་ཁོ་	-10.7712
མིན་འདུག་	-10.7712
ངལ་སངས་	-10.7713
ལུ་མོ་གི་	-10.7716
འདི་ག་ཏེ་ལུ་	-10.7717
ལམ་འགྱོ་	-10.7717
བཞུ་	-10.7717
དགོ་ཟེར་	-10.7719
ཅིག་བྱུང་ཡི།	-10.772
▁ང་གིས་ད་	-10.772
ལས་བྱེདཔ་	-10.7721
ཏོ	-10.7722
ཨེ་ཁུག་	-10.7725
བོས་ཊོན་	-10.7727
ཚད་ལྡན་	-10.7729
མཐར་འཁྱོལ་ཡི།	-10.773
ཕན་པ་	-10.773
དྲོ་པ་ཧ་སག་	-10.7731
ཆེ་ཤོས་	-10.7732
ན་ཚོད་	-10.7733
▁ང་གིས་སེངྒེ་ལུ་	-10.7737
གྱོནམ་ཨིན།	-10.7737
དང་གགཅིག་ཁར་་	-10.7737
ང་བཅས་དང་མཉམ་	-10.7738
བསམ་འཆར་ཚུ་	-10.7739
རྩལ་རྐྱབ་ཚུགས	-10.774
་ནིའི་རེ་བ་ཡོད།	-10.7742
དམག་འཛིང་	-10.7743
དེ་མི་འབད	-10.7743
སྒལ་ཏོ་	-10.7744
མི་བཟོ།	-10.7746
ཅིག་གུར་	-10.7746
འབྱང་མི་	-10.7746
འདི་ཧེ་མ་	-10.7748
དམ	-10.7749
སེར་ཐང་ཐ་	-10.775
ཁྱིད་	-10.7751
དང་ཕུའི་	-10.7754
མ་ལྷོད་ཚུན་	-10.7756
དྲུང་	-10.7756
ཡི་གུ་ཅིག་	-10.7757
འབྱོར་	-10.7757
ལོག་སྤྱོད་	-10.7758
སེམས་ཅན་གྱི་	-10.7762
མཱལ་	-10.7763
ཁོ་གི་ཨའི་	-10.7765
དང་པ་ར་	-10.7767
▁ག་ལུ་ཡང་	-10.7769
ང་ཁྱིམ་ནང་	-10.7773
མི་བཏུབ་པས།	-10.7775
མ་པ་ར་	-10.7779
དེ་ལོག་	-10.7782
ལྕོགས་གྲུབ་ཅན་	-10.7782
ཐོན་རྣམ་	-10.7783
སོ་སོ་ཨིན།	-10.7786
འདི་ལཱ་ཁག་	-10.7786
ལཱ་ལུ་	-10.7789
མ་འབོ	-10.779
བགོ་	-10.7791
ལོངམ་ཨིན།	-10.7793
▁ཡེ་ཤེས་དང་	-10.7793
དྲན་འོང་།	-10.7794
▁ཤོག་	-10.7795
▁དཀར་མདོག་གིས་	-10.7796
ཁོང་ཆ་ཁྱབ་ཀྱིས་	-10.7796
གསུམ་པ་	-10.7798
འབད་ད	-10.7799
སྟོན་འོང་།	-10.78
ངེ་གི་བུ་	-10.7801
བཟུམ་མཐོང	-10.7803
གཏང་གནང་།	-10.7804
ཅིག་འབད་ཡི།	-10.7804
ལུ་བློ་འགྱོད་	-10.7808
ཐིམ་ཕུག་	-10.7808
གོ་བ་	-10.7808
འདི་ཁ་ཙ་	-10.7808
སྒྲིང་སྒྲི་སྦེ་	-10.7811
་མ་ཚུགས་	-10.7812
ཤི་ཤིཝ་	-10.7813
▁ཆོས་སྒྲོན་	-10.7813
དེ་ཁོ་ར་གིས་	-10.7814
འགྲིག་	-10.7814
ལངས་	-10.7814
ཡོད་ག་ཟེར་	-10.7816
གི་སྐོར་ལས་ག་ཅི་	-10.7818
མོ་ལུ་ཆ་རོགས་འབད	-10.7818
དང་པ་ཨིན།	-10.7819
ཨིན་ཟེར་ང་གིས་	-10.782
སྡེ་ཁང་	-10.782
▁འདི་ང་བཅས་ཀྱི་	-10.7821
ག་དེ་འབད་རུང་	-10.7822
ཉོ་མི་ཚུགས།	-10.7825
▁ད་འབདན་ང་	-10.7825
འོང་ནི་བཟུམ་འདུག	-10.7826
སྤྲོད་དགོཔ་	-10.7827
སྤྲོ་བ་བྱུང་ནུག།	-10.7827
བཀང་	-10.7827
ཚོང་ལཱ་འདི་	-10.783
བཅའ་ཁྲིམས་	-10.7832
གླང་	-10.7835
▁མེ་རི་	-10.7836
ཉི་ཤུ་	-10.7836
ཚ་བོ་	-10.7839
ཡེ་ཤེས་ཀྱིས་	-10.7841
▁གྲུ་	-10.7841
▁ཨ་ནཱི་ཚུ་	-10.7843
▁ང་དེ་	-10.7844
དངུལ་བྱང་	-10.7844
པས་	-10.7844
བསྐྱེད་ནི་	-10.7845
མ་རྩ་	-10.7845
ཐོན་ཁུངས་	-10.7847
ལག་རྟགས་	-10.7849
ལག་ལེན་འཐབ་བཏུབ།	-10.785
▁བཱ	-10.7851
ཡང་མི་ཤེས།	-10.7851
འདི་ཁོང་གིས་	-10.7852
གློག་བརྙན་ཁང་	-10.7852
རྒྱ་གར་	-10.7852
ཁ་བྲལ་ལེགས་སྨོན་	-10.7853
འགྲུལ་པ་	-10.7857
འབྲེལ་སྟེགས་	-10.7859
▁ངེའི་ཆ་རོགས་	-10.7861
འབད་དགོ་མནོ་ནུག	-10.7861
སྤོ་ཡི།	-10.7861
གྲོས་བསྟུན་འབད	-10.7861
▁དྲི་བ་འདི་	-10.7866
སེམས་དགའཝ་མས།	-10.7867
ཟ་ཡི་ག	-10.7868
ཁ་ཤགས་རྐྱབ་	-10.7869
་ནུག་ཟེར་ཤེས།	-10.7871
ལུ་བསྒུག	-10.7873
་ས་མཐོང	-10.7874
བེལ་	-10.7876
དོག་	-10.7876
སྐར་མ་ལྔ་	-10.7878
ཤི་བའི་	-10.7878
མྱོང་	-10.7883
ཕྱི་འགྱུར་སྦེ་	-10.7884
སེང་	-10.7885
དམའ་ཕབ་	-10.7885
མ་འདྲཝ་ལེ་ཤ་	-10.7885
▁མོ་གིས་མོ་ར་	-10.7886
གྱི་ཧེ་མ་	-10.7886
སློབ་གྲྭ་འདི་	-10.7888
མནོ་ཡི	-10.789
སྡོད་ནུག་ཟེར་མནོ	-10.7891
ཁོ་གི་ཆ་རོགས་	-10.7892
ནང་ཡང་	-10.7894
ཤབ་	-10.7894
་དོ་བཟུམ་ཅིག་ར་	-10.7895
བརྒལ་	-10.7895
མི་དགའ་བས་ཟེར་	-10.7896
གཡོན་ཕྱོགས་ལུ་	-10.7896
གསར་གཏོད་	-10.7897
ག་དེ་སྦེ་སླབ་ནི་	-10.7897
དང་བཅས་	-10.7897
▁ཀརྨ་དང་པདྨོ་	-10.7898
▁པ་སངས་དང་	-10.79
ཨ་ཕི་འབད་མི་འདི་	-10.7901
ལྷན་ཚོགས་	-10.7902
སྤྱི་ཟླ་ལྔ་པའི་	-10.7902
དུས་ཚོད་མངམ་	-10.7905
པ་ནང་	-10.7908
འཕྲུལ་ཁང་	-10.7909
ལུ་བཟོད་གསོལ་ཞུ	-10.7911
ནང་ཡོད་མི་	-10.7912
ཕན་ཐོགས་ཅན་གྱི་	-10.7915
གསུམ་གྱི་	-10.7916
འཚུབ་ཅན་	-10.7918
དེ་འབད་ཡི་ཟེར་	-10.7919
ལན་སླབ	-10.7923
ངལ་རངས་ནུག།	-10.7924
སླ་བསྲེ་	-10.7925
▁མི་མང་ཤོས་ཀྱིས་	-10.7926
▁པཱ	-10.7926
་ང་	-10.7927
རི་བོང་	-10.7928
ཁྱོད་ག་ཅི་	-10.7929
ཆག	-10.7933
སླབ་ཅི་ཡ	-10.7936
འཚོལ་ཡི།	-10.7937
ག་ཅི་སྨོ།	-10.7938
་བལྟ་གེ།	-10.7942
གཡས་	-10.7946
ཕར་འགྱང་འབད	-10.7946
པས	-10.7947
▁ཡ	-10.7947
ལུ་གོང་ཚད་	-10.795
་ནང་ལུ་	-10.7951
ལས་མགྲོན་	-10.7952
མི་དགའ་	-10.7952
སྤྲོ་བ་བྱུང	-10.7954
ལྷ་སྐྱིད་	-10.7956
ནི་དང་	-10.7956
ཨ་ཕི་དེ་འབད་དེ་	-10.7956
བཀོལ	-10.7956
ཧ་གོ་ཡི་ག	-10.7957
གོས་	-10.7957
▁ཁྱོད་གཉིས་	-10.7958
ཀེམ་	-10.7959
▁སྲུང་འདི་	-10.7962
རེ་ཆི་	-10.7963
ཨ་མི་རི་ཀའི་	-10.7963
བཞག་ནི་ལུ་	-10.7965
སྡོད་ཡི་ཟེར་མནོ	-10.7966
སྦོམ་ཤོས་འདི་	-10.7967
སྒོ་འདི་ཕྱེ	-10.7969
ཕན་གནོད་	-10.7969
བུད་	-10.797
ནང་ལུ་འདུག།	-10.797
རྒན་ཤོས་	-10.797
བཞག་གེ།	-10.7971
བརྒྱུད་སྐུལ་འབད	-10.7972
འཛེག	-10.7973
ངོ་མ་ཅིག་ཨིན།	-10.7973
སློབ་གྲྭ་གི་	-10.7973
འཛིན་བཟུང་	-10.7974
འགྱོ་བའི་བསྒང་	-10.7974
རེ་བ་མ་བསྐྱེད	-10.7974
▁ང་གིས་ཁོ་གིས་	-10.7976
▁མོ་གིས་ཨ་རྟག་ར་	-10.798
ཁོ་སེམས་དགའ	-10.798
་ནི་ཨིན་པས་ཟེར་	-10.7982
ནཱ་ལས་ཕར་	-10.7983
ནམ་ར་	-10.7983
་བཅུག་མི་	-10.7985
ལྷོད་འོང་ཟེར་	-10.7986
▁དབང་གྲགས་ཀྱིས་	-10.7988
མེཀ་	-10.799
ནས་	-10.799
དགའ་སེམས་	-10.7992
་ཡོདཔ་ཨིན་མས།	-10.7992
འབད་བ་ཅིན་ཁོ་	-10.7992
ཡར་སོ	-10.7994
ེཀ་	-10.7997
ངག་དབང་	-10.8003
འབད་མི་གིས་	-10.8006
རྒྱམ་ཞོལ་	-10.8007
བཙན་རྫོང་	-10.8007
▁ག་ར་ལུ་	-10.8009
བཞེས་གོ་	-10.8009
རྒྱ་བོ་	-10.8009
ཨ་ཙི་ཅིག་ཡང་	-10.8011
གླུ་དེབ་	-10.8011
གཡོ་སྒྱུ་ཅན་	-10.8012
▁དེ་བཟུམ་སྦེ་	-10.8012
▁ཁྱོད་ཁྱིམ་ནང་	-10.8017
ཉོ་ནི་གི་	-10.8017
དྲན་མས།	-10.8022
ཁྱོད་ལུ་ག་ཅི་	-10.8024
བློ	-10.8025
ནང་ལྷོད	-10.8027
མ་ཤེས་	-10.8028
▁ང་གིས་འདི་ལུ་	-10.8029
དགའ་ཚོར་བསྐྱེད	-10.803
གསད་འོང་།	-10.803
གྲལ་	-10.8031
འཐིང་གཞི་གུར་	-10.8032
གཟའ་ཉིམ་དང་ཟླཝ་	-10.8033
བད	-10.8034
ལེགས་ཤོམ་ཡོདཔ་	-10.8035
མཐའ་སྐོར་	-10.8036
བྷ་	-10.8036
གྲུབ	-10.8037
གཙང་ཆུ་འདི་	-10.8037
ལྡན་ཏོག་ཏོ་	-10.8037
སྐྱ	-10.8037
གློག་ཐོག་	-10.8039
ལུ་གཞི་བཞག་སྟེ་	-10.804
རྒྱལམོ་	-10.804
སླབ་ནི་ཨིན།	-10.8041
དཀར་སངས་དང་པདྨ་	-10.8043
▁ཊོམ་གིས་	-10.8044
མཐའ་མ་	-10.8049
ཝན་	-10.8049
མོ་ར་ལུ་	-10.805
ལཱ་ལེགས་ཤོམ་ཅིག་	-10.8051
ཧིང་ཚ་ཁག་ཁ་	-10.8052
གནམ་ཁར་	-10.8052
གསུམ་གྱི་ཧེ་མ་	-10.8053
ཞི་བའི་	-10.8054
ཁྲོམ་ལམ་གྱི་	-10.8055
མེན་ཟེར་སླབ	-10.8056
ཐང་ནང་	-10.806
ལས་འོངམ་ཨིན།	-10.806
བློ་སླབ་དེས།	-10.806
མཇུག་བསྡུ་ནི་	-10.8063
ངེ་གི་མིང་	-10.8063
མ་ཚར	-10.8064
ཕྱེད་ཀ་ཅིག་	-10.8065
འགྲིག	-10.8065
ཝེལ་	-10.8066
རྩོམ་རིག་	-10.8066
དཔའ་བཅམ	-10.8067
བལྟ་ནི་གི་	-10.8069
བསྐྱལ་ནི་	-10.8069
འདི་ནངས་པ་	-10.807
འདུག་མིན་འདུག་ག	-10.8071
▁ལས་རིམ་འདི་	-10.8071
▁ང་ལུ་དུས་ཚོད་	-10.8071
དང་གཅིག་ཁར་ཁ་སླབ	-10.8072
་སྲིད།	-10.8074
ཅིག་འབག་འོང	-10.8075
ག་ར་ལས་	-10.8075
༠༠༠༠	-10.8076
▁མོ་གིས་ཁོ་གི་	-10.8076
ལས་བརྟེན་ཏེ་ཨིན།	-10.8076
མཚོའི་	-10.8076
བང་བཙོང	-10.8077
ནང་འདྲེན་	-10.8078
མེན་མི་	-10.8081
དཔའ་རྔམ་	-10.8082
གཞོན	-10.8083
▁སྤྱི་ལོ་༢༠༠༧	-10.8084
སླབ་དགོ	-10.8084
རྡོ	-10.8084
▁མི་ནུ་རའི་འདི་	-10.8086
རྩི	-10.8087
་ཚརཝ་ཅིག་	-10.8089
རྐང་འཁོར་འདི་	-10.809
ཟླ་བ་དང་རིན་	-10.809
སྒོ་བསྡམ་	-10.809
་ནིའི་དོན་ལུ	-10.8091
ཕུན་ཚོགས་ལས་	-10.8092
རང་བཞིན་གནས་སྟངས	-10.8092
ཏོག་ཏོ་འདུག།	-10.8092
ཕེརིནཆི་	-10.8094
ཉེ་ཚན་	-10.8094
ཡིག་ཤུབས་	-10.8096
ཧང་ཏོ་མར་	-10.8096
ང་བཅས་ཀྱིས་ག་ཅི་	-10.8098
འགྱེལ	-10.8098
་ཟེར་མི་	-10.8099
ལཱ་དེ་	-10.81
་ནི་བཟུམ་འདུག	-10.8101
འཛོལ་སོ་ནུག་ཟེར་	-10.8102
ཨ་ནེམ་ཅིག་	-10.8102
མ་འབད་ཟེར་སླབ	-10.8103
ཙང་ཙ་	-10.8103
ེད་	-10.8103
སླབ་སྨོ	-10.8104
▁འཕྲིན་ལས་	-10.8107
དང་སངས་རྒྱས་	-10.811
གཟའ་མིག་དམར་གྱི་	-10.8112
མི་དང་	-10.8112
འབད་མ་དགོཔ་	-10.8114
འབག་འོང་ནུག།	-10.8115
▁ང་ངེའི་	-10.8115
གྱུར	-10.8116
ལྟེ་བ་ནང་	-10.8117
..	-10.812
ཁྱོད་ཨིན་ན	-10.8123
རྩ་འགེངས་ཡི།	-10.8124
▁བཟང་པོ་གིས་ཁོ་	-10.8127
ཆེ་ཏོག་ཏོ་	-10.8127
ཨུ	-10.8129
ག་ཏེ་འགྱོ་ཡི་ག་	-10.8129
ཤ་འདི་	-10.813
ལས་སྐྱིད་	-10.813
་བར་འགྱོ	-10.8132
དེ་འབད་ནི་ནང་	-10.8135
ཟླཝ་ནང་	-10.8136
▁ང་གིས་བལྟཝ་ད་	-10.8137
བླུགས་ནུག།	-10.8138
་མི་ཚུ་གིས་	-10.8139
གངམ་	-10.8139
དཔེ་དེབ་འདི་ལྷག	-10.814
དུས་ཡུན་ག་དེམ་ཅི	-10.8142
▁བི་	-10.8143
ཡར་དྲག་འགྱོ	-10.8144
བློ་ཕམ་སི་སི་	-10.8144
▁ཀེ	-10.8145
སྤར་	-10.8148
བྱུང་སྟེ་	-10.8152
མཐོངམ་མས་ག	-10.8153
སློབ་ཕྲུག་ཅིག་	-10.8154
▁འགོ་དང་པ་	-10.8154
ང་གིས་ཨ་ཕི་དེ་	-10.8156
ལུ་ཨ་རྟག་ར་	-10.8157
ག་ཅི་སླབ་ཅི	-10.8157
ལྟག་ཀོ་	-10.8157
བཀྲ་ཤིས་བདེ་ལེགས	-10.8164
འདྲོགཔ་མས།	-10.8165
དབྱེ་དཔྱད་འབད	-10.8171
མཚོ་མཐའ་ལུ་	-10.8173
བསྒུག་དགོ	-10.8175
གྲ་སྒྲིག་ཚུད	-10.8175
ཕོར	-10.8176
ངོ་ཤེས་པས	-10.8179
མ་ཚུགས་པས།	-10.8179
སེམས་མ་དགའ་བས	-10.8179
དྲན་མེད་བརྒྱལ	-10.8185
བསམ་ཚུལ་	-10.8185
དངུལ་ཕོག་	-10.8188
ལས་ཚན་	-10.8188
མི་མཐོང	-10.8189
གཉིས་པ་འདི་	-10.819
་མི་ཕོ་སྐྱེས་	-10.8191
ཁོ་རའི་ཨ་ལུ་ཚུ་	-10.8193
སློབ་གྲྭ་ལས་	-10.8193
མནོཝ་མས་ཡ	-10.8194
་དགོཔ་ཨིན་ན་	-10.8194
ཁོ་རའི་ལགཔ་	-10.8194
ཕུད་	-10.8194
རླངས་	-10.8199
མི་ཤེས་ཡ	-10.8201
དགོ་ནི་ཨིན།	-10.8204
▁ས་གནས་འདི་	-10.8205
འབྲི་རྩོམ་	-10.8205
▁ཡང་ཅིན་ང་གིས་	-10.8206
ཐག་བཅད་ཅི	-10.8206
དཔག་	-10.8211
་དགོ་མནོཝ་མས་ག	-10.8211
ལོག་ཅི་ར་	-10.8211
▁འདི་ག་དེ་སྦེ་	-10.8211
ཀྱི་ཤུལ་ལས་	-10.8212
བལྟ་བཤལ་	-10.8213
ལུ་ང་བཅས་ཀྱིས་	-10.8213
གཤིས་	-10.8213
མེན་རུང་	-10.8215
ཨ་ཕི་དེ་འབད་ཚུགས	-10.8215
ཡུ་ཀེ་གི་	-10.8216
སྤྲོ་བ་མེད།	-10.8216
བླམ་བན་ད་	-10.8217
གལ་ཅན་གྱི་	-10.8219
ལམ་བདའ་སྟེ་	-10.8219
ཐིམ	-10.822
ཆགས་ནུག།	-10.822
ཟ་ཁང་གི་	-10.822
ལྷབ་དོ།	-10.822
་ཟེར་གོ་ཡི།	-10.8221
གྲོགས་	-10.8223
མཐར་མ་འཁྱོལ།	-10.8225
ཁས་བླངས་འབད་མི་	-10.8226
ཀྲོ	-10.8227
ཀྱི་དོན་ལས་	-10.8228
ལོག་འཐོན་འོང	-10.8228
མཐོང་སྣང་འདི་	-10.8228
སླབ་མ་ཚུགས	-10.8228
ཨ་ལུའི་གནས་སྐབས་	-10.8233
་དགོ་པ་ཅིན་	-10.8234
འབད་དགོཔ་ཨིན་ན	-10.8238
འཐེན་ནི་	-10.824
ཚ་དྲོད་རན་ཏོག་ཏོ	-10.8242
་ཟེར་འདྲི	-10.8243
པར་ཆས་འདི་	-10.8243
དཀྲུམ	-10.8245
་མ་ཚུགསཔ་སྦེ་	-10.8247
འཐུས་མི་ཚུ་	-10.8248
སི་ཊི་	-10.8248
སྡེ་ཚན་ཚུ་	-10.8248
འཛག	-10.8249
མི་མང་གི་	-10.825
རིམ་སྒྲིག་	-10.8254
ཤོབ་རྐྱབ་ནུག།	-10.8256
༣༤	-10.8258
ཅིག་ཨིནམ་དང་	-10.8259
ཏོག་ཏོ་སྦེ་	-10.8259
མང་ཤོས་ཀྱིས་	-10.8261
འབད་མི་ཅིག་ཨིན།	-10.8261
▁ངེ་གི་ཨ་པ་འདི་	-10.8261
ལྷབ་དགོཔ་	-10.8262
▁ང་གིས་ཧེ་མ་ལས་	-10.8265
ལཱ་ཁག་ཨིན།	-10.8267
ཧ་གོཝ་	-10.8267
ཁྲིམས་མཐུན་	-10.8268
ངེས་བརྟན་བཟོ	-10.8268
བལྟ་དགོ་པས།	-10.827
གཏན་གཏན་	-10.827
འཚབ་འཚབ་སྦེ་	-10.8272
འཁརཝ་	-10.8274
མེན་པའི་	-10.8274
▁རྒྱལ་པོ་དང་	-10.8275
མ་གྱིས་	-10.828
ཡོད་མི་དེ་	-10.8281
་ནི་ཨིནམ་	-10.8281
ཁ་མི་བཟེད	-10.8284
ང་བརྟན་བརྟན་མེད།	-10.8284
ཧ་གོ་ཚུགས	-10.8286
དཔེར་ན་	-10.8286
▁དུས་ཚོད་འདི་	-10.8286
ཚབ་ཚུབ་	-10.8288
དེ་དང་གཅིག་ཁར་	-10.8288
▁འ་ནི་འདི་	-10.8289
མ་ཤེསཔ་འོང་།	-10.8289
ང་བཅས་དང་	-10.8291
ག་ཅི་ཅིག་སླབ	-10.8292
ས་ཁོངས་ཀྱི་	-10.8294
▁ཨ་རྟག་ར་	-10.8295
དགའ་ཡི་ག	-10.8295
མི་འབད་འོང་ཟེར་	-10.8296
་ནི་དཔའ་བཅམ་ཅི།	-10.8297
རགས་	-10.8301
ངང་	-10.8302
ཤེས་རིག་	-10.8302
བཏབ་ནུག།	-10.8303
ག་ཏེ་ལས་ཐོབ་ཅི	-10.8304
གློག་འཕྲིན་ཁ་བྱང	-10.8304
▁སེམས་ཅན་	-10.8306
ཨཱསི་ཊེ་ལི་ཡ་ལས་	-10.8306
▁ཁོང་གིས་མོ་	-10.8306
བཟོ་གྲྭ་ཁང་	-10.8307
འགོ་བཙུགས།	-10.8307
འཇའ་	-10.8309
པདྨོ་	-10.8309
▁ཨ་ཕ་	-10.8311
དང་ལྷ་མོ་	-10.8312
རྟིང་བདའ་སྟེ་	-10.8312
་དེ་འབདཝ་ད་ཁོ་	-10.8315
སྡོད་སའི་	-10.8319
ཨིན་ནའི་སྐོར་ལས་	-10.8319
མ་འོང།	-10.832
སཊ་	-10.832
ངེ་གི་ཨམ་སྲུ་	-10.8321
▁ཁྱོད་རའིི་	-10.8321
ལུད་	-10.8322
མ་སྡོད་ཟེར་	-10.8323
ག་ར	-10.8324
གི་གྲངས་སུ་	-10.8325
སྒོར་སྒོ་	-10.8326
▁ང་གིས་ང་ར་ལུ་	-10.8326
▁ཆོས་སྐྱིད་དང་	-10.8328
སླབ་སླབ་འོང་།	-10.8328
ལྷོད་མི་	-10.8328
བཟོ་གེ།	-10.8332
▁སི	-10.8332
བྲལ་	-10.8333
དགོཔ་ཅིག་	-10.8333
་ཞིནམ་ལས་ཚུར་	-10.8335
ཚུན།	-10.8335
ལམ་འགྲུལ་འབད	-10.8335
༣༢	-10.8336
▁ཡུ་	-10.8336
རྣམ་རྒྱལ་ལུ་	-10.8338
་ཀྱི་	-10.8339
གཱན་	-10.834
གླ་འཐུས་	-10.8342
ལོང་སྡོད་ནུག།	-10.8342
ལན་ལོག་	-10.8344
▁ངེའི་ཨའི་གིས་	-10.8344
ལཱ་གཡོག་ཅིག་	-10.8344
་ཡོདཔ།	-10.8345
གཙུག་སྡེ་	-10.8346
མ་འབད་མི་	-10.8346
པཱན་	-10.8347
དང་རྡོ་རྗེ་གིས་	-10.8348
འདི་མགྱོགས་པ་ར་	-10.8352
ཚབས་	-10.8356
གདམ་ཁ་གཞན་	-10.8356
འབྲི་ཅོག་	-10.8359
ལུ་སེམས་ཤོར	-10.8359
དཀའ་ངལ་དེ་	-10.836
ཞིམ་ཏོང་ཏོ་འདུག།	-10.8361
༣༣	-10.8362
ཁག་ཆེ་དྲགས་	-10.8362
བལྟ་འོང་།	-10.8362
ཨཱསི་ཊི་ལི་ཡ་ནང་	-10.8362
ཁས་བླངས་པ་	-10.8363
ལེ་ཤ་ཅིག་འདུག།	-10.8363
བསུ་ལེན་	-10.8364
གལ་ཅན་ཨིན།	-10.8365
▁ནཱ་ལུ་ཡོད་མི་	-10.8366
སྐུད་	-10.8366
ཌོན་	-10.8368
འོང་ཟེར་ཤེས་ཅི།	-10.8368
ག་ཅི་ཡོད་ག་	-10.837
▁ག་ཅི་ཡང་	-10.8372
་ལར་	-10.8374
འུ་སྡུག་ཡི	-10.8376
མ་ལུ་	-10.8377
ག་ཅི་ཅིག་འབད་ནི་	-10.8377
གིས་ཁོ་གིས་	-10.8379
ཉོ་ཡི	-10.8382
སྨིན་	-10.8383
དཔའ་བཅམ་ནུག།	-10.8385
གཡོག་བཀོལ	-10.8385
ཡོད་དོ་བཟུམ་ཅིག་	-10.8386
▁བྱི་ལི་	-10.8388
རྫོང་	-10.8388
བཀོད་ནི་	-10.839
བཟང་གིས་	-10.839
བཏོནམ་	-10.8391
སློབ་དཔོན་འདི་	-10.8392
མཐུད	-10.8393
འདབ་མ་	-10.8394
ཉེས་ཆད་	-10.8396
སློབ་ཁང་གི་	-10.8396
དུས་ཚོད་རྫོགས	-10.8396
བློ་གྲོས་	-10.8398
ཁྱི	-10.8401
འབད་དགོཔ་འཐོན	-10.8402
་ནི་ལུ་རྩ་འགེངས	-10.8402
་ཚུགས་འོང་ཟེར་	-10.8403
ཐིམ་	-10.8405
འིན་	-10.8405
ཝ་ཅིག་	-10.8407
▁ང་གིས་ཟླ་བ་ལུ་	-10.8407
སོང་ཡི	-10.8408
སྦེ་བཞག།	-10.8409
ཞལ་འདེབས་བྱིན	-10.8409
འབད་དགོཔ་འདུག	-10.841
▁མོ་ཨ་རྟག་ར་	-10.8411
༢༠༡༨	-10.8412
ངེ་གི་མི་ཚེ་	-10.8415
ངེ་གི་ཨའི་	-10.8416
སྒེར་དོན་	-10.8417
▁ཀཱིརིས་འདི་	-10.842
▁ངེ་གི་ཨམ་སྲུ་	-10.8421
ཡོད་ཟེར་སླབ	-10.8422
གི་སྐོར་ལས་སླབ་	-10.8423
མ་འོངས་པ་ལུ་	-10.8423
གནང་བ་མི་བྱིན	-10.8423
དྲནམ་བཏོན་ཏེ་	-10.8424
པེན་	-10.8427
གལ་སྲིད་མོ་གིས་	-10.8427
སྣང་མེད་བསྐྱུར	-10.8433
ཆེ་བས།	-10.8434
མེ་འབར	-10.8434
འུཊ་	-10.8434
འདི་བཟུམ་ཅིག་	-10.8435
གསར་བཏོན་འབད	-10.8435
ལཱེ་ལ་	-10.8437
ལོ་བཅུ་གསུམ་	-10.8438
་ནི་དེ་	-10.8438
▁རང་བཞིན་	-10.8439
མཉམ་རུབ་	-10.8441
་ཚུགས་པའི་རེ་བ་	-10.8441
བྱིན་ཡི	-10.8442
བཤུབ	-10.8443
འབྱུང་སྲིད།	-10.8444
རག་	-10.8446
ཟི	-10.8447
འོང་སྲིད	-10.8448
དབུ་ཁྲིད་	-10.8449
སློབ་གཉེར་	-10.845
འགྱེལ་	-10.845
དགོཔ་སྡོད་ཅི།	-10.8452
རྩེདམོ་རྩེད	-10.8452
གཙོ་	-10.8453
རང་སྲོག་བཅད	-10.8454
ངབཅས་	-10.8455
▁སུ་	-10.8455
པཱ་	-10.8456
ཉིན་མར་	-10.8458
འབད་ནི་མི་འོང	-10.8458
ེན་གྱི་	-10.8458
ལས་རིམ་གྱི་	-10.8458
གཞུང་ལམ་	-10.846
ཡིག་འཕྲིན་	-10.8461
ཚུ་ལས་གཅིག་	-10.8462
མི་རབས་	-10.8462
ངལ་གསོ	-10.8462
ཡིད་ཆེས་མ་བསྐྱེད	-10.8464
ག་གི་ཡང་	-10.8465
འབྲི་དེབ་	-10.8466
འདི་བཅོ་ཁ་རྐྱབ	-10.8467
བཙུགས་དགོ།	-10.8467
དཔེ་དེབ་ལྷག	-10.8471
▁ཉི་མ་གིས་ཁྱོད་	-10.8472
གྱི་ཅུང་	-10.8473
འགྲོས་	-10.8474
བྱིན་དགོཔ་	-10.8474
རུལ	-10.8477
ཡང་འདུག།	-10.8477
འདྲོག་བྱེལ་འཐབ་	-10.8481
བསྒུགས་སྡོད	-10.8481
ཞིང་ཁམས་	-10.8482
ལས་གཅིག་	-10.8483
མར་འབབ་	-10.8484
ཁོ་ར་རྐྱངམ་ཅིག་	-10.8486
འཚོལ་མི་འདི་	-10.849
།དེ་ལས་	-10.8491
ཨཱེ	-10.8492
ག་ཅི་འབད་ཚུགས	-10.8492
གལ་སྲིད་ཁོང་གིས་	-10.8493
བཞག་སའི་ས་ཁོངས་	-10.8495
ཕན་ཐོགས	-10.8495
ཡོད་མི་ཅིག་	-10.8496
མི་འབྱུང་།	-10.8498
མགྱོགས་པ་སྦེ་	-10.8499
ང་བཅས་ག་ར་གིས་	-10.85
སྐྱེ་ལྡན་	-10.8504
ལྷོདཔ་ཅིག་	-10.8505
ལཱ་གཅིག་ཁར་འབད	-10.8506
ཁས་བླངས་འབད་ནུག།	-10.8507
གླ	-10.8508
འབྲུ	-10.8511
གཉིད་སྡུག་རྐྱབ་	-10.8512
དཔྱ་སྙོམས་	-10.8512
ཆེན་པོ་	-10.8513
▁ཡང་ན་	-10.8514
ཀར	-10.8514
འགྱོ་ནུག	-10.8516
ནང་སྡོད་ཅི།	-10.8516
ཁང་མིག་འདི་ནང་	-10.8517
ག་ཅི་སྦེ་མ་དགའཝ་	-10.8517
མཁས་དྲགས་	-10.8517
ཨ་ལུ་སྦེ་སྡོད	-10.8519
▁ཁྲིམས་	-10.852
▁ཁྱེད་ཆ་ཁྱབ་	-10.8521
སེམས་མ་དགའ།	-10.8523
▁སི་	-10.8524
གཞོནམ་སྦེ་	-10.8525
རི་མོ་	-10.8526
ལུ་རྒྱབ་འགལ་	-10.8529
ལུ་དེ་འབད་ནི་གི་	-10.8532
བཱར	-10.8532
ག་ཅི་ནང་	-10.8534
མ་འབད་ཟེར་སླབ་ཅི	-10.8536
མཐོ་ཚད་	-10.8537
འཐོན་འོང།	-10.8538
མཇུག་ཨིན།	-10.8538
ཡོདཔ་ལས་ང་	-10.8539
ཨོསི་ཊི་ལི་ཡ་ལུ་	-10.854
ཽ	-10.854
ཐབས་བྱུས་	-10.8541
འབད་རུང་བཏུབ་ནུག	-10.8542
དབུགས་གཏོང་ལེན་	-10.8543
དགོ་པས་ཟེར་	-10.8544
སེན་ཊི་མི་ཊར་	-10.8545
་ག་མི་ཤེས།	-10.8546
དཀྲུམ་	-10.8546
ལེགས་སྦྱར་བ་	-10.8552
ལག་ལེན་འཐབ་ག	-10.8552
་དེ་འབདཝ་ད་ང་	-10.8555
རྐྱབ་ཅི	-10.8556
ཨིསི་ཊི	-10.8556
་ནི་འདི་གིས་ང་	-10.8558
མེདཔ་བཟུམ་འདུག།	-10.856
▁དཀར་སངས་དང་	-10.856
དང་འབྲེལ་	-10.856
བདེན་ག	-10.8561
མི་ག་དེམ་ཅིག་	-10.8564
འབད་མ་ཚུགས་མི་	-10.8565
ཤེས་འདོད་	-10.8567
གནས་སྐབས་ཅིག་	-10.8569
▁འཛམ་གླིང་ནང་ལུ་	-10.857
ཕོརཔ་གང་	-10.8571
དེ་ར་	-10.8571
སྨད་	-10.8572
ཁས་བླངས་འབད	-10.8574
་མི་ཚུགས་ག	-10.8575
འོད་ཟེར་	-10.8575
ཤོག་ཟེར་	-10.8576
སྦེ་སྡོད་ནི་འདི་	-10.8579
འགྲན་བསྡུར་འདི་	-10.8581
གི་འཐུས་མི་	-10.8584
ཀཱལ་	-10.8584
བཟོཝ་སྨོ	-10.8586
ཨ་ཞེ	-10.8586
་སའི་ས་གོ་	-10.8586
▁ཁོ་ད་ལྟོ་	-10.8587
▁རྟེན་འབྲེལ་	-10.859
གཞིས་	-10.8591
ལྟ་མ་	-10.8591
བསྡམས་བཞག	-10.8592
ཤོག་ཟེར་སླབ	-10.8593
ཁུངས་མེད།	-10.8594
ཉེན་ཁ་ཅན་ཨིན།	-10.8596
ཇ་འཐུང	-10.8598
ཞལ་འཛོམས་ནང་ལུ་	-10.8598
སྐྱིད་	-10.8598
ལྷ་སྒྲོན་འདི་	-10.8599
བཀག་ནི་	-10.8599
འགྱོ་ནི་སྨོ	-10.8599
་ག་མི་ཤེས་པས།	-10.8603
▁སློབ་དཔོན་འདི་	-10.8604
གདུག་རྩུབ་ཅན་	-10.8604
ལཱ་འབད་ནིའི་	-10.8605
གཟབ་གཟབ་འབད	-10.8605
མཁོ་ཆས་ཚུ་	-10.8606
གྲལ་ཁར་	-10.8608
ཉོ།	-10.861
ཕམ་ཚུ་གིས་	-10.861
ཡར་སོ་ཡི	-10.8611
ག་ཡང་མིན་འདུག	-10.8612
སྒ	-10.8612
རྒྱལ་ཡོངས་ཀྱི་	-10.8613
ཡུད་ཙམ་ཅིག་	-10.8619
ཨང་རྩིས་	-10.8622
་མནོ་ཡི	-10.8622
བཟུམ་ཨིན།	-10.8622
བཙུགས་བཞག	-10.8625
བཙོན་པ་	-10.8627
▁ཝ	-10.8628
རྩིགཔ་	-10.863
དེ་ཅིག་ར་ཨིན།	-10.863
▁དབང་ཆེན་གྱིས་	-10.8631
ཟློས་གར་	-10.8632
ཆག་ཆགཔ་	-10.8632
འཆལ་	-10.8632
མི་འགྱོ་ཟེར་	-10.8634
མ་ལྷོད་ཚུན་ཚོད་	-10.8634
་ནུག་ཟེར་མ་མནོ	-10.8635
སྤུར་	-10.8637
▁ཨ་པ་གིས་	-10.8638
འདི་འ་ནཱི་	-10.8639
བརྙ་	-10.8639
་གོ	-10.8639
ཚོགས་སྡེའི་	-10.864
རྗ	-10.864
དབང་འདུས་དང་	-10.8642
ལེགས་ཤོམ་ཡོད	-10.8643
གི་གནས་སྟངས་	-10.8643
▁ལཱ་གཡོག་	-10.8644
གིས་སྐོར་ལས་	-10.8646
ག་ཏེ་ཅིག་ཁར་	-10.8647
ཡར་རྒྱས་གཏང	-10.8648
ཨ་ནཱི་དཔེ་དེབ་	-10.8649
ཧ་སག་ལོང	-10.8649
ཡ་མཚན་ཆེ་བའི་	-10.8653
ཁྱོད་ཀྱིས་ཁོ་	-10.8657
མཛོག་	-10.8658
ནི་མེད།	-10.866
ཐོན	-10.866
སྦེ་མཐོང་ནུག།	-10.8662
མ་འཐོན	-10.8663
སྡོ	-10.8663
་ག་ཅི་སྦེ་ཟེར	-10.8665
གློག་བརྙན་ཁང་ནང་	-10.8665
ཤག་	-10.8666
རྩྭ་ཐང་	-10.8666
ཐགས་	-10.8667
སྨན་འདི་	-10.8669
▁ང་ལུ་ཁྱོད་ཀྱིས་	-10.8669
རྩ་བ་ལས་ར་	-10.867
གློག་བརྙན་བལྟ	-10.867
བལྟ་དོ།	-10.8671
སྤྱང་	-10.8672
དྲན་ཡི།	-10.8673
སློབ་གྲྭ་ནང་ལས་	-10.8674
▁གནས་ཚུལ་འདི་	-10.8676
བཏང་ནི་	-10.8676
གྲོས་འཆར་བཀོད	-10.8678
ཡང་མིན་འདུག།	-10.8679
ཁ་ཉེས་	-10.868
▁གནམ་གཤིས་འདི་	-10.8682
འཇིགས་མེད་ཀྱིས་	-10.8684
▁དེ་གིས་ང་	-10.8685
ད་རིས་ཉིན་སྨད་	-10.8686
ཁཝ་རྐྱབ	-10.8686
ལི་གིས་	-10.8686
▁ངེ་	-10.8688
འབྱུང་མི་	-10.8691
་མེན་ན།	-10.8694
ཁོང་ཁྲོ་ལང	-10.8696
བལྟཝ་	-10.8697
སྡོད་ཞིནམ་ལས་	-10.8698
འགྱོ་ནི་ཨིན་པས།	-10.87
ང་བཅས་ལུ་སླབ	-10.8702
གི་ས་ཁར་	-10.8702
ཧབ	-10.8702
ཨིང་ལེནཌ་ལུ་	-10.8705
ཕན་ཐོགས་ཅན་ཅིག་	-10.8705
བཟུམ་སྦེ་མཐོང	-10.8709
▁ཊོམ་གྱིས་ང་ལུ་	-10.871
་མི་འདི་ལུ་	-10.8711
སྙན་ཆ་འདི་	-10.8713
ཧ་ལས་སི་སི་གི་	-10.8714
▁ཀརྨ	-10.8714
ཨིན་ན་ཤེས་པས	-10.8715
ཡར་སེང་འགྱོ	-10.8715
བདེ་ཏོག་ཏོ་འདུག།	-10.8716
ནང་ར་	-10.8718
བཀོ་བཞག་ཡི	-10.8719
ཁ་སླབ་ཅི།	-10.872
མ་བཟོ	-10.8725
ལྷག་ནི་ལུ་	-10.8725
ག་ཅི་ཡང་མ་འབད	-10.8727
ལས་འགོ་བཙུགས་ཏེ་	-10.8728
ཨམ་སྲུ་ལུ་	-10.8729
ཁྲོམ་སྡེའི་	-10.8729
ཕེརེནཆི་སླབ་	-10.873
ག་ཅི་འབདཝ་ཨིན་ན	-10.8732
བརྐུ	-10.8732
ཨུ་	-10.8732
▁བཟང་པོ་གིས་དེ་	-10.8732
ལུས་རྩལ་	-10.8733
དོ་བཟུམ་ཚོརཝ་མས།	-10.8733
▁གལ་སྲིད་ང་	-10.8734
སིཊ་	-10.8736
འབད་ཟེར་སླབ་ཅི།	-10.8736
མ་རྩ་གཞི་བཙུགས་	-10.8736
དང་བློ་སླབ	-10.8737
ཆང་ཁང་ནང་	-10.8739
གི་དོན་ལུ་ཨིན།	-10.8739
སྙོམ་	-10.874
བསམ་ཞིབ་འབད	-10.8746
་ནི་གི་རེ་འདོད་	-10.8746
▁ང་ལུ་ངེ་གི་	-10.8747
བཟུམ་ཅིག་འདུག	-10.8749
སྡོད་ཁང་	-10.8751
རིག་པ་ཅན་ཅིག་	-10.8752
་བལྟ།	-10.8754
སྲིངམོ་	-10.8754
▁ཁོ་ནཱ་ལུ་	-10.8755
དགའ་སྟེ་	-10.8755
▁ང་གིས་ལཱ་	-10.8755
ཙིགཔ་ཟཝ་	-10.8755
རྐང་རྩེད་རྩེ	-10.8758
ཨ་ལུ་ལུ་	-10.8758
བཙོན་ཁང་ནང་ལུ་	-10.8759
ཤེས་མི་འདི་	-10.8759
ཨསི་ཊ་ལི་ཡ་ལུ་	-10.876
པ་འོང།	-10.8765
མ་འཕྱིས	-10.8766
ངལ་གསོ་འདི་	-10.8766
དྲན་པ་བཏོན	-10.8767
མནོ་མི་ལས་	-10.8767
བཀྲམ་སྤེལ་འབད	-10.8769
▁རྒྱལ་	-10.8769
▁གློག་མེ་	-10.8771
་མནོ་བའི་རེ་བ་	-10.8771
རིང་ལུ་	-10.8771
ཏུ་	-10.8772
ཤེས་དགོ་མནོ་ནུག།	-10.8773
ཕྱུ་གུ་	-10.8775
རེག་	-10.8775
བུ་འདི་	-10.8776
ལས་སྡེ་འདི་	-10.8776
ག་ཅི་འདི་	-10.8778
གནོན་	-10.8778
་པ་ཅིན།	-10.8778
ཐོགས་ལུས	-10.8781
ུ	-10.8781
འབད་དོ	-10.8784
བཱི	-10.8784
▁ངག་དབང་	-10.8784
ཡང	-10.8784
བྱ་བ་	-10.8785
ང་རང་	-10.8787
་ཚུགསཔ་འོང་།	-10.8787
ཚད	-10.8788
བདེན་ཁུངས་བཤད	-10.8789
ཡར་འཐུ	-10.8789
མེན་པས	-10.8796
རུ་ཁག་	-10.8799
ལའི	-10.8799
༢༠༠༠	-10.8801
ཨའི་ལུ་	-10.8802
གློ་བུར་ཉེན་འཚུབ	-10.8808
ལེགས་སྦྱར་	-10.8809
བདག་འཛིན་འཐབ་	-10.8811
གྱིབ་མ་	-10.8813
བྱུང་བྱུངམ་	-10.8816
སྤྲོ་བ་ཡོདཔ་	-10.8816
མ་ཕོག	-10.8819
འབད་ནིའི་དཔའ་བཅམ	-10.8822
ལུ་གྱུར་ཡི།	-10.8823
ས་པའི་	-10.8823
་དགོ་མནོ་ཡི	-10.8824
དོད་རིལ་རི་	-10.8824
ངོ་སྦྱོར་འབད	-10.8824
▁ཌེན་གྱིས་	-10.8825
ཟླ་བ་འདི་	-10.8826
རྒྱལ་ཁབ་ལུ་	-10.8827
ཝཊ་	-10.8829
་མི	-10.883
སྐད་སྒྱུར་རྐྱབ	-10.883
ལགཔ་མཐུད	-10.8833
་དགོཔ་འདུག	-10.8833
དུས་ཀྱི་	-10.8833
འབད་སྡོད	-10.8833
ཕིཊ་	-10.8834
ཅོག་ཙེ་གུར་	-10.8834
འཚིག་	-10.8834
སྦང	-10.8835
སྡི་ཆེ་སི་སི་	-10.8835
རྡུལ་ཕྲན་	-10.8835
ཀྱིས་ཁོང་	-10.8836
སྦོམ་སྦེ་ར་	-10.8837
བཟུམ་ར་	-10.8838
རྩིས་རྐྱབ་ཅི།	-10.8838
ཨིན་རྫུ་བཏབ	-10.8839
སྨན་གཡོགམོ་	-10.8839
སེམས་ནད་	-10.884
འཛོལ་བ་འདི་	-10.884
རྐྱབ་འོང་།	-10.8843
ཁྱོད་དང་མཉམ་	-10.8843
མཉམ་གཅིག་སྦེ་	-10.8844
བསྡམས་	-10.8845
དེ་འབད་མི་ལུ་	-10.8846
ཨིན་ན་ཁྱོད་ཀྱིས་	-10.8846
བལྟ་བ་ཅིན་ཀརྨ་	-10.8848
བཀོ་	-10.885
▁ལྷག་པ་གིས་	-10.8851
བིར	-10.8852
འདི་མི་དགའ།	-10.8853
ག་ལུ་ཡང་མི་སླབ	-10.8853
དགའ་བ་ཅིན་	-10.8856
ག་ལུ་ཡང་མ་སླབ།	-10.8856
བདེ་ཉམས་	-10.8858
མདངས་	-10.8858
འབྲུག་ལུ་	-10.886
ཅནམ་	-10.8861
དེ་གུར་	-10.8861
སྦེ་འགྱོ་ཡི།	-10.8861
ཕལ་	-10.8861
▁བཟང་པོ་དང་	-10.8862
ནུབ་མོའི་	-10.8863
ལུ་གདམ་ཁ་	-10.8863
▁ང་སེངྒེ་	-10.8863
སིལ་	-10.8864
བདེན་པ་སླབ	-10.8864
སླབ་མིའི་ནང་	-10.8865
དགའ་ཤོས་ར་	-10.8866
ལྷན་	-10.8869
ཊོན་ལུ་	-10.8869
▁དངོས་གྲུབ་ཀྱི་	-10.887
ངེ་གི་ཀཱར་	-10.887
བཙོན་ཁང་	-10.8872
སྒྲིང་སྒྲིང་སྦེ་	-10.8873
གྲུ་ནང་	-10.8874
ཧ་མི་གོ།	-10.8875
ཁྱད་འཕགས་ཅན་གྱི་	-10.8875
སྤྱི་ལོ་༢༠༡༨	-10.8876
གདམ་ཁ་རྐྱབ་ནི་	-10.8877
ལུ་གོ་སྐབས་	-10.8878
གྱོང་རྒུད་	-10.8878
སྦོམ	-10.8878
འདྲི།	-10.8879
འུ་མ་སྡུག	-10.8881
་གེ་	-10.8882
ཀྲེག	-10.8884
སྐད་རྐྱབ་དེས།	-10.8884
བྱུང་མི་འདི་	-10.8886
རྩ་བ་ལས་	-10.8889
ངཀ་	-10.889
▁ང་ཕྱི་ཁར་	-10.889
དྲགས	-10.8891
འོང་ཡི་ག	-10.8893
མགོན་པོ་	-10.8894
སྟོན་བྱིན་ཡི།	-10.8894
ཧལ་	-10.8897
དབུ་འཛིན་	-10.8904
▁ཡུ་ཀེ་	-10.8904
་དགོ་མནོ་	-10.8905
མོ་བཏབ་	-10.8905
ཚེ་རིང་ལུ་	-10.8907
སྦོ་ལོགས་ཁར་སྡོད	-10.8908
ཨིང་ལེནཌ་གི་	-10.891
དང་ཀརྨ་དབང་མོ་	-10.8912
དེ་གི་ཤུལ་ལས་	-10.8912
སྤྲོ་ཞེན་ཅན་	-10.8912
འགྱོ་དགོ་མནོཝ་	-10.8913
སྤྲོད།	-10.8913
དབང་པོ་སྐྱོན་ཅན་	-10.8914
མཐུན	-10.8914
སྒྲ་གདངས་	-10.8914
དོར་	-10.8915
་ནུག་ཡ	-10.8915
བཅོ་ལྔ་	-10.8917
མིག་ཏོ་ཚ	-10.892
མནོ་དོ་བཟུམ་ཅིག་	-10.8922
རྒྱན་ཤོག་	-10.8922
ལོག་སྟེ་མི་འབད	-10.8922
ཐང་རིལ་རྩེ་ནི་	-10.8924
ཀོཝ་	-10.8925
སེན་མོ་	-10.8926
མི་དམངས་	-10.8927
ཕྱ	-10.8927
ཁག་དྲགས་	-10.8928
ལིན་ཌ་	-10.8928
བོར	-10.8929
▁ང་གིས་ང་བཅས་ལུ་	-10.8932
་ན་	-10.8932
ལྡན་གྱིས་	-10.8932
བྱི་ལི་ཚུ་	-10.8933
གཱོལ་	-10.8934
སྦེ་ཚོར་ནུག།	-10.8936
མངར་ཁུར་འདི་	-10.8937
སྦོམ་ཚུ་	-10.8937
བཞགཔ་	-10.8937
བཅས་	-10.8939
ཤོག་འཛིན་འདི་	-10.894
ཨིན་མེན་ན	-10.894
གླ་ཁར་ལེན་ནུག།	-10.894
རྐྱབ་ཚུགས།	-10.8941
མནོ་ལུགས་	-10.8944
སླར་	-10.8945
ཅིག་མཐོང་ཅི།	-10.8945
སྡོད་ཟེར་སླབ་ཅི།	-10.8946
ཅིག་གྱོན	-10.8948
▁དམག་	-10.8951
གྲུ	-10.8955
▁ཕོ་སྐྱེས་ཚུ་	-10.8956
ངག་དབང་གིས་	-10.8957
ཕོགཔ་ཨིན།	-10.8958
རུལ་	-10.8962
གནམ་དགུན་གྱི་	-10.8963
ཟུག་	-10.8964
▁ང་བཅས་ད་ལྟོ་ཡང་	-10.8965
་ཟེར་མནོ་མས།	-10.8966
ཉེན་ཁ་ཅན་གྱི་	-10.8971
འདྲོག་ནི་	-10.8972
ཉི་མ་གི་ལྟོ་	-10.8973
ཉིནམ་ལུ་	-10.8974
རྩལ་རྐྱབ་ནི་ལུ་	-10.8974
མི་རྐྱབ	-10.8978
བསམ་པ་རྫོགས	-10.898
ཐེར་འབུམ་	-10.898
མཚོ་མོ་འདི་	-10.8981
ངོས་ལེན་འབད་ནུག།	-10.8982
▁ཁོ་གིས་སླབ་མི་	-10.8982
བརྡ	-10.8983
ངེས་པར་དུ་དགོཔ་	-10.8984
གནག་	-10.8987
ཉི	-10.899
་དགོཔ་འཐོན	-10.8991
ལཱ་འབད་ནི་འདི་	-10.8992
བལྟ་ཡི་ག	-10.8993
ལྷག་ཡི།	-10.8994
ལས་ཐར	-10.8994
དྲག་འོང་།	-10.8995
ཚེ	-10.8996
ཁམས་ཕོག་རྐྱབ་	-10.8997
ཉེས་མེད་	-10.8998
ལོང་སྟེ་	-10.9003
འགོ་ཁྲིད་	-10.9004
བཀོ་བཞག་སྟེ་	-10.9004
ངོ་སྦྱོར་	-10.9006
▁ཕྱི་རུའི་ལྟོ་	-10.9006
སླབ་ཅི་	-10.9007
སྤྱན་འབུལ་	-10.9008
རྒུན་འབྲུམ་	-10.9008
ངག་བརྗོད་	-10.9008
ཡངས་ཆག་	-10.901
ཆུ་ཚོད་བདུན་ལུ་	-10.9011
ད་རེས་ནངས་པའི་	-10.9013
མེ་ཐབ་	-10.9014
ཁྱིམ་ནང་འོང	-10.9014
བྱིན་ནིའི་	-10.9016
ཀྲོ་	-10.9016
སྦུ	-10.9017
ཐར	-10.9017
ལུ་གུས་ཞབས་	-10.9017
སྦོམ་འདི་	-10.9018
ས་ཁོངས་ནང་ལུ་	-10.9019
ཨང་གྲངས་འདི་	-10.902
ཐེ་ཚོམ་ཟ	-10.9022
བློ་སླབ་དགོ་མནོ	-10.9023
ག་ཅི་འབྱུང་ཡི་ག་	-10.9028
འུསི་	-10.903
བདེ་ཆེན་གྱིས་	-10.9033
གཏན་	-10.9037
ཁང་འདི་	-10.9039
མི་སླབ	-10.9039
ག་ཏེ་ཡོདཔ་ཨིན་ན་	-10.904
ཕྱུགཔོ་ཨིན།	-10.9043
དཔལ་འཛོམས་	-10.9043
ལྷགཔ་ཨིན།	-10.9043
འཕུར་འགྲུལ་	-10.9047
ཀྱི་སྒོ་ལས་	-10.9048
▁ཀརྨ་གིས་ཨ་ཕི་	-10.9049
ལས་འཐོན	-10.9049
ལོ་དྲུག་	-10.905
བཙོངས	-10.9052
འགྱོ་ཚུགས	-10.9052
ཡོད་པའི་སྐབས་	-10.9053
ཁང་ཚན་འདི་	-10.9054
ཨེ་མ་	-10.9055
འོང་མི་འདི་	-10.9056
འཕྱད་ནི་ལུ་	-10.9056
དྲིས།	-10.9059
ཁྱད་འཕགས་ཅན་	-10.906
དོན་ལུ།	-10.9061
མ་ལྷོད་པས།	-10.9064
མ་འགྱོཝ་སྨོ	-10.9066
ཨ་ལོ་ཚུ་	-10.9067
ང་འབད་སར་	-10.9067
འཆོལ	-10.9068
རྫིང་	-10.9069
་སྡོད	-10.907
ལྟཝ་ཨིན།	-10.907
▁དཀོན་མཆོག་དང་	-10.9071
དཔལ་ལྡན་གྱིས་	-10.9074
ཚོང་ལམ་	-10.9074
ལོག་ཅི་ལོག་ཅི་	-10.9075
ཁ་སྐོམ	-10.9076
འགྱོཝ་ལས་	-10.9078
པོའི་	-10.9078
སྟོན་གེ།	-10.9078
སེམས་ཁར་འབབ་	-10.908
གི་སྐོར་ལས་བློ་	-10.9083
ཅིག་འདུག	-10.9084
ནམ་ལས་	-10.9084
མེ་འདི་	-10.9085
རྡ	-10.9085
ནང་སྡོདཔ་ད་	-10.9088
མི་འགྱོ་ནི་	-10.9088
འཕྲལ་	-10.9089
འབདཝ་ཨིན	-10.909
སྒང་	-10.9091
ཆས་ཚུ་	-10.9096
ཀརྨ་ལུ་མོ་	-10.9096
སྐྱིན་ཚབ་སྤྲོད་	-10.9099
རྒྱུག་འགྱོ	-10.9099
▁དབྱངས་ཅན་གྱིས་	-10.91
འཆར	-10.9101
འབད་གནང་ཟེར་	-10.9101
སྒྲོལ་དཀར་	-10.9102
སྤྱི་ཟླ་དང་པའི་	-10.9103
གཞུང་ལས་མི་སེར་	-10.9106
ལུ་ལན་	-10.9106
ཅན།	-10.9109
སླབ་ད།	-10.911
བཟོའི་	-10.9111
རྐྱབ་རྐྱབ་	-10.9111
བཞག་ནི་འདི་	-10.9112
རྙིང	-10.9112
སྦྱོང་བརྡར་བྱིན	-10.9113
་ཡི་ཟེར་ཁ་བཟེད	-10.9114
འཚོལ་མི་འཐོབ	-10.9114
ཆོ	-10.9115
ཕྱེམ་ལ་	-10.9116
པ་བཟུམ་འདུག།	-10.9116
▁ཁོ་གིས་ཁོ་གི་	-10.9117
གི་འཆར་གཞི་	-10.9117
གནོདཔ་བཀལ	-10.9117
སྣུམ་འཁོར་བཏང	-10.9118
་ཏེ་སྡོད་ནུག།	-10.9122
རིན་ངོ་	-10.9123
བཱོསི་ཊཱོན་	-10.9123
ག་ནི་ཡང་མ་འབད།	-10.9123
ཕྱད་པར་འགྱོ	-10.9124
གྲོགས་རམ་ཚོགས་པ་	-10.9125
ཕྱི་ཁར་འཐོན	-10.9126
ཧེ་མར་	-10.9126
འབད་སར་འགྱོ	-10.9128
བྱི་ལི་ཅིག་	-10.913
འདི་བཟུམ་སྦེ་	-10.9132
ཆ་རོགས་འབད་གནང་།	-10.9132
བཀོ་བཞག།	-10.9132
དགོ་ཡ	-10.9134
བཅད	-10.9136
བརྙ་བཅུག	-10.9137
ཟ་ཁང་ནང་ལུ་	-10.9138
ཤ་ཁ་	-10.9138
▁ད	-10.9138
དགོཔ་སྦེ་སླབ་ཅི།	-10.9141
ཨིན་ཟེར་མ་ཤེས།	-10.9143
འཐུ་ཡི།	-10.9144
བདག་འཛིན་འབད་ནི་	-10.9146
རྩེད་འགྲན་པ་	-10.9151
▁ཨིས་	-10.9155
སྐུལ་མ་འབད	-10.9155
▁ཀརྨ་དང་ང་གིས་	-10.9156
ཡང་དག་པ་	-10.9156
ཆ་མེད་	-10.9156
སེམས་ཤི་བཅུག	-10.9158
ཨ་པ་གིས་	-10.916
གྲགས་	-10.9161
ནང་འཛུལ་ཡི།	-10.9161
▁སློབ་གྲྭ་འདི་	-10.9165
ག་ཅི་འབད་འོང	-10.9174
བྲི་སྒོ་	-10.9179
དཔེ་དེབ་ཀྱི་	-10.9181
དྲོ་པ་ཧ་སག་ལོང	-10.9181
མི་མནོ་བས་ག	-10.9183
▁ཨ་ནཱི་གིས་	-10.9184
ཚོང་ཉོ་མི་	-10.9184
ནང་འཛུལ་ནུག།	-10.9186
ལེ་ལཱ་ལུ་	-10.9186
གྲོང་གསེབ་	-10.9186
པར་སྐྲུན་	-10.9187
ཚད་འཛིན་འབད	-10.9187
▁བློ་གྲོས་	-10.9187
སྤ	-10.9189
ཀོ་ཕི་	-10.9189
མ་འབད་	-10.919
ཉལ་ཏེ་	-10.9196
དགའ་ཏོག་ཏོ་བཟོ	-10.9197
་ག་ཟེར་	-10.9199
འབད་དགོ་པས་ཟེར་	-10.92
དང་འཁྲིལ	-10.9201
ཡུན་བརྟན་	-10.9202
མཚོ་མཐའི་བྱེ་ཐང་	-10.9203
བསུན་ཆི་ཡི	-10.9206
གེ་ཟ་	-10.9208
དཔྱང	-10.9208
བཏོག་ནུག།	-10.9208
འབད་ད།	-10.9209
འཆི་བ་	-10.9211
ན་ཟུག་རྐྱབ་མས	-10.9211
དགོཔ་མིན་འདུག།	-10.9214
ངེས་བདེན་ཨིན།	-10.9215
མ་པ་	-10.9216
ཤོག་འཛིན་ཚུ་	-10.9218
གླ་ཁར་ལེན་ཡི།	-10.9218
རྗོད་སྒྲ་	-10.922
སླབ་འོང་ཟེར་	-10.9224
འདི་མོ་རའི་	-10.9224
འདྲུད་	-10.9227
ཐི	-10.9231
གླིང་ཀ་	-10.9233
བརྩིས་ཏེ་	-10.9233
ལྷན་ཚོགས་ཀྱིས་	-10.9235
▁ཇེ	-10.9236
གློག་བརྙན་གྱི་	-10.9236
དཀའ་ངལ་བསལ	-10.9237
ཚབ་བཙུགས	-10.9238
▁ད་ལྟོ་ཡང་	-10.9239
ཨིནམ་ཤེས།	-10.9243
་པའི་བསྒང་ལས་ར་	-10.9244
ཧྲིལ་བུམ་སྦེ་	-10.9245
ཆརཔ་རྐྱབ་པ་ཅིན་	-10.9248
ཀམ་པིའུ་ཊ་	-10.9249
ཡ་ལུ་	-10.9249
་ཡི་ཟེར་མནོ་ཡི།	-10.9249
་དེས་	-10.9252
▁ས་གནས་ཀྱི་	-10.9253
ཨིན་ན་ཧ་གོ	-10.9253
ཚ་གྱང་ལང་ཡི།	-10.9256
ཁྱོད་ཀྱི་ཨ་པ་	-10.9257
སྔོ་ཤིང་ཚུ་	-10.9258
ཡོདཔ་ཨིན	-10.9259
ཨཱསི་ཊི་ལི་ཡ་	-10.9261
ཐོབ་ཚུགས།	-10.9261
ཀས་	-10.9262
ཕྱེད་ཡོལ་	-10.9267
༣༡	-10.9268
་བྱིན་ཡི།	-10.9268
་བས་ག	-10.9269
རྩེད་སྟོན་འདི་	-10.927
མ་སླབ་	-10.9271
▁དེ་ཚུ་ག་ར་	-10.9272
▁འདི་ལེགས་ཤོམ་	-10.9273
▁ག་འབད་རུང་	-10.9274
ཉན་ཁུག་	-10.9276
་ནི་ལུ་སྤྲོ་བ་	-10.9278
ག་ཅི་ཅིག་ཡོད་ག	-10.9278
ཅིག་གི་རིང་ལུ་	-10.928
བཀག་ཐབས་	-10.928
བློ་འདོད་ཡོད་ག་	-10.9285
བཅས་ཆ་ཁྱབ་ཀྱིས་	-10.9285
རྟོགས་	-10.9285
ག་ཅི	-10.9286
▁ཀརྨ་དང་དབང་མོ་	-10.9287
ཚོགས་སྡེ་གིས་	-10.9289
སེམས་ཤི་ནུག།	-10.9289
མ་ཤེས་པར་	-10.9289
སྐོར་ལས་མནོ་བསམ་	-10.9293
ལོའི་	-10.9294
འཛད	-10.9295
གཅིགཔོ་	-10.9298
དགོངས་	-10.9298
གིས་དེ་འབད་ཚུགས	-10.9299
ངེས་པར་མཁོ་བ་	-10.9299
རྣམ་གཞག་	-10.9299
གློ་	-10.93
▁ཁྱོད་ག་དེམ་ཅིག་	-10.93
སྐོར་ཆ་	-10.93
ཤེལ་ཕོར་	-10.93
གསར་རྩལ་ཅན་	-10.9301
དངོས་སུ་	-10.9301
སྦྱོང་ཚན་	-10.9303
འཆར་གཞི་བརྩམ་དོ།	-10.9303
འགྱུར་བཅོས་འབད	-10.9305
རྒྱ་ཆེ་དྲགས་	-10.9305
ཧ་ལས་བཅུག	-10.9306
མ་བསྐྱེད	-10.9308
བློན་པོ་	-10.9308
བདེན་པ་འདི་སླབ	-10.9309
རྒྱལ་མོ་	-10.9309
པགས་ཀོ་བཤུབ	-10.9309
འབད་བ་ཅིན་ང་བཅས་	-10.931
ཏྲ	-10.9311
སྟོང་པ་སྦེ་	-10.9314
གནོད	-10.9314
ཤོབ་རྐྱབ་མི་	-10.9315
སྡོད་དགོ་མནོ	-10.9316
དྲུང་འཚོ་གིས་	-10.9317
གཉིསཔ་ཆ་ར་	-10.9318
▁ང་དང་གཅིག་ཁར་	-10.9319
ཕུག་	-10.9319
མགུ་སྐོར་རྐྱབ་ཅི	-10.932
རལ་	-10.9321
འདུག་ཡ	-10.9321
་ས།	-10.9322
དང་གཞན་	-10.9322
བྱིན་པ་ཅིན་	-10.9323
ཡོད་མིའི་	-10.9323
ཅིག་ཨིན་མས་ཟེར་	-10.9324
▁བསྟན་འཛིན་འདི་	-10.9325
འབབ	-10.9326
ཚུ་ནང་ལས་ཕར་	-10.9327
ཡར་སོང	-10.9329
ཤེསཔ་ཨིན།	-10.9329
འགོ་བཙུགས་ཏེ་	-10.933
ཨའི	-10.9334
▁ཏ	-10.9334
ཤུ་	-10.9334
ལོངས	-10.9334
ཚལ་མ་	-10.9336
འོང་ཟེར་ཁོ་གིས་	-10.9337
ཉལ་སྡོད	-10.9337
▁བུཚ་ཚུ་	-10.9338
་མི།	-10.9338
བསད་	-10.9338
སྒོ་ལྡེ་མིག་རྐྱབ	-10.9339
་ག་མ་ཤེས།	-10.934
སྤྲོ་བ་ཡོད་མི་	-10.9341
ཚུགསཔ་	-10.9342
ཨར་ཨེ	-10.9343
འབར	-10.9343
ཚུགས	-10.9344
ཕོག་མི་	-10.9346
་དོ་ཡ	-10.9348
ལུ་ཁ་སླབ	-10.9348
འཕྱིས་སོ་ནུག།	-10.9348
ཙིག་མུག་ལང	-10.9349
ཀེཊ་	-10.9351
སྟོན་ཏེ་	-10.9355
▁ཇེམསི་གིས་	-10.9357
ཤིང་ཅིག་	-10.9359
ཚལ་	-10.9359
▁ཉི་མ་གིས་ང་བཅས་	-10.9359
▁ནོར་བུ་དང་	-10.936
▁ད་ལྟོའི་	-10.9361
▁སྤྱི་	-10.9366
ཚུ་མི་དགའ།	-10.9366
▁དར་རྒྱས་ལུ་	-10.9366
ཤོར་	-10.9368
འཛིང	-10.9369
དམར་གསད་འབད་མི་	-10.9369
སྒྲིང་ཁྱིམ་གྱི་	-10.9369
▁ཁྱིམ་ནང་	-10.9372
འོངས་ཡི	-10.9372
མ་འབད་ག	-10.9372
▁ཨའི་གིས་	-10.9373
སཱལ་	-10.9374
ལྷང་	-10.9375
▁ཕུན་ཚོགས་དང་	-10.9375
མཐའམ་	-10.9375
ཁོ་གི་ལགཔ་	-10.9375
གནམ་མེད་ས་མེད	-10.9378
མནོ་བསམ་བཏང་སྟེ་	-10.9378
ཕམ་གཏང	-10.9379
དྲངས	-10.938
▁ཤ	-10.9383
འོང་དེ་འབདཝ་ད་	-10.9384
▁ས་སྨུག་	-10.9386
དགའ་ཚོར་ཡོད།	-10.9389
ཆུང་ཀུ་ཨིན།	-10.939
མ་འདྲོག	-10.939
དང་ཕྱད་ཅི།	-10.9393
་རུང་ཡང་	-10.9393
བློ་སླབ་ཨིན།	-10.9394
་མེན་ན་མེན་ག	-10.9395
ནང་ཚུད	-10.9397
ཅིག་ཨིན་	-10.9397
སྒོ་ར་	-10.9397
དུར་ཁྲོད་	-10.9398
ཕེ་རེནཆི་	-10.9399
བཀོ་བཏང	-10.9399
མཐར་འཁྱོལ་མི་	-10.9399
ཨེ་ལིསི་	-10.94
འགོརཝ་ཨིན	-10.9401
ཆརཔ་རྐྱབ	-10.9401
▁གཞན་མི་	-10.9401
བཟོད་མི་ཚུགས།	-10.9401
ཨིན་ན་ཤེས་པས།	-10.9401
གྱལ་ནང་	-10.9401
འབྱང་ནི་	-10.9402
གཅིག་བརྒྱ་	-10.9402
རྒས་	-10.9404
འགུལ་	-10.9404
རྣོས་	-10.9407
མཐའ་མར་	-10.9407
ལུ་ཡོད་མི་	-10.9408
ཐོན་དངོས་ཚུ་	-10.9408
་ནི་བཞག།	-10.9409
པད་མོ་	-10.9409
ཡོངས་དཔོན་	-10.941
ཨིན་པས་མནོ་ཡི	-10.941
ནམ་ཅིག་གི་ཚེ་	-10.9411
ལི་ཡ་	-10.9411
ནངས་པ་ཕྱི་རུ་	-10.9411
དྲོད་ཤུགས་	-10.9412
འཕྱིས་སུ་ཅིག་	-10.9414
རྟོག་	-10.9414
བདུན་ཕྲག་ཅིག་	-10.9416
གྱི་འོག་ལུ་	-10.9416
བཏོན་མི་	-10.9416
བསླབ་བྱ་འདི་	-10.9418
རྨ་སྐྱོན་	-10.9418
ལག་དེབ་	-10.9419
རང་དབང་གི་	-10.9421
བདུན་ཕྲག་རེ་ནང་	-10.9423
ཏོམ་	-10.9425
གླུ་གཞས་ཀྱི་	-10.9425
དང་བཅསཔ་སྦེ་	-10.9429
་མི་བཅུག	-10.943
▁ཇེ་	-10.943
ན་ཡི།	-10.943
ཡཱན་	-10.943
▁ད་ཁྱོད་ཀྱིས་	-10.9432
འདི་དགའ།	-10.9432
ལོ་བཞི་	-10.9432
ཁྲོམ་ལམ་ཁར་	-10.9433
རྗེས་	-10.9434
▁རྒྱ་མཚོ་དང་	-10.9435
སྒེར་དོན་གྱི་	-10.9435
འོང་ནི་བཟུམ་	-10.9439
བྱི་ལི་འདི་	-10.9441
ས་དབང་	-10.9445
བརྡུངས་ནུག།	-10.945
འབགཔ་	-10.9451
ཨིན་རུང་ཁོ་	-10.9452
ཞབས་ཁྲ་རྐྱབ་	-10.9452
ཕོག་པས	-10.9452
འོད་ཆེམ་ཆེ་	-10.9453
ལཱ་འབད་སའི་	-10.9456
་ཚུགས་	-10.9457
ཁྱོད་གཅིག་ཁར་	-10.946
མེད་ཐབས་མེདཔ་	-10.9461
མོན	-10.9462
ཞབས་	-10.9462
བལྟ་དགོ་མནོ	-10.9462
▁རྒྱ་མཚོ་འདི་	-10.9463
བརྗེད་སོང་ནུག།	-10.9464
▁ག་གིས་ཡང་ཁྱོད་	-10.9465
ཀརྨ་གིས་ཨ་ཕི་དེ་	-10.9465
་ཟེར་སླབ་ནི་	-10.9467
ཐབས་ལམ་དྲག་ཤོས་	-10.9467
▁ཝེ	-10.9469
▁དེ་ང་བཅས་ཀྱིས་	-10.947
གྲ་སྒྲིག་ཨིན།	-10.9472
གཏོར	-10.9473
གི་མི་ཚེ་	-10.9473
ཧ་གོ་མ་ཚུགསཔ་	-10.9473
ཁག་ཆེ་ཤོས་	-10.9474
ཀྱིས་ང་	-10.9475
ཙིགཔ་མ་ཟ།	-10.9476
དེ་མོ་ར་གིས་	-10.9477
ལྟ་ནི་	-10.9478
གངས་	-10.9478
▁འཕྲལ་འཕྲལ་སྐབས་	-10.9479
་ནི་དོན་ལས་	-10.948
མནོ་བསམ་གཏང་མི་	-10.9481
ཁྱོད་ཀྱིས་ང་བཅས་	-10.9485
ཕྲན	-10.9485
ག་ཅི་གིས་ཡང་	-10.9485
སྡེ་ཚན་ཅིག་	-10.9486
ནང་འགྱོཝ་ཨིན།	-10.9486
སྤྱི་ཟླ་	-10.9487
གློག་རིག་འདི་	-10.9488
ལྷོད་ལམ་	-10.9489
འགྲོ་	-10.9489
པདྨ་དབྱངས་སྐྱིད་	-10.949
ལུ་ཁ་ཉེས་བཀལ	-10.949
པ་བཟུམ་	-10.9493
ཁྲབ་རྩེདཔ་	-10.9493
▁ཁྱོད་ནམ་	-10.9497
ཉོ་འབག	-10.9497
ཨོལ་ལྐོག་	-10.9498
ཕེརེནཆེ་	-10.9498
སྒོར་ལེབ་	-10.9498
་མི་ཤེས།	-10.9499
རྐང་ལམ་	-10.9499
རྒྱ་གར་ལུ་	-10.95
▁ཚུལ་ཁྲིམས་ཀྱིས་	-10.95
སྟར་གོ་	-10.9501
སྔར་སྲོལ་གྱི་	-10.9501
ཨིནམ་འོང	-10.9502
ལོངས་སྡོད	-10.9504
ཉོ་ཉོཝ་	-10.9505
་ཟེར་སླབ་ཅི་ག	-10.9505
▁གཱ	-10.9506
བསད་མི་	-10.9506
གཞུང་འབྲེལ་གྱི་	-10.9509
བརྗེད་ནུག།	-10.9513
▁ཧ་ལམ་	-10.9513
འཕྲིན་ལས་ཀྱིས་	-10.9516
གལ་ཆེ་བའི་	-10.9518
གཞུང་འབྲེལ་	-10.9518
ལགཔ་ཁར་	-10.9518
་ཟེར་སླབ་ནི་ཨིན།	-10.9518
མཇུག་བསྡུཝ་ད་	-10.9519
ཉེས་འཛུགས་བཀལ	-10.9519
སྐྱེདཔ་ཨིན།	-10.9519
སྒྲ་དབྱངས་	-10.9519
▁ང་གིས་ག་ནི་ཡང་	-10.952
འཛོལ་བ་སྦོམ་ཅིག་	-10.952
ལུ་རྩ་ལས་	-10.9522
ལོངས་ཡི།	-10.9523
ལུས་སོ་ནུག།	-10.9524
ཁོ་རའི་རོ་ཁྱི་	-10.9524
ཨིན་ཟེར་སླབ་ནུག།	-10.9525
ལྷབ་མི་	-10.9527
སྡུག་བསྔལ་མྱོང	-10.9529
སྐྱེདཔ་མས།	-10.9531
གལ་གནད་	-10.9532
གོང་ཚད་ཚུ་	-10.9533
མི་ཤེས་ཟེར་	-10.9533
ཡོདཔ་ཅིག་	-10.9534
▁ངེ་གི་དོན་ལུ་	-10.9535
་ནི་ནང་	-10.9535
སྲུང་དེབ་	-10.9536
▁ནཱ་ཕར་ཚུར་	-10.9536
▁སོ་	-10.9536
བྱ་རིམ་འདི་	-10.9536
འདྲོག་སྟེ་	-10.9541
▁མེ་ཏོག་	-10.9541
བྱིན་ནི་ཡོད།	-10.9541
རྒྱལ་པོ་དང་པདྨོ་	-10.9542
ནང་ལུ་འཛུལ	-10.9542
མས་ཟེར་མནོ་ཡི	-10.9542
གྲོགས་རམ་འདི་	-10.9545
ཨིན་ཟེར་མནོ	-10.9546
་ཟེར་སླབ་འོང་།	-10.9546
ལངས་ཡི།	-10.9547
པ་ཚུ་ལུ་	-10.9547
བྲིས་ཏེ་	-10.9548
ར་འབད་ཡི།	-10.9551
ཌསི་	-10.9551
་ཟེར་ཁས་ལེན་འབད	-10.9552
སྒྲིག་ཆས་	-10.9552
ལོག་ལྷོད་ཅི།	-10.9556
ལགས།	-10.9557
ལེནམ་ཨིན།	-10.9557
བསག་བཞག	-10.9559
འཚེར་ཁག་ཁ་བཟོ	-10.9559
ཨ་ལུ་ཆུང་ཀུ་	-10.9561
ལུ་གུས་ཞབས་འབད	-10.9561
རྒྱུ་མཚན་འདི་	-10.9562
འདྲོག་ནུག	-10.9567
ཤེསཔ་འོང་ཟེར་	-10.9567
ཆེད་	-10.9567
ག་ཅི་འབད་ནིའི་	-10.957
ཨིནམ་ད་	-10.9571
ཤར་ཕྱོགས་	-10.9572
ཉི་མའི་	-10.9574
ག་ཅི་སླབ་རུང་	-10.9574
སླབ་པའི་	-10.9576
གཉིས་ཆ་རའི་	-10.9578
འགྱུར་མེད་	-10.9578
གཙོ་བོར་བཏོན	-10.9579
སྦེ་སླབ་ཅི།	-10.9579
གི་མིང་ག་ཅི་སྨོ	-10.958
མོ་གིས་ཀརྨ་	-10.958
འདི་མེན།	-10.9582
་ཚུགསཔ་སྨོ	-10.9582
གསོལཝ་བཏབ	-10.9584
་བཅུག་ནིའི་	-10.9587
▁ང་གིས་ད་རུང་	-10.9587
འཛ	-10.9588
ཚུ་གཅིག་ཁར་	-10.9588
་ནི་མས	-10.959
▁རོ་ཁྱི་གིས་	-10.9591
▁དེ་སྦེ་	-10.9592
ཨིན་མེན་ཡ	-10.9592
▁ལྷ་མོ་འདི་	-10.9594
གཏན་འཁེལ་བཟོ	-10.9596
▁ཧ་	-10.9596
ལྡེ་མིག་རྐྱབ	-10.9596
་པའི་རྒྱུ་མཚན་	-10.9597
ཁྲིམས་ཀྱི་འདུན་ས	-10.9599
ཉམས་རྒུདཔ་	-10.9599
▁ཝིལ་ཨཱིསི་མཱིཏ་	-10.9599
ཐབས་རྡུགས་སི་སི་	-10.9599
བསྐྱར་གསོ་	-10.9599
གླང་ལེབ་	-10.96
སྒེར་གསང་	-10.96
དམའ་ཤོས་	-10.96
དེ་ཧེ་མ་ལས་	-10.9601
རྒྱལ་ཁ་འཐོབ་མི་	-10.9602
འོས་འབབ་ཡོད་པའི་	-10.9602
རྒྱ་ཆེ་དྲགས་སྦེ་	-10.9603
གཞན་ཁར་	-10.9604
ཌོག་ཊར་	-10.9606
ཆ་མེད་བཏང	-10.9606
མི་བྱིན།	-10.9607
ཡིད་མ་ཆེས	-10.9607
བྱིན་ནི་གི་	-10.961
གོ་ཡི	-10.9611
འཚོམས་	-10.9611
ཉལ་ཁང་ནང་	-10.9613
ནོར	-10.9613
▁རིན་ཆེན་དང་	-10.9619
འགྱོ་དོ་ཟེར་	-10.962
དྲི་བ་བཀོད	-10.9621
ཆེཝ་	-10.9625
ཀྲེག་	-10.9625
་མི་ཚུ་ལུ་	-10.9628
འདུ་	-10.9628
བབ་	-10.9628
འོག་ལས་	-10.9629
མ་ཕྱེ	-10.963
སྤྲོ་བ་མི་འབྱུང	-10.963
དེ་འབད་དགོ་ནི་	-10.963
འགྲུལ་འཕྲིན་བཏང	-10.963
▁ང་ལོག་སྟེ་	-10.963
འདོགས	-10.9632
གི་སྐད་	-10.9635
མགྲོན་བརྡ་	-10.9635
▁ཁྱོད་ཀྱིས་ལཱ་	-10.9636
གཏད་	-10.9638
ག་ར་གིས་ཤེས	-10.9639
ཀོན་	-10.9639
སྦེ་མི་མཐོང་པས།	-10.9642
ཐབ་ཚངཔ་	-10.9642
ཟུང་	-10.9642
ཞུན་དག་	-10.9643
དྭངས་	-10.9643
བྱུང་ཡི་ག་	-10.9644
▁ཚར་གཅིག་	-10.9645
བཟོ་བཀོདཔ་	-10.9646
ཕྲིན་ལས་	-10.9646
ས་ཊར་	-10.9646
ཚོན་གཏང་ནི་	-10.9647
ལོ་གཅིག་ནང་	-10.9647
སྤོ་ཏོ་	-10.9648
▁རྒྱང་མཐོང་	-10.965
༢༠༡༧	-10.9652
ཁྲོམ་ནང་	-10.9654
དར་ཁྱབ་	-10.9657
ཨིན་ཟེར་མནོ་ནུག།	-10.9658
གིས་སླབ་མི་ནང་	-10.9659
དོ་རུང་ཡང་	-10.9659
▁དེ་ངེའི་	-10.9661
ག་ཅི་ཡང་འབད	-10.9663
ལེགས་ཤོམ་འགྱོ	-10.9664
འགོ་བཙུགསཔ་ཅིག་	-10.9665
ཟད་	-10.9666
ཡ་མཚན་ཅན་གྱི་	-10.9667
བཞག་བཞགཔ་	-10.9668
ལྡོག་ཕྱོགས་	-10.9668
་བཅུག་ནི་ལུ་	-10.9672
ལོག་ལྷོད	-10.9673
▁ཉི་མ་གིས་ང་གིས་	-10.9675
ཡང་མེད།	-10.9675
ན་དང་	-10.9677
ཨཱོ	-10.968
གིས་ཀརྨ་	-10.9681
ལུ་བསྒྱུར	-10.9681
འདི་གིས་ཁྱོད་ལུ་	-10.9683
འདི་ཊོམ་གྱི་	-10.9683
བསྒུག།	-10.9686
ལོ་ནང་	-10.9686
གདོང་ཁ་	-10.9687
ལཱ་འབད་དགོ།	-10.9688
ཇེག་	-10.969
དེ་ཚུན་ཚོད་	-10.9691
ཙིག	-10.9692
▁བསྟན་འཛིན་དང་	-10.9693
▁ཇ་པཱན་ལུ་	-10.9693
སྤྱི་ལོ་༡༩༤	-10.9693
གི་ལས་རིམ་	-10.9694
ཐོ་དེབ་	-10.9695
འཇམ་ཏོག་ཏོ་སྦེ་	-10.9695
▁དབང་རྒྱལ་གྱིས་	-10.9697
སྐོར་ལས་སླབ	-10.9698
རེ་ཚེ་སྐབས་	-10.9701
འཁྱེག་བཤུད་རྐྱབ་	-10.9702
ཁམས་ཅིག་ཁར་	-10.9702
གི་ཡན་ལག་	-10.9703
ཉི་མ་དང་རིན་	-10.9705
གྲོས་གཞི་	-10.9705
▁ང	-10.9706
ཚོགས	-10.9707
ཨིན་རུང་འདི་	-10.971
སྒྲ་སྙན་བསྐྲོག	-10.9712
▁ཀི	-10.9712
ག་ཅི་འབད་དོ	-10.9713
ཕིལཌ་	-10.9714
ཆུ་གིས་	-10.9714
ལུ་ཨ་ལུ་	-10.9715
ཚ་གྱང་ཅན་	-10.9716
་པའི་ཁར་	-10.9719
སྟོང་པ་	-10.9719
ཁོ་གི་ཀཱར་	-10.972
བཅམ་	-10.9721
▁ངེ་གི་ཕོ་རྒནམ་	-10.9722
མི་སླབ་ཟེར་	-10.9722
ཚུལ་མིན་	-10.9723
▁ཌེན་	-10.9723
ངོས་ལེན་མ་འབད	-10.9724
གི་མིང་འདི་	-10.9728
▁སེ	-10.9731
བལྟ་ཞིནམ་ལས་	-10.9733
དྲང་བཞགཔ་	-10.9736
བཀག་ཚུགས	-10.9737
ལེ་ཤ	-10.9737
མཚོ་ནང་	-10.9746
་པར་བཞག	-10.975
ག་ཏེ་ལུ་སྡོདཔ་	-10.975
སུམ་	-10.9751
▁བུཚ་འདི་གིས་	-10.9751
་དེས་ཟེར་	-10.9753
རྒྱལ་མཚན་	-10.9754
གཡོན་ཁ་ཐུག་	-10.9755
ཁྲིམས་བཀལ	-10.9757
▁དེ་མ་ཚད་	-10.9757
ཕེརེནཆི་འདི་	-10.9758
ཙི་	-10.9758
ནད་འཁོར་	-10.9758
▁ལན་	-10.9758
རྒྱལ་རྟགས་	-10.976
ག་ནི་	-10.9762
འེན་	-10.9762
ལེགས་ཤོམ་སྦེ་ཉལ	-10.9762
▁ང་ཧ་ལམ་	-10.9762
གཙོ་བོ་ར་	-10.9766
མི་སེར་ཚུ་	-10.9767
▁གྲུ་འདི་	-10.9767
མ་ལངམ་	-10.9768
ནི་གི་དོན་ལུ་	-10.9769
ཟ་དེས།	-10.977
སྡོད་དགོཔ་ཨིན།	-10.9771
ཧ་སག་སྦེ་འགྱོ	-10.9771
དབུལ་ཕོངས་	-10.9772
གཅིག་ཁར་བློ་སླབ	-10.9772
▁མི་མང་	-10.9772
ང་བཅས་ཚུ་གིས་	-10.9773
འབྲེལ་བ་འཐབ་གནང་	-10.9774
འགྲེམས་ཡིག་	-10.9776
དཔའ་བཅམ་མས།	-10.9776
ལ་གི་	-10.9776
མསི་	-10.9776
ཕྱི་རྒྱལ་	-10.9776
དེ་མ་འབད	-10.9779
སྒྲིལ་	-10.9782
ཚབ་སྦེ་	-10.9784
▁དེ་བཟུམ་མའི་	-10.9784
རིན་འཛིན་གྱིས་	-10.9787
ཉོ་ནིའི་དོན་ལུ་	-10.9788
འཕྲ	-10.9789
དྲན་གསོ་འབད	-10.9789
བཞོན	-10.9791
ཀཝ་	-10.9792
མ་བོ	-10.9794
ཁྱོད་རའི་བཟའ་ཚང་	-10.9796
སྤྱི་ཚོགས་	-10.9797
▁སེང་གེ་དང་	-10.9797
འོང་ཡི	-10.9798
སྦེ་བརྩིཝ་ཨིན།	-10.9801
ཅིག་མ་སྡོད།	-10.9802
གསལ་བཀོད་	-10.9804
ཚ་གྱང་མ་ལང་།	-10.9805
མ་སྔུ	-10.9805
བློ་སླབ་ད་	-10.9808
བདེན་པ་འདི་ཤེས	-10.9808
གཞན་ཡང་	-10.981
འོང་ནི་བཟུམ་ཅིག་	-10.9812
གིས་དཔལ་མོ་གིས་	-10.9812
་ག་སླབ	-10.9812
ལྡེ་མིག་བུ་འདི་	-10.9813
ཕུན་ཚོགས་དང་	-10.9813
ཐག་ཉེ་ཤོས་	-10.9813
ཨེབ་རྟ་	-10.9814
གེརེ	-10.9814
དེ་ཚེ་ཕྱི་རུ་	-10.9815
ཀྱི་ཧེ་མ་	-10.9815
༣༠༠༠	-10.9818
་བཅུག་དགོ་མ་མནོ།	-10.9819
མ་མཐོངམ་	-10.9821
པ་མས་ག	-10.9821
་གནང་ཟེར་	-10.9821
་ནི་འདི་བཞག	-10.9822
བསྡོམ	-10.9822
▁མི་ག་འབད་རུང་	-10.9823
མཱེ་རི་གི་	-10.9823
▁དེ་ལེགས་ཤོམ་	-10.9823
འཛོམ	-10.9824
ཟ་ནི་འདི་	-10.9825
▁མི་འདི་	-10.9827
▁ཕྱི་རྒྱལ་གྱི་	-10.9827
ནཱ་ལུ་སྡོད་ནི་	-10.9827
ོག་	-10.9828
སེམས་དགའ་ཏོག་ཏོ་	-10.9829
འཛམ་གླིང་ནང་གི་	-10.983
སྨུག་	-10.9835
ཨ་མི་རི་ཀཱན་	-10.9835
་དགོ་མནོ་མི་	-10.9839
རོམ་	-10.9839
སྲིད	-10.9841
མ་ཤེས་ནུག།	-10.9842
ཚོརཝ་མས་ག	-10.9842
རྫུན་	-10.9847
ལུ་ཁྱོསམ་	-10.9848
ཁོ་གིས་དེ་འབད	-10.9851
ཁྲིམས་ལུགས་འདི་	-10.9851
མ་དྲིས།	-10.9852
▁ང་བཅས་གཉིས་	-10.9852
འདི་ངོས་ལེན་འབད	-10.9853
མ་བཙུགས།	-10.9855
ཁང་མིག་ནང་འཛུལ	-10.9856
འདྲི་བ་	-10.9856
ང་གིས་ངོ་ཤེས་མི་	-10.9856
བབས་	-10.9857
བབ་ཤནམ་	-10.9857
པི་ཨེ	-10.9858
སྡེའི་	-10.9859
ངལ་གསོའི་	-10.986
འདི་སྤྲོ་བ་	-10.9863
འདི་ཁོང་	-10.9865
མྱ་ངན་	-10.9865
▁སྒྲིང་ཁྱིམ་	-10.9865
མི་ཟ།	-10.9866
▁ངེ་གི་ཨ་པ་	-10.9866
བྱིནམ་མས།	-10.9866
སེར་ཁ་	-10.9867
རྟག་	-10.9868
་མ་ད།	-10.9869
རྙིངམ་ཅིག་	-10.9869
་སྨེ།	-10.987
བརྒལ་ཏེ་	-10.9871
འཁྱེག་སྒྲོམ་	-10.9872
འབད་རྩོལ་	-10.9872
འགོ་དཔོན་ཚུ་གིས་	-10.9875
འདི་ངོ་མ་	-10.9876
བུ་གིས་	-10.9879
མནོ་བསམ་གཏང་དོ་ག	-10.9881
གཏང་ད།	-10.9882
སྤྱི་ཟླ་བཞི་པའི་	-10.9883
པདྨོ་གིས་	-10.9883
▁དབང་མོ་གིས་མོ་	-10.9883
སྡོད་སྡོདཔ་འོང	-10.9885
ཉོ་ནིའི་	-10.9885
དེ་ཅིག་ཁར་	-10.9886
སེམས་ཁར་མི་དྲན	-10.9887
དཀྲུམས་	-10.9891
ངོ་མ་ཤེས་མི་	-10.9892
་ཚར་ནུག།	-10.9894
ལེན་དགོ།	-10.9896
ལེན་མི་	-10.9896
▁གྲུབ་འབྲས་འདི་	-10.9898
འདི་ཡང་ཅིན་	-10.9901
བཀྲིན་ཆེ།	-10.9901
ཁོ་གིས་མོ་ལུ་	-10.9902
སྤུས་	-10.9903
ཟུག་འཇོམས་	-10.9903
ཕྱད་ཅི	-10.9904
གཞི་རྩ་	-10.9904
འབག་འོངས་ཡི	-10.9907
མ་སླབ	-10.9908
བཀྱག་	-10.9908
ཤ་མ་ཟ་མི་	-10.9908
སྤྱི	-10.9909
འཁྱེག་སྒྲོམ་ནང་	-10.9909
སྤྲོ་སྣང་	-10.991
རྐྱབ་ནི་འདི་	-10.9911
བརྟག་ཞིབ་འབད	-10.9911
བཟུང་སྟེ་	-10.9915
ཉེས་བྱ་	-10.9916
ཁོ་གིས་ཤེས་ཅི	-10.9916
དཀྲུམས	-10.9917
ཙིགཔ་ཟ་ནུག	-10.9919
ང་ལུ་ཁོང་	-10.9921
སྟོན་གྱི་	-10.9921
ཡ་མཚན་ཆེ	-10.9921
སྙན་ངག་མཁན་	-10.9923
ས་ཀྲག་	-10.9924
ཟམ་པ་	-10.9925
ཁོང་གི་སྐོར་ལས་	-10.9925
གྱོན་མི་	-10.9927
བདེན	-10.9928
འཇིགས་སྐུལ་འབད	-10.9929
ལྟ་མི་	-10.9934
་མུ་	-10.9934
མ་བགའ	-10.9935
རྒྱལ་ནི་	-10.9936
སྤྲོདཔ་ཨིན།	-10.9936
ཏི་རུ་དག་པ་ཅིག་	-10.9936
མ་འབྱུང	-10.9937
ག་ནི་ཡང་མི་ཤེས	-10.9938
ལུ་གནོདཔ་	-10.9939
ལུ་རྐྱངམ་གཅིག་	-10.9942
འདྲོག་པས།	-10.9943
▁ལས་སྐྱིད་དང་	-10.9943
བཙོང་ནུག།	-10.9943
▁རླུང་འཚུབ་	-10.9944
▁ང་ལུ་དེ་	-10.9946
གོམ་	-10.9947
ཚབ་ལུ་	-10.9951
ངོ་མི་ཤེས	-10.9952
ཐུག་རྐྱེན་འདི་	-10.9952
▁རླུང་	-10.9952
ཌོ་ལར་ས་ཡ་	-10.9953
ང་བཅས་ར་གིས་	-10.9954
འཕརཝ་	-10.9955
གསོལ་སྟོན་	-10.9955
རྒས	-10.9956
སླབ་མི་ཚུ་	-10.9959
ཡོད་རུང་བཏུབ་ནུག	-10.996
ཚོ་	-10.996
བལྟ་ད།	-10.9962
མེད་ཀྱི་	-10.9962
ཕེརིནཆ་	-10.9963
▁ང་གིས་མནོ་མས་	-10.9964
▁སྤ	-10.9966
ཐུགས་	-10.997
་པར་སྡོད	-10.997
▁ཚེ་བརྟན་གྱིས་	-10.997
འབྱུང་སྲིད	-10.9972
འབྲི་ཁྲི་གུ་	-10.9972
བེག་	-10.9973
སྤྲོ་བའི་	-10.9973
སྦོ་ལོགས་ཁ	-10.9974
དོ་འགྲན་འབད	-10.9975
སླབ་མི་ཤེས།	-10.9975
མ་དཀྲོགས	-10.9975
ར་བཟི	-10.9976
བཙན་བཅོལ་གྱི་	-10.9977
ག་ཅི་སྦེ་མ་འབད་ག	-10.9977
དལ་	-10.9978
བརྙས་བཅོས་	-10.9981
འཁྲབ་སྟེགས་	-10.9982
མཐའ་མཇུག་	-10.9982
ཡོད་ཟེར་མནོ་ཡི།	-10.9983
སྐྱ་རིངམོ་	-10.9985
ལཱ་འབདཝ་སྨོ	-10.9991
བུཚ་ཚུ་	-10.9991
འོང་ཟེར་ཤེས་ནུག	-10.9991
འུ་བཀལ་ནི་	-10.9991
དཔལ་ཆེན་	-10.9991
ཨིན་ན་མ་སླབ།	-10.9992
ཉོ་བྱིན	-10.9994
སྤྲོད་མི་	-10.9994
དྲང་པོ་སྦེ་	-10.9994
མནོཝ་སྨོ	-10.9995
▁ང་གིས་ད་ལས་ཕར་	-10.9998
དེ་ད་རུང་	-10.9998
▁དེ་གི་ཤུལ་ལས་	-11
ཆ་བཞག་	-11
▁རོ་བཊ་གིས་	-11.0002
ལུ་ཁོང་རའི་	-11.0006
རྣམ་པ་	-11.0006
བཀོད་ཁྱབ་	-11.0007
བསྟན་འཛིན་འདི་	-11.0008
མཇལ་	-11.0008
མེད་ཡ	-11.001
ཟ་ཟཝ་	-11.0011
བཀལ་ཏེ་	-11.0012
ག་གིས་ཡང་མི་ཤེས	-11.0012
རྩེད་འགྲན་འདི་	-11.0013
གི་ལོ་	-11.0013
པ་འདི་གིས་	-11.0013
▁དབང་འདུས་	-11.0014
རྐྱེན་ངན་ཕོག་མི་	-11.0014
རྒུད་	-11.0014
དང་ཡང་ཅིན་	-11.0014
སྲབ་འཁོར་	-11.0014
མ་གོ་བས།	-11.0014
དུས་གཏན་རྐྱང་	-11.0015
ལས་ཚུར་	-11.0016
བློ་སླབ་དགོཔ་	-11.0017
ད་ས་དྲོ་པ་	-11.0017
བཅུག།	-11.0019
་ཟེར་མོ་གིས་	-11.0023
དང་དབང་མོ་	-11.0023
ཅོ	-11.0024
་ནུག་ཟེར་མནོཝ་མས	-11.0027
ན་ནི་	-11.0027
གིས་ངེའི་	-11.0027
འབད་ནི་ལུ་དགའ།	-11.0028
་མ་ཤེས་པས།	-11.0028
ཉེར་	-11.0029
འདི་ཁག་ཆེ།	-11.0029
མར	-11.003
གཙོ་བོ་འདི་	-11.0031
པ་ཅིན་ཁྱོད་ཀྱིས་	-11.0033
བཱལ་	-11.0035
བྱིན་དེས།	-11.0037
གླ་ཁར་ལེན་ནི་	-11.0037
གཟབ་གཟབ་འབད།	-11.0037
དཀྲུགས	-11.0038
ཁོ་ག་ཅི་སྦེ་	-11.004
▁མཚོ་	-11.0042
ཞིབ་ཞིབ་སྦེ་	-11.0045
་མི་བཅུག་ནི་	-11.0045
འཆར་གཞི་བརྩམ་མས།	-11.0046
ལུ་གནས	-11.0046
ཞིམ་	-11.0046
བསམ་འཆར་བཀོད་མི་	-11.0048
བེན་	-11.0051
མ་འབདཝ་འོང་།	-11.0053
བཟུམ་ཚོར	-11.0054
ག་དེམ་ཅིག་ལུ་	-11.0054
▁ཀརྨ་གིས་མཱེ་རི་	-11.0055
ཕོཊ་	-11.0055
སྲུང་ཚུ་	-11.0055
ཨིན་ཏེ་འབད་རུང་	-11.0055
འཆར་སྒོ་ནང་	-11.0056
ཕྱུགཔ་	-11.0059
▁དབང་འདུས་དང་	-11.0059
ག་དེ་སྦེ་བཟོ་ནི་	-11.0059
▁བུ་	-11.0059
▁ནམ་མཁའ་གིས་	-11.006
ཚུན་ཚོད་བསྒུག	-11.0061
གྱི	-11.0063
ལྡེ་མིག་འདི་	-11.0064
ཆང་གིས་འགྲངས	-11.0064
ཞུ་ཡི།	-11.0066
ལས་ཚོགས་	-11.0066
སློབ་སྟོན་འབད	-11.0066
བསྒུགས་ཡི།	-11.0067
ལྟོ་མ་བཀྱེས	-11.0067
ལོག་སྟེ་འོང	-11.0071
སླབ་མི་དགོ།	-11.0071
ག་ཅི་ཡང་མ་	-11.0073
་སི་སི་སྦེ་	-11.0073
ལུ་བཀྲིན་ཆེ།	-11.0076
སྒོམ་	-11.0076
ཡང་བསྐྱར་	-11.0079
ཉམས་མྱོང་ཅན་	-11.0079
ཕམ་ཁ་ལེན	-11.0079
▁ང་གིས་ང་བཅས་ཚུ་	-11.008
ནི་མི་འོང་།	-11.0081
ལུ་ཕ་ལུ་མི་	-11.0081
དུག་ཅན་	-11.0082
སྡོད་ཡི་ཡ	-11.0082
འོང་ནི་མེད།	-11.0083
བརྡ་རྟགས་	-11.0084
སྒྱིད་ངན་ཅན་	-11.0084
▁སྟབས་ཉེསཔ་	-11.0085
ཝ་སྨོ།	-11.0086
▁མི་ག་ཡང་	-11.0087
ཁྱོད་རའི་མི་ཚེ་	-11.0089
དཔེ་མཛོད་ནང་	-11.0091
▁ཕུར་པ་དང་	-11.0091
ཆུ་རྫིང་ནང་	-11.0092
ཨ་ཕི་འབད་དེ་	-11.0096
▁ང་ད་འབདན་	-11.0097
སྒོང་རྡོག་ཚུ་	-11.0097
ཀཱོན་	-11.0098
བཏབ་ནི་	-11.0098
ེས་	-11.0099
▁སྤྱི་ལོ་༢༠༡༧	-11.0099
ལུ་དུས་ཚོད་ལེ་ཤ་	-11.0099
གནས་པའི་	-11.0101
▁སྒྲོལ་མ་གིས་མོ་	-11.0101
སྐྱོ་	-11.0102
ལེགས་ཤོམ་ཚུ་	-11.0104
རྗོད་ཚིག་འདི་	-11.0104
འདི་ག་ཅི་ཨིན་ན	-11.0106
▁འགྲེམས་སྟོན་ཁང་	-11.0107
་མེན་ག	-11.0107
ཁྱིམ་ཚང་ཚུ་	-11.0109
ཨ་ཕི་ནང་	-11.011
ཐང་རིལ་རྩེད	-11.011
གཡས་ཕྱོགས་ལུ་	-11.0111
▁ཀོ	-11.0112
་ནི་ཨིན་ན་ཤེས	-11.0113
ཤ་བག་ལེབ་	-11.0113
མ་འོངས་པའི་ནང་	-11.0115
བམ་རོ་ཊི་	-11.012
བྱིའུ་ཅུང་	-11.012
ཡོད་ཚད་གཅིགཔོ་	-11.012
ཕྱི་ཁ་ལུ་	-11.0121
ཤ་མུ་	-11.0121
དལ་རྒྱུག་	-11.0123
དངོས་སུ་སྦེ་	-11.0123
ཁ་འཐེན་	-11.0125
ག་ཅི་མནོཝ་མས	-11.0127
དྲག་དབྱངས་	-11.0128
ལྟོཝ་མ་བཀྱེས	-11.0128
མནོ་བསམ་མི་གཏང	-11.0128
རོ་ཁྱི་གི་	-11.0131
རྣམ་པ་སྣ་ཚོགས་	-11.0131
ཁྱོད་ག་ཅི་སྦེ་	-11.0133
འདི་མེན་པས།	-11.0134
ཐབས་འཕྲུལ་	-11.0134
འོང་ཟེར་ཤེས་ཅི	-11.0134
འཛིན་སྐྱོང་འབད	-11.0135
གི་གདམ་ཁ་	-11.0135
ཡར་ལོང་	-11.0136
འབྲུག་གི་	-11.0136
▁དངུལ་	-11.0136
༩༥	-11.0138
▁ཕ	-11.0138
ཅ་དངོས་	-11.0139
འགྱོ་འོང་	-11.0139
▁སྐལ་བཟང་འདི་	-11.0139
བྱིན་ནི་ལུ་	-11.014
ཁྱིམ་ནང་ན་	-11.014
ཟ་ཡི	-11.0145
ཆ་མཉམ་ར་	-11.0145
ལྕོགས་	-11.0145
ཤེས་ཅི	-11.0146
སྤྱི་ཚོགས་ཀྱི་	-11.0146
འཛོལ་བ་སྦེ་	-11.0146
འཆོལ་	-11.0147
ཤོག	-11.0149
འབད་དོ་ག	-11.0149
བལྟ་གནང་།	-11.0149
འབྲེལ་བ་ཡོད་པའི་	-11.0149
▁ཀརྨ་གིས་ག་ཅི་	-11.0149
སྒོ་ནོར་	-11.015
ཁོ་གིས་སླབ་ཅི།	-11.015
ལེགས་ཤོམ་ཨིན་པས།	-11.0152
་ནི་འདི་བཞག།	-11.0153
ཀརྨ་དང་ཕུན་ཚོགས་	-11.0153
ཕི་ལི	-11.0156
ཀཱ་ཕི་ཕོརཔ་	-11.0157
འདི་ཆུ་	-11.0158
ཡང་ཨིན།	-11.0159
དང་པའི་	-11.0159
དམརཔོ་འདི་	-11.016
ཅོག་གཅིགཔ་སྦེ་	-11.016
བྱོག་ཐལ	-11.0161
འབད་ནི་དེ་	-11.0162
འབད་དགོ་མི་མནོ	-11.0163
པེ་རིསི་ལུ་	-11.0163
དངོས་གྲུབ་ཀྱིས་	-11.0164
ོར་	-11.0165
སྟོད་	-11.0165
མ་ལྷག	-11.0166
སྡོདཔ་ཨིན་ན་	-11.0166
དེ་མ་འབད་བ་ཅིན་	-11.0167
སྣ་ཚང་ཚོང་ཁང་ནང་	-11.0168
་ནི་ཨིན་མི་	-11.0171
ཨ་ཕི་མོ་གིས་	-11.0172
▁ང་སློབ་གྲྭ་ནང་	-11.0173
ལུ་འགྱོ་ནུག།	-11.0174
འཛམ་གླིང་འདི་ནང་	-11.0177
སྤྲིང	-11.0178
ཟས་ཐོ་	-11.0179
འགྱོ་དགོ་མ་མནོ།	-11.0182
ང་དང་མཉམ་	-11.0182
འན་	-11.0182
ཀྲར་	-11.0185
རྩམ་	-11.0187
ཧ་གོ་མི་ཚུགས་པས།	-11.019
གཉིས་ལུ་	-11.0191
ག་ཅི་མནོཝ་ཨིན་ན་	-11.0191
སྒམ་	-11.0195
▁ཐུག་རྐྱེན་འདི་	-11.0195
བསྐམ	-11.0196
ཚེ་དབང་གིས་	-11.0196
འགན་ཁུར་ཨིན།	-11.0197
གིས་ད་ལྟོ་ཡང་	-11.02
་ནི་ལུ་ཆ་རོགས་	-11.02
ཐུབ་ཅི་	-11.02
གྱིས་ཁོ་རའི་	-11.02
་སར་གོ་ཡི	-11.0201
གྱང་མས།	-11.0201
▁འཆར་གཞི་འདི་	-11.0204
སྐུལ་བསྒྲགས་	-11.0206
▁ཁོ་ཁྱིམ་ནང་	-11.0206
འཇིག་རྟེན་	-11.0209
རྩོད་རྙོག་	-11.021
རྩལ་ལེགས་ཤོམ་	-11.0211
ཕོ་རྒྱ་	-11.0213
པར་བཏབ་	-11.0218
འབད་ནི་འགོ་བཙུགས	-11.0218
དེ་འབད་བཅུག་ནི་	-11.0219
སྐལ་བཟང་གིས་	-11.0219
ཕྱི་རུ་གི་	-11.022
མཱར་	-11.0222
ཨཱལ་	-11.0222
འབད་ཚུགས་ཟེར་མནོ	-11.0222
དེ་ད་ལྟོ་	-11.0223
དགུང་ཡོལ་	-11.0224
ལག་ལེན་འཐབ་སྨོ	-11.0224
ཅི་ག	-11.0227
མི་ཉོ	-11.0229
འཐུང་རྒྱུ་	-11.0229
སློབ་དུས་	-11.023
མ་སྡོད་ག	-11.0232
ཆ་རོགས་འབད་དགོ	-11.0232
འབད་དགོ་མནོ་ཡི	-11.0233
གྲུ་སྐྱོད་	-11.0233
▁བདེན་པ་འདི་	-11.0233
ཧ་གོ་ནུག	-11.0235
ལག་ལེན་མ་འཐབ།	-11.0236
བཀོད་ཚོགས་	-11.0236
ཡེ་ཤུ་	-11.0236
མན	-11.0236
སྦེ་ལག་ལེན་འཐབ	-11.0237
ག་ཅི་ར་ཨིན་རུང་	-11.0237
ཇར་མཱན་གྱི་	-11.0237
ཞེ་	-11.0238
བློ་མི་སླབ།	-11.0239
▁ང་ལུ་འདི་	-11.0239
ཅིག་གཏང	-11.0239
དཔ	-11.0245
▁ང་ཁྱོད་ལས་	-11.0246
པར་བཏབ་ནི་	-11.0246
མ་འཐོབ།	-11.0249
རིགས་ཀྱི་	-11.0249
གཅིག་གི་གཅིག་ལུ་	-11.0251
ཕེརེནཆི་སླབ	-11.0255
དུང་ཅུང་	-11.0255
སྒོ་ཚུ་	-11.0258
ངེ་གི་ཁྱིམ་ནང་	-11.0259
མ་འགྱོ་བ་ཅིན་	-11.0259
གཅིགཔ་འདི་	-11.0259
མགྱོནམོ་སྦེ་འབོ	-11.026
▁བསམ་གཏན་དང་	-11.026
སླབ་དེས་	-11.0261
དྲྭ་རིལ་རྩེདམོ་	-11.0262
དྲན་གསོ་	-11.0262
▁ཟ་ཁང་འདི་	-11.0263
་བ་ཅིན་ང་གིས་	-11.0265
རྩེ་མི་	-11.0267
ལྟདམོ་ལྟ་མི་	-11.0268
སྡོད་ཁྲི་གུར་	-11.0268
ཚ་གྱང་ལང་ལངམ་	-11.0269
གོམས་འདྲིས་	-11.0272
འབད་ནི་ཨིན་པས།	-11.0272
ལྔ་པ་	-11.0272
འབད་ནི་བློ་འདོད་	-11.0273
ང་ཁོ་དང་གཅིག་ཁར་	-11.0273
ནང་འགྱོ་ནུག།	-11.0275
དང་འབྲེལ་བ་འཐབ།	-11.0277
བལྟ་སྡོད	-11.0278
དེ་ད་རིས་འབད	-11.0278
གཞུང་ཚབ་	-11.0279
ལས་དབང་	-11.028
ཏཱ་	-11.028
འགྱོ་དགོ་པས	-11.0281
འབྲེལ་མཐུན་	-11.0283
རྒྱལ་ཁ་འཐོབ་འོང	-11.0283
ཚོད་དཔག	-11.0285
༢༩	-11.0286
ཝའི་ལིན་	-11.0287
སྒོ་ཕྱེ་སྟེ་	-11.0288
བཏོན་བཏང	-11.0288
ལྟ་སྐོར་འགྱོ	-11.0288
གྲ་སྒྲིག་འབད།	-11.0288
ནིསི་	-11.0289
▁དབང་	-11.029
རྐྱབ་ནི་ཨིན་ན་	-11.0291
ཇ་པཱན་ནང་	-11.0292
གཏའ་མ་	-11.0293
རྒྱུད་སྐུལ་འབད	-11.0295
རྩུབ་	-11.0296
ལུ་དགའ་ནུག།	-11.0297
ནཱ་སྡོད	-11.0298
ཆུ་ཚོད་གསུམ་གྱི་	-11.03
གིས་ར་	-11.0301
▁ང་གིས་དེ་འབད	-11.0301
་ཟེར་མནོ་དོ།	-11.0301
བཀའ་དྲིན་ཆེ་ཟེར་	-11.0302
ཆུ་རྩལ་	-11.0303
འབད་དགོཔ་ཨིནམ་	-11.0305
ཡོད་ཟེར་མནོ	-11.0308
ཚོང་འབྲེལ་འདི་	-11.0308
▁ཁྱོད་ངོ་མ་ར་	-11.0309
སྤྱི་ཟླ་དྲུག་པ	-11.031
ལེཊ་	-11.031
གྲོས་ཐག་གཅད	-11.0311
མ་ལྷག།	-11.0312
འོང་ཟེར་མནོཝ་མས	-11.0312
གཏང་སྟེ་	-11.0315
གིས་ཁོང་ལུ་	-11.0316
གྱིས་ང་	-11.0316
གསུམ་གྱིས་	-11.0317
ཆུང་བ་	-11.0318
མོ་གི་ཨའི་	-11.0318
རའི	-11.0319
འབབ་ཚུགས་	-11.032
བློ་སླབ་ནི་གི་	-11.032
འབད་ཐབས་	-11.0321
ནང་འཁྱིད	-11.0323
མཐོང་ཤུགས་	-11.0323
བརྗོད་དོན་	-11.0323
མཚོ་འགྲམ་	-11.0323
བཏུབ་ཟེར་	-11.0324
སྟེང་	-11.0325
ལོ་ངོ་གསུམ་	-11.0325
ལཱ་ལེ་ཤ་	-11.0326
གྲུ་འདི་	-11.0331
ཚར	-11.0331
▁ཁྱོད་ཊོམ་	-11.0331
སྤྱི་ཚེས་༡	-11.0336
རྩོམ་སྒྲིགཔ་	-11.0336
དགོས་པ་	-11.0337
སྲོག་ཆགས་	-11.0338
སླབ་མི་ནང་	-11.034
གཏིང་ཟབ་དྲགས་	-11.0341
གནསཔ་ཨིན།	-11.0341
དབང་དྲག་གིས་	-11.0342
ཅིག་འཐུང	-11.0344
༤༢	-11.0345
དཔའ་མ་བཅམ།	-11.0345
ཕྱེད་ཡོལ་ལུ་	-11.0348
བརྙན་ཐག་	-11.035
་འོང་ཟེར་ཤེས་ཅི	-11.035
འཇི	-11.0351
བཙོག་པ་	-11.0354
ལུ་བཟོད་གསོལ་འབད	-11.0354
སྡེ་རིམ་	-11.0354
དྲི་བ་འདྲི	-11.0355
▁ཀུན་དགའ་དང་	-11.0356
ག་དང་ཡང་	-11.0356
མཚམས་འཇོག་འབད།	-11.0357
དབང་མོ་གིས་དེ་	-11.0358
བཟང་པོ་འདི་	-11.0358
པ་སངས་ཀྱིས་	-11.0359
འོང་ཞིནམ་ལས་	-11.036
དཔལ་ལྡན་	-11.0361
སྤེལ་	-11.0362
གི་གྲུབ་འབྲས་	-11.0364
ེསི་	-11.0364
ཚར་ཡི།	-11.0366
ལོ་གསུམ་གྱི་	-11.0366
མ་བཞག	-11.0367
ཉིན་སྨད་ལུ་	-11.0367
རྟ་ཚུ་	-11.0369
ཁྲུས་གཞོང་	-11.0369
ལངས	-11.037
མ་ཉོ།	-11.037
གི་ཁང་མིག་	-11.037
ཨ་ལུ་ཆགས	-11.0371
འཕུ་	-11.0371
མའི	-11.0372
འགྱོ་མི་བཅུག།	-11.0372
སྒོང་	-11.0376
ལས་ག་ཅི་ཅིག་	-11.0376
ལས་མའིལ་	-11.0377
དགོ་མ་མནོ་བ་ཅིན་	-11.0377
ལྷོད་འོང	-11.0378
ཆོག།	-11.0378
ཆ་ཚན་	-11.038
་དགོ་མནོཝ་ཅིག་	-11.0381
མེདཔ་ད་	-11.0381
བརྟན་བརྟན་མེད	-11.0383
དབང་མོ་གིས་ང་ལུ་	-11.0384
ཁོ་ཁྱིམ་ནང་	-11.0386
ཉི་མ་ལུ་མོ་གིས་	-11.0386
མཁྱེན་	-11.0389
བསྒུགས་སྡོད་ནུག།	-11.0391
ཐབ་ཚང་གི་	-11.0394
ང་བཅས་ཀྱིས་ཁོ་	-11.0397
ཡོད་མི་ལས་	-11.0398
འཚོ	-11.04
བཞེས་སྒོ་ཚུ་	-11.0401
▁ང་ཊོམ་	-11.0401
ཁྱོ	-11.0402
འཛོལ་བ་མེན།	-11.0406
དམངས་གཙོའི་	-11.0408
ཐུག་རྐྱེན་འབྱུང	-11.0408
མེད་དེ་འབདཝ་ད་	-11.0409
རྩིས་ཤོག་	-11.041
པུ	-11.0414
ཞབས་ཁྲ་རྐྱབ་མི་	-11.0416
ལོག་ལྟབ་	-11.0417
ཡོད་པའི་མི་	-11.0418
སྤྱིས་	-11.0418
ལུ་ལྷོད་ཅི།	-11.0419
་ཡི་སྦོ	-11.0421
མི་ཅིག་ལུ་	-11.0421
▁རྒྱ་མཚོ་	-11.0422
བྲོ་	-11.0423
དྲགཔ་ཅིག་	-11.0425
མཁོ་མངག་འབད་ཡི།	-11.0426
ཧ་སག་སྟེ་	-11.0428
གཉིད་ཁུག	-11.0429
ཆས་འདི་	-11.0431
ལུ་རག་ལསཔ་ཨིན	-11.0432
ཨིནམ་མ་ཤེས་པས།	-11.0433
གས་ཆོས་སྒྲོན་ལུ་	-11.0434
ལས་ང་གིས་	-11.0434
གཉིད་ལོག་	-11.0435
ཅིག་དགོ་ནི་	-11.0438
རི་འདི་	-11.0439
ཕྱི་རྒྱལ་ལུ་འགྱོ	-11.0439
▁ཁོ་ར་	-11.044
ད་རིས་ནཱ་ལུ་	-11.0441
ཕྱོགས་རིས་	-11.0441
མི་འདི་གིས་	-11.0443
▁ཚེ་	-11.0444
བཅའ་	-11.0444
གི་ས་གནས་	-11.0445
ཏོར་ཏོ་ལ་	-11.0446
འཕྱད་པར་འགྱོ	-11.0447
ཏིག་ཅུང་	-11.0447
ལེ་ཊིན་	-11.0449
འབད་གཞག་	-11.0451
ཁོ་གིས་མོ་	-11.0452
ཇ་པཱན་གྱི་ཁ་སྐད་	-11.0452
བག་ཕེབས་ཏོག་ཏོ་	-11.0453
སག་	-11.0455
སྟོན་གྱི་དོན་ལུ་	-11.0456
རེ་བ་འདི་	-11.0456
སླབ་ཨིན་ན་	-11.0456
པཱོ	-11.0458
ཕག་ཤ་	-11.0458
འབད་བཅུག།	-11.0459
སྤོ་བཤུད་འབད	-11.046
གི་ལན་	-11.0461
ཡུ་རོབ་ཀྱི་	-11.0464
བཏོག་ནི་	-11.0465
ག་སྟེ་སྨོ	-11.0465
ངོ་ཤོག་	-11.0466
འཚེར་	-11.0467
བརྡུང་	-11.0468
▁ང་གིས་རིན་འཛིན་	-11.0469
ཕུར་	-11.0469
ལོང་ཡི།	-11.0471
ཡིད་འོང་	-11.0471
ཝ་མས་ཟེར་སླབ་ཅི།	-11.0472
རིམ་ལུགས་འདི་	-11.0472
ལྕགས་ཐག་	-11.0473
མགུ་སྐོར་	-11.0474
ཚབ་མ་	-11.0474
འབདཝ་མས་ཟེར་	-11.0475
འོང་ནི་ལུ་	-11.0475
གི་ས་ཁོངས་	-11.0475
ར་ཨིན་མས།	-11.0475
ཁྲིམས་དོན་	-11.0476
སྦུག་	-11.0476
གོཝ་	-11.0477
བཙན་བཅོལ་ལུ་	-11.0479
གིས་མོ་གིས་	-11.0479
ཁོ་དང་མཉམ་	-11.0481
ཐག་ཆོད་	-11.0481
་སའི་ས་ཁོངས་	-11.0482
་ཨིན་ན	-11.0482
མཆོད་	-11.0483
ཁབ་ཏོ་	-11.0485
▁ཕ་ཌིལ་	-11.0486
བརྒྱུད་འབྲེལ་	-11.0489
གཏང་ནི་འདི་	-11.0489
ཁྱོད་ཀྱི་ཨའི་	-11.0492
བཤགས་པ་ཕུལ	-11.0493
ཁག་འབགཔ་	-11.0494
ཆུ་གི་	-11.0495
ལུ་དོགས་པ་	-11.0495
ཆ་གཅིག་	-11.0496
སྔོན་མ་ལས་	-11.0496
ཀྲུ་	-11.0496
ཕམ་མི་	-11.0497
ཌིསི་	-11.0497
་ཚར་ཞིནམ་ལས་	-11.0499
བདེ་ཏོག་ཏོ་ཚོར	-11.05
དུར་	-11.0501
གནག་མདོག་	-11.0503
གུང་	-11.0505
སྒྱིར་	-11.0506
ཉིན་བསྟར་གྱི་	-11.0507
གསོན་པོ་སྦེ་སྡོད	-11.0509
དམིགས་ཡུལ་འདི་	-11.0509
རྩལ་རྐྱབ་མི་	-11.051
གི་ནང་ན་	-11.051
ཡིན་	-11.0512
མ་འདྲི།	-11.0514
ིག་	-11.0515
ངོ་བོ་	-11.0515
འོང་ཚུགས	-11.0517
ཞལ་འཛོམས་ཅིག་	-11.0517
བལྟ་ནིའི་	-11.0518
ཉིམ་ཤར	-11.052
འབད་བཞག་	-11.0523
ཚུགས་པའི་	-11.0523
ཆུ་ནང་ཐིམ་	-11.0524
༩༩	-11.0524
གློག་བརྙན་བལྟ་བར	-11.0527
ཁྱོད་རའི་ཕམ་	-11.0528
ཝིག་	-11.053
གཅིག་སྦེ་	-11.0531
ཙིགཔ་ཟ་ནི་	-11.0532
ལྟ་བཤལཔ་	-11.0533
གལ་ཆེ་ཤོས་	-11.0533
མིས་ཊར་	-11.0533
མ་སྟོན	-11.0534
ཅིག་འདུག་ཟེར་	-11.0534
ཟིལ་	-11.0535
ཁྱིམ་ཆུང་	-11.0537
སྦྱངམ་	-11.0537
ལཱ་འབད་བར་འགྱོ	-11.0538
དམག་གི་	-11.0539
གཉིས་ལས་	-11.0539
ཡ་མཚན་ཅན་	-11.0539
སྦོམ་ཅིག་ཡོད།	-11.0539
ཁྱོད	-11.0539
གཡས་ཁ་ཐུག་ལུ་	-11.054
ལཱ་ཁག་འོང་།	-11.0543
ཆུང་ཀུ་འདུག།	-11.0543
གཙང་ཆུའི་	-11.0544
མགུ་ཏོ་ན	-11.0545
ལྷན་ཁག་	-11.0545
དབྱངས་ཅན་འདི་	-11.0545
མེདཔ་བཏང	-11.0545
ལུ་ང་བཅས་ཀྱི་	-11.0547
འཕྲུལ་མི་	-11.0548
ངེ་གི་སེམས་ཁར་	-11.0551
ཚེ་ལས་འདས	-11.0551
ཤོམ་	-11.0551
ལོ་གསར་	-11.0552
མཐུན་རྐྱེན་ཚུ་	-11.0552
གདོང་ཁའི་	-11.0553
དཔལ་སྒྲོན་ལུ་དེ་	-11.0555
གི་ལམ་	-11.0556
ལུ་སྐྱོན་	-11.0556
བདེན་འཛིན་མ་རེ	-11.0557
བདེན་དཔྱད་འབད	-11.0558
དབྱེ་བ་ཕྱེ	-11.0559
▁གོང་ཚད་འདི་	-11.056
ཉི་མ་དང་	-11.0561
རྒྱལ་སྤུང	-11.0562
་དོ་ཡོདཔ་མས།	-11.0563
▁ཀུན་ལེགས་འདི་	-11.0563
བསམ་པ་བཟང་པོ་	-11.0563
མལ་	-11.0565
▁ག་གིས་ཡང་ང་ལུ་	-11.0569
▁ཁོ་གིས་དེ་	-11.057
གཡབ་	-11.057
འདི་ཧེ་མ་ལས་ར་	-11.0571
ནང་བཙུགས་ཡི།	-11.0572
གཡིབ་སྟེ་	-11.0572
རྒྱལ་པོ་ལུ་	-11.0573
ལཱ་འགན་འདི་	-11.0573
འདི་ངེ་གི་ཨིན།	-11.0575
མ་འགྱོ་ཟེར་	-11.0576
ཤར་ལུ་	-11.0576
ཐོནམ་	-11.0576
འུར་	-11.0577
སློབ་གྲྭའི་ནང་	-11.0578
་ཁོ	-11.0578
འཐོབ་ནིའི་	-11.0579
གྱོ	-11.058
རྡོབ་	-11.0583
ལས་གཞན་	-11.0584
ཆ་རོགས་ལེགས་ཤོམ་	-11.0585
▁ང་གིས་འདི་ཀརྨ་	-11.0585
ཨིས་ཀ	-11.0586
ག་དེ་འབད་	-11.0586
ཨིན་ཟེར་སླབ་ཅི	-11.0587
▁མེ་རི་གིས་	-11.059
ངེའི་ཨའི་	-11.059
བཟོ་ནི།	-11.059
འཚོལ་ནི་གི་	-11.0592
སྦེ་འགྱོ	-11.0592
ལག་ལེན་འཐབ་ཚུགས	-11.0593
འཛུལ་ནི་	-11.0593
མ་ལྷབ།	-11.0594
ཉོ་ཡི་ག	-11.0595
བྱེད་	-11.0596
ད་འདི་	-11.0596
འབད་དགོཔ་འོང་།	-11.0598
དགེ་	-11.0598
ཀྱི་རིགས་	-11.0599
▁ང་ཤུལ་མའི་	-11.0601
▁ཌི་	-11.0602
འིཊ་	-11.0603
ོན་ལུ་ཁོ་གིས་	-11.0605
ཕཱ་	-11.0606
ཁ་བྱང་འདི་	-11.0606
སྡོད་དགོ	-11.0606
འགོར་	-11.0607
▁འོད་ཟེར་	-11.0608
རྩིས་ཀྱི་	-11.0608
ལེགས་ཤོམ་འདི་	-11.0608
བརྒྱུག་	-11.0609
▁ང་ཕར་	-11.061
གི་བློ་འདོད་མེད།	-11.0611
་ནི་ཟེར་	-11.0613
བདེན་པ་ཨིན།	-11.0613
རྩིས་རྐྱབ	-11.0614
མ་འོང་	-11.0615
ང་གིས་ང་རའི་	-11.0615
▁ཚན་རིག་	-11.0615
མ་ཆགས	-11.0618
གི་བྲོཝ་	-11.0618
▁ང་གིས་ངོ་མ་ར་	-11.0621
ཅར་	-11.0622
▁ཨྱོན་	-11.0622
▁ང་ཁོ་གི་	-11.0623
རྩལ་རྐྱབ་ནི་འདི་	-11.0624
ཞོ	-11.0625
འཐེནམ་	-11.0626
ཤེས་ཟེར་ང་གིས་	-11.063
བྲིས།	-11.0631
བཀྲ་ཤིས་དབང་མོ་	-11.0632
དཔལ་འཛོམས་ཀྱིས་	-11.0633
རྨ་རྐྱེན་	-11.0635
▁དེ་ང་བཅས་ཀྱི་	-11.0636
ག་ཏེ་ཡོད་ག	-11.0638
དེ་གིས་ང་	-11.0641
ས་དང་	-11.0641
འགྱོ་དགོ་ག	-11.0642
སེམས་ཤི་ཤིཝ་	-11.0644
ལི་ཊར་	-11.0645
མགྱོགས་ཤུགས་	-11.0645
འདི་རྒྱལ་ཁབ་	-11.0648
ཁང་མིག་གི་	-11.0648
ཧུམ་ཅུང་	-11.0652
བཀྲམ་	-11.0652
ནཱ་ལུ་ལྷོད	-11.0652
▁ང་གིས་ཊོམ་གྱིས་	-11.0653
་གནང་འོང་ག	-11.0653
▁ང་ཐད་རི་བ་རི་	-11.0653
▁བློ་	-11.0655
གཏང་ནི་ལུ་	-11.0655
འོང་འོངམ་	-11.0655
དང་འདྲན་འདྲ་	-11.0656
དཔའ་ཉམས་བསྐྱེད	-11.0657
མ་བསྐྱེད་པས།	-11.0657
ཁུ་སིམ་སིམ་སྦེ་	-11.0658
གསརཔ་གི་	-11.0661
ལས་ང་	-11.0662
ཌི་གི་	-11.0662
རྒྱང་མཐོང་ལྟ	-11.0663
ཨ་ཕི་འབད་མི་	-11.0664
ཧིལ་	-11.0666
དེ་འབད་ནི་ལས་	-11.0666
རྩིས་རྐྱབ་	-11.0666
མེད་མི་ཨིན།	-11.0667
མཇུག་མ་	-11.0669
ཉིནམ་ཅིག་ར་	-11.0669
མགུ་ཡུ་འཁོར	-11.0669
ཨུ་རུ་སུའི་	-11.0669
▁ཀིརིསི་ཕན་གྱིས་	-11.0669
ལྐོདམ་	-11.067
ལས་རོགསཔ་	-11.067
དྲནམ་བཏོན་	-11.067
ཡིག་སྡེབ་	-11.0671
བོས་ཊོན་ལུ་འགྱོ	-11.0672
བསྟེན	-11.0673
▁མི་ཅིག་	-11.0673
བཟོ་གྲྭའི་	-11.0674
བཞེས	-11.0674
ཙ	-11.0675
བརྩོན་འགྲུས་	-11.0678
སྣ་མང་ཚོང་ཁང་	-11.0678
རྒྱས་བཤད་	-11.068
གླིང་ཀ་ནང་	-11.068
མཐོང་རུང་	-11.068
བསྐལ་	-11.0682
གོང་ཚད་མར་ཕབ་	-11.0682
བཅའ་མར་གཏོགས་མི་	-11.0682
དཀར་ཅུང་	-11.0683
སྐོར་ལས་ཚ་གྱང་	-11.0683
གི་དཔའ་བཅམ་ནུག།	-11.0685
འདི་འབད་ཚུགས	-11.0686
▁གནས་སྟངས་ཚུ་	-11.0688
ལོ་གསུམ་གྱི་རིང་	-11.0689
ཀཱར་གསརཔ་	-11.0689
སོ་བཏབ་ཅི།	-11.0689
བི་ཡར་འཐུང	-11.0692
འཚོ་བ་	-11.0692
ཕྱག་དར་རྐྱབ	-11.0692
སིལ་ཚོང་	-11.0693
འདས་པའི་ལོ་	-11.0693
▁ངེ་གི་ཨ་ཞེམོ་	-11.0693
བཀའ་དྲིན་དགའ་ཚོར	-11.0693
ཆེ་བ་	-11.0694
རྡོ་རྗེ་ལུ་ཁོ་	-11.0697
▁ང་གིས་པད་མ་དང་	-11.0698
ཧེ་མའི་བདུན་ཕྲག་	-11.0698
ལུ་ཡིད་ཆེས་ཡོད།	-11.0699
རེ་བ་བཟང་པོ་	-11.07
་དོ་ཡོདཔ་དང་	-11.0701
འཛིན་སྐྱོང་འཐབ་	-11.0702
གྲི	-11.0703
ལམ་སྟོན་པ་	-11.0704
ཏན་	-11.0704
ཤོང་	-11.0706
ག་ནི་ཡང་མི་	-11.0707
▁ཀརྨ་གིས་ཡང་ཅིན་	-11.0708
བཏོན་བཀོ	-11.0708
ཟ་ཁང་ཅིག་ནང་	-11.0708
▁འདི་ངོ་མ་ར་	-11.0709
སྔོན་དཔག་འབད	-11.0709
དམ་ཚིག་	-11.0714
བྱིན་འོང	-11.0716
ཅིག་རྐྱབ	-11.0716
སྡོད་དགོཔ་སྦེ་	-11.0717
▁རྣམ་རྒྱལ་དང་	-11.0718
ཨ་པ་ལུ་	-11.0721
རྩུབ་སྤྱོད་ཅན་	-11.0722
ལུ་གཙོ་བོར་བཏོན	-11.0722
▁དེའི་	-11.0723
སྐར་མ་ཅིག་	-11.0723
ལག་སྒྲོམ་	-11.0725
ཨརཝ་བརྐུ་ཡི	-11.0729
▁བུ	-11.073
རྒྱལ་པོ་དང་དཔལ་	-11.0732
ནི་ལུ་ཆ་རོགས་འབད	-11.0733
དགའ་ཏོག་ཏོ་འདུག།	-11.0733
དེ་གིས་སྐོར་ལས་	-11.0734
སྣང་དག་མི་བསྐྱེད	-11.0735
▁ཆོས་སྒྲོན་འདི་	-11.0735
འབུར་	-11.0735
ཉལ་ཁྲི་གུ་	-11.0736
བ་ལྷག་སྟེ་	-11.0736
༠༡	-11.0737
ཁྲོམ་ལམ་འདི་	-11.0738
བྱུང་རྐྱེན་	-11.0739
སེམས་མ་དགའ་བར་	-11.074
ཀཱར་ཚུ་	-11.0743
གི་མཐོང་སྣང་	-11.0743
▁ཧེ་	-11.0745
་ཡི་ག་ཤེས	-11.0746
སྲུང་དེ་	-11.0748
ཌཱ	-11.075
ཕྲག་དོག་ཅན་	-11.075
མཇུག་བསྡུ་ནི་ལུ་	-11.0751
ཤེས་ག།	-11.0752
འགོ་བཙུགས་ནི་ལུ་	-11.0752
ཟ་སྟེ་	-11.0753
འཛེགས	-11.0753
མ་འབོ།	-11.0754
སྦེ་བརྩི་འཇོག་	-11.0754
ས་གོ་འདི་	-11.0755
ཨརཝ་བརྐུ་	-11.0755
རྐྱངམ་གཅིག་ཡོད།	-11.0756
ཆ་རོགས་འབད་གེ།	-11.0756
འོང་ནི་ཨིན་པས།	-11.0757
ག་དེ་སྦེ་འབད་ཡི	-11.0757
ལག་ལེན་མ་འཐབ	-11.0758
སྤྲོ་བ་མེདཔ་	-11.0759
ཀརྨ་དབང་མོ་	-11.0761
▁འཇིགས་མེད་འདི་	-11.0762
་བ	-11.0762
མེ་ཏོག་གི་	-11.0764
འདི་ཆ་མེད་གཏང	-11.0764
གཞོནམ་ཨིན།	-11.0766
ཉ་གཟུང་	-11.0766
ཤེས་ནུག	-11.0769
དམངས་	-11.077
ལོག་ཤོག།	-11.077
སཱོན་	-11.0771
སེམས་འདི་	-11.0771
བཅུག་ཡི།	-11.0771
མེདཔ་སྨོ	-11.0774
ཅིག་དགོ་ག	-11.0775
སིང་	-11.0776
དགོ་ནི་ཨིན་ན་	-11.0777
་ནི་གིས་	-11.0778
གནོདཔ་	-11.0779
རྟགས་བཀལ	-11.0779
ཟེར་མི་ཅིག་	-11.078
འབད་དགོ་མནོ་ནུག།	-11.0781
འཐོན་དེས།	-11.0781
འཕྱིས་སོ	-11.0781
ཆགས་ཏེ་ཡོད	-11.0782
སྤྲོ་བ་ཡོད	-11.0783
འཕྲལ་སྤྱོད་ཟ་ཁང་	-11.0783
མངརམོ་	-11.0783
ཤུལ་མམ་	-11.0783
རྗེས་དྲན་	-11.0784
རེ་འདུན་	-11.0784
▁ཁྱོད་ག་ཏེ་	-11.0785
ལུ་བློ་གཏད་	-11.0786
གཡོག་གི་	-11.0786
ནང་སྡོད་མི་	-11.0787
ཁོ་གིས་མ་ཤེས	-11.0788
དགའ་བ་འདི་	-11.0788
འོད་རྩི་	-11.0789
གློག་བརྙན་ཚུ་	-11.0789
ལུ་དེ་འབད་བཅུག	-11.0791
འཛོམས་འདུ་	-11.0791
▁ཁོང་གིས་འདི་	-11.0793
བདག་སྲུང་འབད	-11.0793
བརྡ་མཚོན་	-11.0793
མིག་ཤེལ་བཙུགས	-11.0798
ཏི་རུ་མངམ་	-11.0798
ནང་སྤྲོ་བ་	-11.0799
སྐད་ཤུགས་	-11.0801
༥༥	-11.0802
སྒོ་བརྡུང	-11.0804
སྲིད།	-11.0808
མཐའ་འཁོར་ལས་ཕར་	-11.081
ཨརཝ་ཤོར	-11.081
ཁོ་གིས་ཕུན་ཚོགས་	-11.081
ཁ་བཟེད་ཅི	-11.0811
དགོཔ་ཨིན་པས།	-11.0811
གླི་	-11.0812
གོ་སྟེ་	-11.0812
་ཡི་ག་ཟེར་	-11.0814
ཟིམ་འཕྲོས་འཕྲོས་	-11.0814
ཁྱོད་ཀྱིས་ངེ་གི་	-11.0814
་མི་ལས་ལྷག་སྟེ་	-11.0819
ཨུ་ཚུགས་རྐྱབ	-11.0819
དགའཝ་ཨིན་ན	-11.082
▁མགོན་པོ་གིས་	-11.0822
བསྲུང་	-11.0822
འཐུང་།	-11.0823
ངེ་གི་ཨ་ཞང་	-11.0823
བཟོད་མི་ཚུགས་པས	-11.0824
སམ་	-11.0826
ཧ་གོ་ཚུགས།	-11.0827
རག་རོ་	-11.0828
བསྒུག་མི་ཚུགས	-11.0829
ཅིག་ཨིནམ་ལས་	-11.0829
ཉིནམ་གཅིག་ལུ་	-11.0831
རྒས་རྒསཔ་	-11.0832
ཁྱིམ་ཚུ་	-11.0832
ཁྱོད་རའི་ཁྱིམ་	-11.0835
བཤུབ་	-11.0835
▁ཇ་	-11.0836
▁ངགིས་	-11.0837
རྒྱུ	-11.0837
མོ་གིས་ཀརྨ་གིས་	-11.0837
གྱི་ནང་འཁོད་	-11.0839
ཁོང་ག་ཅི་	-11.0839
▁ཁོ་གིས་ཁྱོད་	-11.0839
རྙིང་ཞེན་ཅན་	-11.084
ཚར་ལེ་ཤ་ཅིག་ར་	-11.0841
གོམས་གཤིས་	-11.0842
ཱོ་	-11.0843
ག་ཨིན་རུང་ཅིག་	-11.0844
ཆུ་ཚོད་བརྒྱད་	-11.0845
གྱི་ཉིནམ་	-11.0845
གྱི་སྦོ་ལོགས་ཁར་	-11.0845
སྣང་དག་	-11.0845
▁ཊོམ་ཁྱོད་	-11.0846
དཀའ་ངལ་ལེ་ཤ་	-11.0846
ུས་	-11.0847
གི་གོང་ཚད་	-11.0848
ལས་ལྷགཔ་	-11.085
ཡོད་ག་ཤེས	-11.085
ཐོབ་ཚུགས	-11.0853
འགྱོ་བཏུབ	-11.0853
བཟོ་དགོ་པས།	-11.0853
ངོ་པར་	-11.0855
▁ཁྱོད་ཀྱི་ཁྱིམ་	-11.0855
ལཱ་འབད་མི་ཚུ་	-11.0855
རྒྱུགས	-11.0855
་ཚུགས་ག་མི་ཚུགས་	-11.0855
མ་ཚོར	-11.0856
▁དཀར་པོ་ལ་	-11.0857
གསལ་བཤད་འདི་	-11.0859
གྱི་གདོང་ཁར་	-11.0861
་ལགས	-11.0863
ད་རུང་ལོག་	-11.0867
གསརཔ་དང་	-11.0867
མི་ཚེ་ནང་ལུ་	-11.0868
འབོར་ཆེ་ཏོག་ཏོ་	-11.0869
བཏང་བཏངམ་	-11.0869
་ཟེར་ཁ་བཟེད	-11.0869
▁ད་ལྟོ་ཚུན་	-11.087
▁འདི་ཧ་ལམ་	-11.0874
སྤྲོ་བ་ཅན་གྱི་	-11.0877
མ་འབད་བས་ཟེར་	-11.0878
རྒྱལ་འཛིན་	-11.0879
་ཚུགསཔ་བཟོ	-11.0881
འཛིན་གཟུང་	-11.0883
ཨིན་ཟེར་མི་འདི་	-11.0883
ཚད་འཇལ	-11.0885
ལེ་ཤ་འཐུང	-11.0886
▁ཇ	-11.0888
ཨིང་སྐད་ནང་	-11.0888
དལཝ་མེད	-11.0889
མི་འབྱུང	-11.089
བསྒང་	-11.0892
ལྡུམ་ར་ནང་ལུ་	-11.0893
[...]
